#include "magic_wand_model_data.h"

// We need to keep the data array aligned on some architectures.
#ifdef __has_attribute
#define HAVE_ATTRIBUTE(x) __has_attribute(x)
#else
#define HAVE_ATTRIBUTE(x) 0
#endif
#if HAVE_ATTRIBUTE(aligned) || (defined(__GNUC__) && !defined(__clang__))
#define DATA_ALIGN_ATTRIBUTE __attribute__((aligned(4)))
#else
#define DATA_ALIGN_ATTRIBUTE
#endif

const unsigned char g_magic_wand_model_data[] DATA_ALIGN_ATTRIBUTE = {
  0x08, 0x00, 0x00, 0x00, 0x54, 0x46, 0x4c, 0x33, 0x62, 0xff, 0xff, 0xff,
  0x03, 0x00, 0x00, 0x00, 0x10, 0x00, 0x00, 0x00, 0x24, 0x00, 0x00, 0x00,
  0x78, 0x00, 0x00, 0x00, 0x24, 0x00, 0x00, 0x00, 0x05, 0x00, 0x00, 0x00,
  0x78, 0x05, 0x00, 0x00, 0xb0, 0x04, 0x00, 0x00, 0xe0, 0x02, 0x00, 0x00,
  0x60, 0x02, 0x00, 0x00, 0x54, 0x01, 0x00, 0x00, 0x01, 0x00, 0x00, 0x00,
  0x78, 0x00, 0x00, 0x00, 0x13, 0x00, 0x00, 0x00, 0x18, 0x30, 0x00, 0x00,
  0x14, 0x30, 0x00, 0x00, 0x20, 0x2f, 0x00, 0x00, 0xa8, 0x2e, 0x00, 0x00,
  0x3c, 0x2e, 0x00, 0x00, 0xec, 0x11, 0x00, 0x00, 0x98, 0x10, 0x00, 0x00,
  0xbc, 0x0e, 0x00, 0x00, 0x60, 0x06, 0x00, 0x00, 0xfc, 0x05, 0x00, 0x00,
  0x78, 0x05, 0x00, 0x00, 0xec, 0x2f, 0x00, 0x00, 0xe8, 0x2f, 0x00, 0x00,
  0xe4, 0x2f, 0x00, 0x00, 0xe0, 0x2f, 0x00, 0x00, 0xdc, 0x2f, 0x00, 0x00,
  0xd8, 0x2f, 0x00, 0x00, 0xd4, 0x2f, 0x00, 0x00, 0xd0, 0x2f, 0x00, 0x00,
  0x0f, 0x00, 0x00, 0x00, 0x4d, 0x4c, 0x49, 0x52, 0x20, 0x43, 0x6f, 0x6e,
  0x76, 0x65, 0x72, 0x74, 0x65, 0x64, 0x2e, 0x00, 0x00, 0x00, 0x0e, 0x00,
  0x18, 0x00, 0x04, 0x00, 0x08, 0x00, 0x0c, 0x00, 0x10, 0x00, 0x14, 0x00,
  0x0e, 0x00, 0x00, 0x00, 0x14, 0x00, 0x00, 0x00, 0x5c, 0x00, 0x00, 0x00,
  0x60, 0x00, 0x00, 0x00, 0x64, 0x00, 0x00, 0x00, 0x84, 0x00, 0x00, 0x00,
  0x12, 0x00, 0x00, 0x00, 0x48, 0x2f, 0x00, 0x00, 0xe4, 0x2e, 0x00, 0x00,
  0x3c, 0x2e, 0x00, 0x00, 0xd8, 0x2d, 0x00, 0x00, 0x70, 0x2d, 0x00, 0x00,
  0x1c, 0x11, 0x00, 0x00, 0xc0, 0x0f, 0x00, 0x00, 0xe4, 0x0d, 0x00, 0x00,
  0xa0, 0x05, 0x00, 0x00, 0x3c, 0x05, 0x00, 0x00, 0xb0, 0x04, 0x00, 0x00,
  0xe8, 0x03, 0x00, 0x00, 0x38, 0x03, 0x00, 0x00, 0xa4, 0x02, 0x00, 0x00,
  0x10, 0x02, 0x00, 0x00, 0x90, 0x01, 0x00, 0x00, 0xfc, 0x00, 0x00, 0x00,
  0x80, 0x00, 0x00, 0x00, 0x01, 0x00, 0x00, 0x00, 0x00, 0x00, 0x00, 0x00,
  0x01, 0x00, 0x00, 0x00, 0x11, 0x00, 0x00, 0x00, 0x08, 0x00, 0x00, 0x00,
  0x1c, 0x04, 0x00, 0x00, 0x58, 0x03, 0x00, 0x00, 0xc8, 0x02, 0x00, 0x00,
  0x24, 0x02, 0x00, 0x00, 0xac, 0x01, 0x00, 0x00, 0x10, 0x01, 0x00, 0x00,
  0x94, 0x00, 0x00, 0x00, 0x10, 0x00, 0x00, 0x00, 0x04, 0x00, 0x00, 0x00,
  0x6d, 0x61, 0x69, 0x6e, 0x00, 0x00, 0x00, 0x00, 0x8e, 0xff, 0xff, 0xff,
  0x00, 0x00, 0x00, 0x09, 0x04, 0x00, 0x00, 0x00, 0x1c, 0x00, 0x00, 0x00,
  0x10, 0x00, 0x00, 0x00, 0x04, 0x00, 0x00, 0x00, 0x0a, 0xd2, 0xff, 0xff,
  0x00, 0x00, 0x80, 0x3f, 0x01, 0x00, 0x00, 0x00, 0x11, 0x00, 0x00, 0x00,
  0x01, 0x00, 0x00, 0x00, 0x10, 0x00, 0x00, 0x00, 0xf6, 0xfb, 0xff, 0xff,
  0x00, 0x00, 0x00, 0x19, 0x01, 0x00, 0x00, 0x00, 0x8a, 0xd1, 0xff, 0xff,
  0x10, 0x00, 0x00, 0x00, 0x12, 0x00, 0x00, 0x00, 0x14, 0x00, 0x00, 0x00,
  0x20, 0x00, 0x00, 0x00, 0x02, 0x00, 0x00, 0x00, 0x01, 0x00, 0x00, 0x00,
  0x04, 0x00, 0x00, 0x00, 0x08, 0x00, 0x00, 0x00, 0x49, 0x64, 0x65, 0x6e,
  0x74, 0x69, 0x74, 0x79, 0x00, 0x00, 0x00, 0x00, 0xc4, 0xd1, 0xff, 0xff,
  0x00, 0x00, 0x0e, 0x00, 0x18, 0x00, 0x08, 0x00, 0x0c, 0x00, 0x10, 0x00,
  0x07, 0x00, 0x14, 0x00, 0x0e, 0x00, 0x00, 0x00, 0x00, 0x00, 0x00, 0x08,
  0x03, 0x00, 0x00, 0x00, 0x18, 0x00, 0x00, 0x00, 0x0c, 0x00, 0x00, 0x00,
  0x04, 0x00, 0x00, 0x00, 0x98, 0xd1, 0xff, 0xff, 0x01, 0x00, 0x00, 0x00,
  0x10, 0x00, 0x00, 0x00, 0x03, 0x00, 0x00, 0x00, 0x0f, 0x00, 0x00, 0x00,
  0x05, 0x00, 0x00, 0x00, 0x02, 0x00, 0x00, 0x00, 0x02, 0xd2, 0xff, 0xff,
  0x10, 0x00, 0x00, 0x00, 0x11, 0x00, 0x00, 0x00, 0x14, 0x00, 0x00, 0x00,
  0x30, 0x00, 0x00, 0x00, 0x02, 0x00, 0x00, 0x00, 0x01, 0x00, 0x00, 0x00,
  0x04, 0x00, 0x00, 0x00, 0x1a, 0x00, 0x00, 0x00, 0x73, 0x65, 0x71, 0x75,
  0x65, 0x6e, 0x74, 0x69, 0x61, 0x6c, 0x2f, 0x64, 0x65, 0x6e, 0x73, 0x65,
  0x5f, 0x31, 0x2f, 0x42, 0x69, 0x61, 0x73, 0x41, 0x64, 0x64, 0x00, 0x00,
  0xf4, 0xd1, 0xff, 0xff, 0xd6, 0xfd, 0xff, 0xff, 0x00, 0x00, 0x00, 0x08,
  0x03, 0x00, 0x00, 0x00, 0x24, 0x00, 0x00, 0x00, 0x18, 0x00, 0x00, 0x00,
  0x0c, 0x00, 0x00, 0x00, 0x00, 0x00, 0x06, 0x00, 0x08, 0x00, 0x07, 0x00,
  0x06, 0x00, 0x00, 0x00, 0x00, 0x00, 0x00, 0x01, 0x01, 0x00, 0x00, 0x00,
  0x0f, 0x00, 0x00, 0x00, 0x03, 0x00, 0x00, 0x00, 0x0e, 0x00, 0x00, 0x00,
  0x04, 0x00, 0x00, 0x00, 0x01, 0x00, 0x00, 0x00, 0xfe, 0xfc, 0xff, 0xff,
  0x00, 0x00, 0x00, 0x09, 0x01, 0x00, 0x00, 0x00, 0x92, 0xd2, 0xff, 0xff,
  0x10, 0x00, 0x00, 0x00, 0x10, 0x00, 0x00, 0x00, 0x14, 0x00, 0x00, 0x00,
  0x2c, 0x00, 0x00, 0x00, 0x02, 0x00, 0x00, 0x00, 0x01, 0x00, 0x00, 0x00,
  0x10, 0x00, 0x00, 0x00, 0x15, 0x00, 0x00, 0x00, 0x73, 0x65, 0x71, 0x75,
  0x65, 0x6e, 0x74, 0x69, 0x61, 0x6c, 0x2f, 0x64, 0x65, 0x6e, 0x73, 0x65,
  0x2f, 0x52, 0x65, 0x6c, 0x75, 0x00, 0x00, 0x00, 0xd8, 0xd2, 0xff, 0xff,
  0x00, 0x00, 0x0a, 0x00, 0x10, 0x00, 0x04, 0x00, 0x08, 0x00, 0x0c, 0x00,
  0x0a, 0x00, 0x00, 0x00, 0x02, 0x00, 0x00, 0x00, 0x10, 0x00, 0x00, 0x00,
  0x04, 0x00, 0x00, 0x00, 0x01, 0x00, 0x00, 0x00, 0x0e, 0x00, 0x00, 0x00,
  0x02, 0x00, 0x00, 0x00, 0x0d, 0x00, 0x00, 0x00, 0x03, 0x00, 0x00, 0x00,
  0x7a, 0xfd, 0xff, 0xff, 0x00, 0x00, 0x00, 0x16, 0x01, 0x00, 0x00, 0x00,
  0x0e, 0xd3, 0xff, 0xff, 0x10, 0x00, 0x00, 0x00, 0x0f, 0x00, 0x00, 0x00,
  0x14, 0x00, 0x00, 0x00, 0x30, 0x00, 0x00, 0x00, 0x02, 0x00, 0x00, 0x00,
  0x01, 0x00, 0x00, 0x00, 0x70, 0x00, 0x00, 0x00, 0x1a, 0x00, 0x00, 0x00,
  0x73, 0x65, 0x71, 0x75, 0x65, 0x6e, 0x74, 0x69, 0x61, 0x6c, 0x2f, 0x66,
  0x6c, 0x61, 0x74, 0x74, 0x65, 0x6e, 0x2f, 0x52, 0x65, 0x73, 0x68, 0x61,
  0x70, 0x65, 0x00, 0x00, 0x00, 0xd3, 0xff, 0xff, 0xe2, 0xfe, 0xff, 0xff,
  0x00, 0x00, 0x00, 0x05, 0x01, 0x00, 0x00, 0x00, 0x38, 0x00, 0x00, 0x00,
  0x2c, 0x00, 0x00, 0x00, 0x14, 0x00, 0x00, 0x00, 0x00, 0x00, 0x0e, 0x00,
  0x14, 0x00, 0x00, 0x00, 0x10, 0x00, 0x0c, 0x00, 0x08, 0x00, 0x04, 0x00,
  0x0e, 0x00, 0x00, 0x00, 0x03, 0x00, 0x00, 0x00, 0x01, 0x00, 0x00, 0x00,
  0x03, 0x00, 0x00, 0x00, 0x01, 0x00, 0x00, 0x00, 0x01, 0x00, 0x00, 0x00,
  0x0d, 0x00, 0x00, 0x00, 0x01, 0x00, 0x00, 0x00, 0x0c, 0x00, 0x00, 0x00,
  0x9e, 0xd3, 0xff, 0xff, 0x10, 0x00, 0x00, 0x00, 0x0e, 0x00, 0x00, 0x00,
  0x1c, 0x00, 0x00, 0x00, 0x40, 0x00, 0x00, 0x00, 0x04, 0x00, 0x00, 0x00,
  0x01, 0x00, 0x00, 0x00, 0x07, 0x00, 0x00, 0x00, 0x01, 0x00, 0x00, 0x00,
  0x10, 0x00, 0x00, 0x00, 0x22, 0x00, 0x00, 0x00, 0x73, 0x65, 0x71, 0x75,
  0x65, 0x6e, 0x74, 0x69, 0x61, 0x6c, 0x2f, 0x6d, 0x61, 0x78, 0x5f, 0x70,
  0x6f, 0x6f, 0x6c, 0x69, 0x6e, 0x67, 0x32, 0x64, 0x5f, 0x31, 0x2f, 0x4d,
  0x61, 0x78, 0x50, 0x6f, 0x6f, 0x6c, 0x00, 0x00, 0xa0, 0xd3, 0xff, 0xff,
  0xc2, 0xfe, 0xff, 0xff, 0x00, 0x00, 0x00, 0x01, 0x24, 0x00, 0x00, 0x00,
  0x18, 0x00, 0x00, 0x00, 0x04, 0x00, 0x00, 0x00, 0xb4, 0xfe, 0xff, 0xff,
  0x01, 0x00, 0x00, 0x00, 0x01, 0x00, 0x00, 0x00, 0x00, 0x00, 0x00, 0x01,
  0x01, 0x00, 0x00, 0x00, 0x0c, 0x00, 0x00, 0x00, 0x03, 0x00, 0x00, 0x00,
  0x0b, 0x00, 0x00, 0x00, 0x07, 0x00, 0x00, 0x00, 0x09, 0x00, 0x00, 0x00,
  0x2e, 0xd4, 0xff, 0xff, 0x10, 0x00, 0x00, 0x00, 0x0d, 0x00, 0x00, 0x00,
  0x1c, 0x00, 0x00, 0x00, 0x2c, 0x00, 0x00, 0x00, 0x04, 0x00, 0x00, 0x00,
  0x01, 0x00, 0x00, 0x00, 0x15, 0x00, 0x00, 0x00, 0x01, 0x00, 0x00, 0x00,
  0x10, 0x00, 0x00, 0x00, 0x0c, 0x00, 0x00, 0x00, 0x74, 0x66, 0x6c, 0x2e,
  0x63, 0x6f, 0x6e, 0x76, 0x5f, 0x32, 0x64, 0x31, 0x00, 0x00, 0x00, 0x00,
  0x74, 0xd4, 0xff, 0xff, 0x00, 0x00, 0x0e, 0x00, 0x1a, 0x00, 0x08, 0x00,
  0x0c, 0x00, 0x10, 0x00, 0x07, 0x00, 0x14, 0x00, 0x0e, 0x00, 0x00, 0x00,
  0x00, 0x00, 0x00, 0x05, 0x01, 0x00, 0x00, 0x00, 0x3c, 0x00, 0x00, 0x00,
  0x30, 0x00, 0x00, 0x00, 0x14, 0x00, 0x00, 0x00, 0x00, 0x00, 0x0e, 0x00,
  0x18, 0x00, 0x17, 0x00, 0x10, 0x00, 0x0c, 0x00, 0x08, 0x00, 0x04, 0x00,
  0x0e, 0x00, 0x00, 0x00, 0x03, 0x00, 0x00, 0x00, 0x03, 0x00, 0x00, 0x00,
  0x03, 0x00, 0x00, 0x00, 0x03, 0x00, 0x00, 0x00, 0x00, 0x00, 0x00, 0x01,
  0x01, 0x00, 0x00, 0x00, 0x0b, 0x00, 0x00, 0x00, 0x01, 0x00, 0x00, 0x00,
  0x0a, 0x00, 0x00, 0x00, 0x46, 0xff, 0xff, 0xff, 0x00, 0x00, 0x00, 0x11,
  0x01, 0x00, 0x00, 0x00, 0xda, 0xd4, 0xff, 0xff, 0x10, 0x00, 0x00, 0x00,
  0x0c, 0x00, 0x00, 0x00, 0x1c, 0x00, 0x00, 0x00, 0x40, 0x00, 0x00, 0x00,
  0x04, 0x00, 0x00, 0x00, 0x01, 0x00, 0x00, 0x00, 0x15, 0x00, 0x00, 0x00,
  0x01, 0x00, 0x00, 0x00, 0x08, 0x00, 0x00, 0x00, 0x20, 0x00, 0x00, 0x00,
  0x73, 0x65, 0x71, 0x75, 0x65, 0x6e, 0x74, 0x69, 0x61, 0x6c, 0x2f, 0x6d,
  0x61, 0x78, 0x5f, 0x70, 0x6f, 0x6f, 0x6c, 0x69, 0x6e, 0x67, 0x32, 0x64,
  0x2f, 0x4d, 0x61, 0x78, 0x50, 0x6f, 0x6f, 0x6c, 0x00, 0x00, 0x00, 0x00,
  0x34, 0xd5, 0xff, 0xff, 0x00, 0x00, 0x0e, 0x00, 0x14, 0x00, 0x00, 0x00,
  0x08, 0x00, 0x0c, 0x00, 0x07, 0x00, 0x10, 0x00, 0x0e, 0x00, 0x00, 0x00,
  0x00, 0x00, 0x00, 0x01, 0x30, 0x00, 0x00, 0x00, 0x24, 0x00, 0x00, 0x00,
  0x10, 0x00, 0x00, 0x00, 0x0c, 0x00, 0x10, 0x00, 0x00, 0x00, 0x04, 0x00,
  0x08, 0x00, 0x0f, 0x00, 0x0c, 0x00, 0x00, 0x00, 0x01, 0x00, 0x00, 0x00,
  0x01, 0x00, 0x00, 0x00, 0x00, 0x00, 0x00, 0x01, 0x01, 0x00, 0x00, 0x00,
  0x0a, 0x00, 0x00, 0x00, 0x03, 0x00, 0x00, 0x00, 0x00, 0x00, 0x00, 0x00,
  0x06, 0x00, 0x00, 0x00, 0x08, 0x00, 0x00, 0x00, 0x00, 0x00, 0x0a, 0x00,
  0x0c, 0x00, 0x07, 0x00, 0x00, 0x00, 0x08, 0x00, 0x0a, 0x00, 0x00, 0x00,
  0x00, 0x00, 0x00, 0x03, 0x01, 0x00, 0x00, 0x00, 0x9e, 0xd5, 0xff, 0xff,
  0x10, 0x00, 0x00, 0x00, 0x0b, 0x00, 0x00, 0x00, 0x1c, 0x00, 0x00, 0x00,
  0x28, 0x00, 0x00, 0x00, 0x04, 0x00, 0x00, 0x00, 0x01, 0x00, 0x00, 0x00,
  0x40, 0x00, 0x00, 0x00, 0x03, 0x00, 0x00, 0x00, 0x08, 0x00, 0x00, 0x00,
  0x0b, 0x00, 0x00, 0x00, 0x74, 0x66, 0x6c, 0x2e, 0x63, 0x6f, 0x6e, 0x76,
  0x5f, 0x32, 0x64, 0x00, 0x88, 0xd5, 0xff, 0xff, 0x7e, 0xd6, 0xff, 0xff,
  0x04, 0x00, 0x00, 0x00, 0x40, 0x00, 0x00, 0x00, 0x4c, 0xc4, 0x21, 0xc0,
  0x82, 0x4d, 0x5e, 0xbd, 0x81, 0xfb, 0xad, 0xbf, 0x46, 0xa1, 0xf6, 0xbb,
  0x34, 0x93, 0x5a, 0xbe, 0xe9, 0xf9, 0x82, 0xbf, 0xbb, 0x0a, 0x87, 0xbf,
  0x38, 0xe5, 0x01, 0x3f, 0x3a, 0x37, 0x6e, 0xbf, 0x42, 0x76, 0x96, 0xbf,
  0xf8, 0x23, 0xda, 0xbf, 0xb6, 0xf3, 0x61, 0x40, 0x5d, 0x01, 0x87, 0x40,
  0x51, 0x97, 0x34, 0xbf, 0xdc, 0xd9, 0x8d, 0x40, 0x05, 0x09, 0xf3, 0xbc,
  0x26, 0xd6, 0xff, 0xff, 0x10, 0x00, 0x00, 0x00, 0x0a, 0x00, 0x00, 0x00,
  0x10, 0x00, 0x00, 0x00, 0x20, 0x00, 0x00, 0x00, 0x01, 0x00, 0x00, 0x00,
  0x10, 0x00, 0x00, 0x00, 0x0d, 0x00, 0x00, 0x00, 0x73, 0x74, 0x64, 0x2e,
  0x63, 0x6f, 0x6e, 0x73, 0x74, 0x61, 0x6e, 0x74, 0x31, 0x00, 0x00, 0x00,
  0x08, 0xd6, 0xff, 0xff, 0xfe, 0xd6, 0xff, 0xff, 0x04, 0x00, 0x00, 0x00,
  0x20, 0x00, 0x00, 0x00, 0xa5, 0xec, 0xe1, 0xbf, 0x5c, 0xd0, 0x36, 0xc0,
  0x26, 0xca, 0xf7, 0xbf, 0x4c, 0x82, 0xb4, 0xbf, 0x40, 0x01, 0x3f, 0xc0,
  0x87, 0x28, 0x32, 0xbf, 0x61, 0x78, 0x9c, 0xbf, 0x62, 0x69, 0x28, 0xbf,
  0x86, 0xd6, 0xff, 0xff, 0x10, 0x00, 0x00, 0x00, 0x09, 0x00, 0x00, 0x00,
  0x10, 0x00, 0x00, 0x00, 0x20, 0x00, 0x00, 0x00, 0x01, 0x00, 0x00, 0x00,
  0x08, 0x00, 0x00, 0x00, 0x0c, 0x00, 0x00, 0x00, 0x73, 0x74, 0x64, 0x2e,
  0x63, 0x6f, 0x6e, 0x73, 0x74, 0x61, 0x6e, 0x74, 0x00, 0x00, 0x00, 0x00,
  0x68, 0xd6, 0xff, 0xff, 0x5e, 0xd7, 0xff, 0xff, 0x04, 0x00, 0x00, 0x00,
  0x00, 0x08, 0x00, 0x00, 0x07, 0xff, 0x10, 0xbb, 0x2a, 0xc4, 0xa4, 0xbb,
  0x0b, 0x38, 0x07, 0xbe, 0xc8, 0x4d, 0x91, 0x3c, 0x04, 0x6c, 0x01, 0x3e,
  0xe2, 0x79, 0x8d, 0xbd, 0xbd, 0xff, 0x0d, 0xbe, 0xe5, 0x15, 0x1d, 0xbe,
  0xf5, 0xc6, 0x3d, 0xbd, 0xde, 0x2e, 0x23, 0x3f, 0x9f, 0x64, 0xf5, 0xbd,
  0x11, 0x2c, 0x0e, 0xbd, 0xe0, 0x08, 0x0f, 0x3e, 0x54, 0x85, 0x36, 0xbe,
  0xb2, 0xd3, 0x87, 0xbe, 0xc6, 0xfc, 0x2f, 0x3c, 0xdf, 0x71, 0x57, 0x3d,
  0xc3, 0x18, 0xce, 0xbe, 0x88, 0xcc, 0x09, 0xbc, 0xb8, 0xd8, 0xf7, 0x3d,
  0x0e, 0xe3, 0x30, 0x3d, 0xf9, 0x96, 0xd8, 0xbd, 0x2e, 0x88, 0x01, 0xbe,
  0x02, 0x6b, 0x8e, 0x3d, 0x04, 0x26, 0x1f, 0xbd, 0xda, 0x69, 0xc2, 0xbe,
  0xfb, 0xc5, 0x86, 0xb9, 0xac, 0x78, 0x30, 0xbe, 0x33, 0xbb, 0xba, 0xba,
  0x4b, 0xe2, 0xf3, 0xbd, 0x48, 0x1a, 0x81, 0xbd, 0xf0, 0xf4, 0x8a, 0xbd,
  0x0a, 0xa3, 0x3c, 0xbe, 0x87, 0x5e, 0xbe, 0xbd, 0xd9, 0x4a, 0x5e, 0xbe,
  0xe5, 0x45, 0x80, 0xbe, 0xae, 0x42, 0x3e, 0x3e, 0x2e, 0x66, 0x12, 0x3d,
  0x0f, 0xb5, 0x33, 0xbe, 0x54, 0x9a, 0x2b, 0xbd, 0xfd, 0x1f, 0x6b, 0xbe,
  0x9e, 0x8f, 0x85, 0xbc, 0xeb, 0x8d, 0xbc, 0xbe, 0x02, 0xfb, 0x4f, 0xbc,
  0xd0, 0x7d, 0xdd, 0xbd, 0x29, 0x29, 0xa8, 0xbc, 0xac, 0x16, 0x69, 0xbe,
  0x27, 0xfe, 0x29, 0x3e, 0xba, 0x86, 0x8c, 0xbd, 0x41, 0x6f, 0x29, 0x3e,
  0x83, 0x7b, 0x1d, 0x3d, 0xa5, 0x75, 0x5b, 0x3e, 0xa9, 0x6d, 0x7a, 0x3e,
  0x21, 0xc4, 0xb3, 0x3e, 0x93, 0xa7, 0xb3, 0xbd, 0x3e, 0x9c, 0x56, 0x3d,
  0x5c, 0x46, 0x28, 0xbe, 0x7e, 0xdb, 0x73, 0x3d, 0x33, 0x12, 0xc3, 0xbc,
  0x1d, 0x52, 0xbd, 0xbb, 0x5b, 0xe2, 0x99, 0x3c, 0x2f, 0xb5, 0x46, 0x3e,
  0x5a, 0x9d, 0x06, 0xbe, 0x7d, 0x25, 0x5b, 0xbc, 0xc5, 0xc9, 0x26, 0xbd,
  0xc0, 0x0d, 0x45, 0xbe, 0xfa, 0xc4, 0x47, 0xbd, 0x79, 0x62, 0x7f, 0xbd,
  0x26, 0x06, 0x37, 0x3f, 0x54, 0xfb, 0x45, 0xbe, 0xd2, 0x6f, 0x5c, 0xbe,
  0x03, 0x89, 0x53, 0x3d, 0x96, 0xb3, 0xf3, 0xbd, 0xda, 0x86, 0xa3, 0xbe,
  0x96, 0x5d, 0xda, 0xbd, 0x23, 0x86, 0x0e, 0xbe, 0x19, 0x1a, 0x12, 0xbe,
  0x98, 0x2c, 0xb2, 0xbe, 0xae, 0x07, 0x84, 0xbe, 0x61, 0xbb, 0xa1, 0xbd,
  0x21, 0x3a, 0x23, 0xbd, 0x4a, 0x67, 0x20, 0xbe, 0xab, 0xef, 0xad, 0xbd,
  0x48, 0x22, 0xeb, 0xbd, 0xd9, 0x32, 0x6c, 0xbe, 0xd4, 0xd8, 0x25, 0xbe,
  0x03, 0x47, 0x11, 0xbd, 0xcf, 0x9b, 0xb7, 0xbd, 0xbd, 0x62, 0x9c, 0x3e,
  0xa9, 0x67, 0x41, 0x3e, 0x6b, 0x81, 0x79, 0x3d, 0xb1, 0xbc, 0xc1, 0x3e,
  0xa6, 0xd9, 0xc5, 0xbd, 0xf1, 0x21, 0x76, 0x3e, 0x67, 0xe7, 0x59, 0xbd,
  0x7a, 0x6d, 0xc5, 0xbd, 0x63, 0x18, 0xd4, 0xbd, 0x4a, 0xd6, 0xc5, 0xbc,
  0xec, 0x88, 0x30, 0x3c, 0x29, 0xa2, 0x77, 0xbe, 0xe3, 0x69, 0x96, 0xbe,
  0x3b, 0x42, 0x39, 0xbe, 0xa8, 0xef, 0x77, 0xbd, 0x89, 0x2c, 0x3b, 0xbe,
  0xe8, 0x9d, 0x0c, 0xbe, 0xe5, 0x7b, 0x9d, 0x3e, 0x19, 0x3a, 0x96, 0xbd,
  0xc2, 0xad, 0xe6, 0xbd, 0x19, 0x74, 0x9a, 0x3d, 0xaf, 0x25, 0xb5, 0xbb,
  0xa5, 0x0a, 0x77, 0xbc, 0x70, 0xb5, 0x12, 0xbe, 0x8f, 0xa9, 0x45, 0xbe,
  0x54, 0xae, 0x54, 0x3e, 0x5b, 0xde, 0x3c, 0xbd, 0xe9, 0xd8, 0x4d, 0xbe,
  0x5c, 0xd5, 0x3c, 0xbe, 0xfa, 0xbf, 0xf8, 0xbb, 0x7d, 0xf8, 0x8c, 0x3e,
  0x2e, 0xc4, 0x86, 0xbe, 0xb4, 0x94, 0x02, 0xbe, 0x98, 0x13, 0xb5, 0x3d,
  0x73, 0xb4, 0xba, 0x3e, 0x8a, 0xbb, 0xb5, 0xbe, 0x2c, 0x68, 0x24, 0x3c,
  0xc5, 0x42, 0xcb, 0x3d, 0x1c, 0xb4, 0xa2, 0xbd, 0x54, 0x63, 0xbb, 0xbe,
  0xb5, 0x35, 0x44, 0xbd, 0xb8, 0xdb, 0xc3, 0xbc, 0x9b, 0xc1, 0x42, 0x3e,
  0x59, 0x33, 0xf6, 0xbd, 0xfc, 0xf6, 0x7e, 0x3e, 0xbd, 0x37, 0x0a, 0x3e,
  0xa2, 0x5e, 0xd4, 0x3e, 0x77, 0xc7, 0x60, 0xbe, 0xad, 0x71, 0xc9, 0xbd,
  0x31, 0x7e, 0x73, 0x3d, 0x86, 0x0d, 0xaa, 0xbd, 0x0e, 0x8a, 0xbd, 0xbd,
  0xb0, 0xfa, 0x0c, 0x3e, 0xaf, 0x58, 0xb4, 0x3d, 0xe3, 0x2e, 0x0a, 0x3d,
  0xeb, 0x83, 0x5f, 0xbe, 0x5c, 0xc2, 0xa9, 0xbd, 0x63, 0xae, 0xb1, 0xbd,
  0xb8, 0x5b, 0x67, 0xbc, 0xdb, 0x32, 0x7e, 0xbd, 0x0f, 0x5a, 0x29, 0x3e,
  0x1c, 0x28, 0x29, 0xbd, 0xc9, 0x4d, 0x0b, 0x3c, 0x9a, 0x85, 0xa8, 0xbb,
  0x31, 0x5e, 0x4d, 0xbd, 0x75, 0xbf, 0xbd, 0xbd, 0x71, 0xb0, 0x2c, 0xbb,
  0x54, 0x4b, 0x9f, 0xbd, 0x7b, 0x14, 0x2a, 0x3e, 0x74, 0x3a, 0xe3, 0x3d,
  0xc5, 0xd9, 0xa8, 0xbb, 0x04, 0x13, 0xac, 0x3d, 0x42, 0x3e, 0x35, 0xbd,
  0xa1, 0x7d, 0x55, 0xbe, 0x53, 0xd1, 0x55, 0xbe, 0x2b, 0x2a, 0x42, 0x3e,
  0xba, 0x60, 0x8a, 0xbe, 0x7a, 0x27, 0x0c, 0xbe, 0x27, 0xe8, 0x24, 0xbe,
  0xce, 0x88, 0xd4, 0xbd, 0x40, 0xd4, 0x81, 0xbd, 0x55, 0xc1, 0xe5, 0xbd,
  0x61, 0x18, 0xf0, 0x3e, 0xb1, 0x1c, 0x06, 0xbd, 0xcb, 0x0d, 0x1e, 0x3e,
  0x3e, 0x3a, 0x44, 0xbd, 0xf2, 0x99, 0x7d, 0xbd, 0x7f, 0x52, 0x4b, 0xbd,
  0xa1, 0x53, 0xef, 0xbe, 0x0d, 0xe7, 0xce, 0xbd, 0x51, 0x51, 0xbc, 0xbb,
  0x61, 0xe3, 0x25, 0x3e, 0x9e, 0x74, 0x4c, 0x3e, 0xae, 0x87, 0x6f, 0xbe,
  0x56, 0x12, 0xec, 0xbd, 0x50, 0x3b, 0x2e, 0xbe, 0x87, 0x61, 0xc5, 0xbe,
  0xda, 0xca, 0xf4, 0xbd, 0x68, 0x8d, 0xd0, 0xbc, 0x72, 0x09, 0x15, 0xbe,
  0xac, 0xb0, 0xf2, 0x3e, 0x1f, 0x31, 0xed, 0xbd, 0xe2, 0x60, 0x01, 0xbd,
  0xc1, 0xd8, 0x3b, 0xbe, 0xda, 0x99, 0x0a, 0xbe, 0xab, 0xfc, 0x2f, 0x3d,
  0x06, 0x51, 0x28, 0x3e, 0xb1, 0x86, 0x93, 0x3d, 0x88, 0x78, 0x06, 0xbd,
  0xa5, 0x8e, 0xad, 0x3d, 0xd3, 0xf0, 0x0e, 0x3e, 0xe9, 0x2e, 0x9f, 0xbe,
  0x7d, 0x0e, 0xe0, 0xbe, 0x87, 0x1d, 0x9a, 0xbd, 0x45, 0xde, 0x6a, 0xbe,
  0xb9, 0x5b, 0xdc, 0x3e, 0xa6, 0xdf, 0x2c, 0xbf, 0x83, 0xfa, 0x59, 0xbe,
  0xd8, 0xd8, 0x28, 0xbe, 0xdf, 0x7c, 0x2b, 0xbc, 0x24, 0x25, 0xce, 0xbd,
  0x24, 0x78, 0x67, 0xbe, 0xf5, 0x11, 0xca, 0xbc, 0x57, 0xc6, 0x18, 0xbe,
  0xa0, 0x78, 0x45, 0x3d, 0xf3, 0xb8, 0xb3, 0xbe, 0x56, 0x71, 0xcc, 0xbd,
  0xd4, 0x7e, 0xa7, 0xbd, 0x67, 0x66, 0xe3, 0x3d, 0x41, 0x90, 0x7c, 0xbe,
  0x47, 0xe8, 0x0a, 0x3e, 0xf3, 0xc6, 0x18, 0xbe, 0xbc, 0x9f, 0xc9, 0x3e,
  0x00, 0x2a, 0x44, 0xbe, 0xf2, 0x74, 0x8a, 0x3c, 0x55, 0x91, 0xac, 0xbd,
  0x56, 0x91, 0x56, 0xbd, 0x0e, 0x58, 0x8c, 0x3e, 0xc8, 0x6e, 0x35, 0xbe,
  0xaa, 0xb3, 0xe9, 0xbd, 0xdb, 0xc5, 0x31, 0xbe, 0xe3, 0xc4, 0xff, 0xbd,
  0x8c, 0x17, 0xe2, 0x3e, 0x0d, 0xec, 0x40, 0xbd, 0xa3, 0x3a, 0x88, 0x3b,
  0xde, 0x92, 0x13, 0xbe, 0x2a, 0xc3, 0x16, 0xbf, 0x69, 0x26, 0x22, 0xbe,
  0xa7, 0x33, 0x0f, 0x3e, 0x90, 0x65, 0xf5, 0xbe, 0x7d, 0x60, 0x6a, 0xbe,
  0x5e, 0xa8, 0x62, 0x3c, 0x71, 0x2f, 0x0e, 0x3d, 0xab, 0x78, 0xa6, 0xbe,
  0xa3, 0x13, 0x70, 0xbe, 0x48, 0xfc, 0x03, 0xbe, 0x29, 0x8c, 0x07, 0x3e,
  0xfb, 0x30, 0x9b, 0xbe, 0x03, 0x52, 0xbc, 0xbd, 0xd9, 0x39, 0x31, 0x3d,
  0x91, 0x9f, 0x01, 0xbd, 0x89, 0xc2, 0x87, 0x3e, 0x01, 0x31, 0x4d, 0xbe,
  0xc5, 0xec, 0x03, 0x3e, 0x43, 0xdc, 0xf3, 0x3d, 0x1e, 0x09, 0xac, 0x3d,
  0x67, 0x8d, 0x20, 0x3d, 0xb5, 0x45, 0xba, 0x3d, 0xa1, 0x45, 0xe7, 0xba,
  0x61, 0xac, 0x2a, 0xbe, 0x4b, 0x02, 0x38, 0xbe, 0x03, 0xf0, 0x32, 0x3e,
  0x45, 0x68, 0xbe, 0xbd, 0xae, 0xed, 0x94, 0xbd, 0xbf, 0x9b, 0x47, 0xbe,
  0x66, 0xdb, 0x0c, 0xbe, 0x84, 0x4f, 0x3b, 0xbd, 0x5c, 0xf9, 0x76, 0xbe,
  0x29, 0x31, 0x9a, 0xbd, 0x0f, 0x3c, 0x27, 0x3d, 0x83, 0x8b, 0x4a, 0xbe,
  0x31, 0x1f, 0x1d, 0xbe, 0x3c, 0x52, 0xc4, 0xbd, 0x55, 0x38, 0x3e, 0xbe,
  0x8e, 0x38, 0xd3, 0xbc, 0x2e, 0x6c, 0x16, 0xbe, 0x91, 0xf4, 0xe5, 0xbc,
  0x29, 0x1b, 0x03, 0x3c, 0x9d, 0x26, 0x34, 0x3e, 0xdd, 0xfa, 0x11, 0xbe,
  0xe9, 0x1f, 0xea, 0xbd, 0x89, 0xa2, 0xe0, 0xbc, 0x27, 0x58, 0xb5, 0x3c,
  0x27, 0x30, 0x4e, 0x3d, 0xe6, 0x12, 0x01, 0x3f, 0x37, 0x8b, 0x70, 0xbd,
  0x07, 0x4b, 0x29, 0x3e, 0x8b, 0x11, 0x42, 0x3d, 0x50, 0x4d, 0x34, 0x3e,
  0xbb, 0x55, 0x70, 0xbe, 0xe5, 0x83, 0x07, 0xbd, 0xdf, 0x96, 0xda, 0xbe,
  0xb6, 0x72, 0xd4, 0x3d, 0x3c, 0x6d, 0x13, 0xbe, 0xb5, 0x5c, 0xf4, 0x3e,
  0xa3, 0xf5, 0xf3, 0xbd, 0x27, 0x40, 0x9b, 0xbd, 0x77, 0xaf, 0xc8, 0xbe,
  0xaf, 0x01, 0xad, 0x3e, 0x66, 0xa0, 0xd8, 0x3d, 0x45, 0x90, 0x37, 0x3d,
  0x01, 0x88, 0xaa, 0xbd, 0xf0, 0xd4, 0xd6, 0x3d, 0xe8, 0x12, 0x6d, 0x3d,
  0x20, 0xcf, 0x30, 0xbd, 0x34, 0x76, 0x76, 0xbf, 0x2f, 0x04, 0xc1, 0xbd,
  0x5f, 0xa0, 0x12, 0x3e, 0xa5, 0x39, 0x13, 0xbe, 0x95, 0x16, 0xa5, 0xbd,
  0x24, 0x63, 0xb9, 0xbe, 0xe4, 0xb8, 0xd2, 0xbd, 0xfb, 0x51, 0x31, 0x3e,
  0xad, 0x69, 0x89, 0xbe, 0x3a, 0x49, 0x72, 0xbd, 0x33, 0x85, 0x0c, 0xbe,
  0x15, 0xf4, 0x23, 0xbe, 0x0f, 0x5b, 0x0a, 0xbe, 0xaf, 0x9b, 0x81, 0x3b,
  0x9a, 0xe4, 0x59, 0xbe, 0x71, 0x35, 0x27, 0xbe, 0x0a, 0xa0, 0x96, 0x3e,
  0x69, 0x30, 0x44, 0x3e, 0x57, 0x0c, 0x73, 0x3e, 0xca, 0x75, 0x1c, 0x3e,
  0x77, 0x92, 0x02, 0xbe, 0x62, 0x1c, 0x9f, 0x3d, 0xc6, 0xd3, 0xe3, 0x3d,
  0x80, 0xea, 0x58, 0x3e, 0x7e, 0xdf, 0x25, 0xbe, 0x9e, 0x95, 0x05, 0xbe,
  0x34, 0xf1, 0x11, 0x3d, 0xde, 0x1c, 0xe4, 0x3d, 0x5f, 0x6f, 0xf9, 0x3d,
  0x0a, 0x72, 0x7c, 0xbe, 0x8a, 0xe6, 0xcd, 0x3d, 0x89, 0xe1, 0xfc, 0x3d,
  0x5a, 0x15, 0xae, 0xbd, 0x10, 0x3a, 0xea, 0xbd, 0x96, 0xbf, 0xc1, 0xbd,
  0x81, 0xfa, 0xa2, 0xbe, 0xdd, 0xb5, 0xf1, 0xbb, 0xfb, 0x33, 0x4e, 0xbe,
  0xfb, 0xd7, 0x53, 0xbe, 0xc4, 0x27, 0x1e, 0xbe, 0x98, 0x02, 0x9a, 0x3c,
  0xf0, 0xc8, 0xe6, 0xbd, 0xca, 0xfd, 0x99, 0xbe, 0xd4, 0xb5, 0xc0, 0xbe,
  0x7d, 0x69, 0x6e, 0xbd, 0xcf, 0xbe, 0x03, 0x3e, 0x43, 0xc2, 0x8f, 0xbe,
  0x8f, 0x69, 0x68, 0xbe, 0x5f, 0xde, 0x7e, 0x3d, 0x3e, 0xf9, 0xf5, 0xbd,
  0x5e, 0xf0, 0x35, 0x3e, 0xee, 0x61, 0x3f, 0x3e, 0xd7, 0xc0, 0x13, 0x3e,
  0xff, 0x56, 0x5e, 0x3e, 0xea, 0xfc, 0x1e, 0x3b, 0x2b, 0x2d, 0x8d, 0xbd,
  0xc5, 0x91, 0x90, 0x3e, 0x25, 0x7c, 0xa9, 0xbe, 0x83, 0xf1, 0x10, 0xbd,
  0xc5, 0xd1, 0x09, 0xbd, 0x84, 0x32, 0x55, 0xbe, 0x36, 0x0b, 0xfc, 0xbd,
  0xbf, 0xa4, 0x83, 0xbe, 0xe9, 0x0a, 0xa1, 0xbd, 0x35, 0x4b, 0x1c, 0xbe,
  0x0a, 0x17, 0x02, 0xbe, 0x98, 0xef, 0xcc, 0xbc, 0xa1, 0xe0, 0x2d, 0x3d,
  0x3b, 0x57, 0xaa, 0xbd, 0x71, 0xdd, 0xc8, 0xbd, 0xdb, 0x8e, 0x7b, 0x3e,
  0x79, 0xba, 0x36, 0x3d, 0x51, 0xc0, 0x8e, 0xbe, 0xde, 0xfa, 0x17, 0x3e,
  0x36, 0x83, 0x11, 0xbe, 0x1b, 0xd6, 0x2b, 0x3d, 0x2f, 0xf9, 0x57, 0x3c,
  0xaf, 0xd9, 0xf6, 0xbc, 0xbd, 0x63, 0x75, 0xbe, 0x98, 0xf3, 0xdf, 0xbc,
  0x6a, 0x6b, 0x8d, 0xbe, 0xa4, 0x93, 0xa3, 0xbe, 0x7b, 0x8f, 0xc1, 0xbe,
  0xcf, 0xa9, 0x49, 0x3d, 0x30, 0x78, 0x98, 0xbe, 0x24, 0x45, 0x98, 0x3c,
  0xde, 0x73, 0xfc, 0xbe, 0x51, 0x38, 0x25, 0xbe, 0xaf, 0x7b, 0xca, 0xbd,
  0x61, 0xbf, 0x1b, 0x3e, 0x93, 0xdb, 0xdf, 0xbd, 0x5b, 0xe6, 0x77, 0xbd,
  0x2e, 0x30, 0x0c, 0x3c, 0xbb, 0xad, 0x06, 0x3e, 0x23, 0x70, 0xac, 0xbd,
  0x93, 0x5e, 0xca, 0xbd, 0xf8, 0xe6, 0x0d, 0xbe, 0xcd, 0x67, 0xfa, 0x3d,
  0x63, 0x34, 0xd4, 0xbc, 0xf6, 0x04, 0xe9, 0xbd, 0x4c, 0x75, 0x05, 0x3e,
  0x9f, 0xa7, 0x15, 0xbe, 0xdd, 0xc4, 0xe3, 0x3d, 0x8b, 0x47, 0x53, 0x3d,
  0x69, 0x82, 0x88, 0xbe, 0x4d, 0x41, 0xf6, 0x3d, 0x31, 0xd4, 0x80, 0x3c,
  0x65, 0xf8, 0x0d, 0xbe, 0x84, 0x0f, 0x14, 0x3e, 0xd2, 0xba, 0xbc, 0xbb,
  0xa5, 0x25, 0x47, 0x3e, 0xa7, 0xbb, 0x87, 0xbd, 0x53, 0xd3, 0x30, 0x3d,
  0xcf, 0xed, 0x2b, 0xb9, 0x42, 0x9e, 0xc1, 0x3c, 0xae, 0x10, 0xbe, 0xbd,
  0x2f, 0x1d, 0xf0, 0x3a, 0xe9, 0x90, 0x2e, 0x3f, 0xd1, 0xf4, 0xdf, 0xbd,
  0x69, 0xb6, 0x03, 0xbe, 0xd4, 0xde, 0xca, 0x3d, 0x7b, 0xb2, 0xaa, 0xbc,
  0x6a, 0x3b, 0xe0, 0x3c, 0xd9, 0x96, 0xf8, 0x3c, 0x84, 0x41, 0x9f, 0x3d,
  0x3b, 0x31, 0xd7, 0xbd, 0xd8, 0xa8, 0xc3, 0x3d, 0x9f, 0xbf, 0xe8, 0x3b,
  0xd8, 0xa9, 0xc4, 0xba, 0xe3, 0x85, 0x3c, 0xbc, 0x49, 0x33, 0xdf, 0xbb,
  0xdc, 0xfd, 0xba, 0x3d, 0x13, 0xa5, 0x0b, 0xbd, 0x74, 0x3a, 0x41, 0x3e,
  0xc7, 0x86, 0xeb, 0x3d, 0xa6, 0x63, 0x79, 0xbd, 0x64, 0xa3, 0x1b, 0xbe,
  0x4d, 0xe9, 0x29, 0xbc, 0x30, 0x34, 0xf6, 0xbd, 0x15, 0x6e, 0x09, 0x3c,
  0x19, 0x40, 0x01, 0xbd, 0x9e, 0x38, 0x63, 0xbd, 0x24, 0x2f, 0xb8, 0x3b,
  0x9e, 0xc1, 0xec, 0xbd, 0xe0, 0x69, 0x41, 0xbe, 0xbf, 0x40, 0x47, 0xbe,
  0x6c, 0x1e, 0x1b, 0xbe, 0x38, 0x4f, 0xe6, 0x3b, 0x39, 0x8d, 0x4a, 0xbe,
  0x39, 0x2d, 0xbb, 0xbc, 0x02, 0xaf, 0x0d, 0xbe, 0x50, 0x42, 0x4f, 0x3c,
  0x3e, 0xb2, 0x1b, 0xbd, 0x7e, 0xbc, 0x07, 0xbe, 0x34, 0x8f, 0x12, 0xbe,
  0x25, 0x41, 0xea, 0x3d, 0x81, 0xde, 0x27, 0xbe, 0x49, 0x23, 0xeb, 0xbd,
  0x71, 0x6b, 0x26, 0xbd, 0x7b, 0x93, 0xba, 0x3c, 0x5e, 0x3e, 0xbc, 0xbd,
  0x3d, 0x57, 0xa3, 0xbd, 0x1b, 0xa7, 0x1c, 0xbd, 0xe2, 0x57, 0xe7, 0xbd,
  0xf5, 0x92, 0xd7, 0xbd, 0x93, 0x36, 0xd1, 0xbd, 0xdf, 0xd1, 0x04, 0x3d,
  0xd4, 0x6c, 0x15, 0xbd, 0xd7, 0xc9, 0x7a, 0xbd, 0xf6, 0x11, 0x5f, 0x3c,
  0xb0, 0x96, 0x28, 0x3d, 0x9f, 0x65, 0xe3, 0xbd, 0xf0, 0x08, 0x1d, 0x3f,
  0x7e, 0x36, 0x11, 0x3d, 0xea, 0xfd, 0x01, 0x3c, 0x05, 0x58, 0xff, 0xbd,
  0xac, 0x3a, 0x43, 0xbb, 0xca, 0xa7, 0x03, 0xbd, 0x7d, 0xa9, 0x15, 0xbe,
  0xf0, 0xf7, 0xa0, 0xbd, 0xdb, 0xf9, 0x29, 0x3d, 0x42, 0x7c, 0x18, 0xbd,
  0x1f, 0x6d, 0xd8, 0xbd, 0x55, 0xa6, 0xc9, 0xbd, 0x8d, 0x68, 0x1c, 0x3c,
  0x7d, 0xf6, 0xc0, 0xbc, 0xdf, 0x7f, 0x1b, 0xbd, 0xb7, 0xee, 0xcb, 0xbd,
  0xcb, 0x85, 0x13, 0x3e, 0x3a, 0xf1, 0x85, 0xbe, 0x80, 0xda, 0x8c, 0x3e,
  0x47, 0xd6, 0x06, 0x3c, 0x9c, 0x43, 0xb3, 0x3e, 0xd4, 0xc4, 0x9d, 0x3c,
  0x00, 0x4d, 0x5c, 0xbd, 0xdf, 0x36, 0xda, 0xbd, 0xee, 0x40, 0x3e, 0x3e,
  0x09, 0x7b, 0x66, 0xbe, 0x68, 0xeb, 0x92, 0xbe, 0xc2, 0xc6, 0x01, 0x3e,
  0x9e, 0x48, 0x32, 0x3c, 0x97, 0xda, 0x61, 0x3e, 0x9b, 0x9e, 0x8b, 0x3b,
  0xca, 0x9d, 0xca, 0xbd, 0x05, 0x69, 0x1a, 0x3c, 0xcf, 0x1e, 0x95, 0xbe,
  0x31, 0x82, 0x74, 0xbe, 0x63, 0x20, 0xa1, 0x3d, 0x6c, 0x75, 0x33, 0xbe,
  0xc6, 0xde, 0xff, 0xff, 0x10, 0x00, 0x00, 0x00, 0x08, 0x00, 0x00, 0x00,
  0x1c, 0x00, 0x00, 0x00, 0x38, 0x00, 0x00, 0x00, 0x04, 0x00, 0x00, 0x00,
  0x10, 0x00, 0x00, 0x00, 0x04, 0x00, 0x00, 0x00, 0x01, 0x00, 0x00, 0x00,
  0x08, 0x00, 0x00, 0x00, 0x1a, 0x00, 0x00, 0x00, 0x73, 0x65, 0x71, 0x75,
  0x65, 0x6e, 0x74, 0x69, 0x61, 0x6c, 0x2f, 0x63, 0x6f, 0x6e, 0x76, 0x32,
  0x64, 0x5f, 0x31, 0x2f, 0x43, 0x6f, 0x6e, 0x76, 0x32, 0x44, 0x00, 0x00,
  0xc0, 0xde, 0xff, 0xff, 0xb6, 0xdf, 0xff, 0xff, 0x04, 0x00, 0x00, 0x00,
  0x80, 0x01, 0x00, 0x00, 0xf5, 0x8b, 0xed, 0x3d, 0x7b, 0xc0, 0x44, 0xbd,
  0x54, 0xc5, 0x87, 0xbd, 0xc5, 0xf9, 0xcf, 0x3d, 0xa0, 0x85, 0xbf, 0xba,
  0x4a, 0xdc, 0xac, 0xbd, 0x15, 0x26, 0x18, 0x3e, 0xd6, 0xde, 0x88, 0xbb,
  0x60, 0x8e, 0x3b, 0x3d, 0x13, 0xe6, 0x3a, 0x3e, 0xd3, 0xb8, 0xb8, 0x3b,
  0x06, 0x32, 0x8e, 0x3c, 0x6d, 0xaa, 0x57, 0x3e, 0x16, 0x3a, 0x92, 0xbd,
  0x4d, 0x2a, 0x94, 0x3c, 0xf0, 0x45, 0xed, 0x3e, 0x2c, 0x3c, 0x00, 0x3e,
  0x88, 0x1a, 0x3b, 0x3d, 0xeb, 0x98, 0x51, 0xbe, 0x53, 0x7c, 0xba, 0xbc,
  0xb9, 0xf9, 0x99, 0x3b, 0x68, 0x34, 0xb8, 0xbe, 0x4d, 0xd9, 0x58, 0xbd,
  0xb1, 0x82, 0xa8, 0x3c, 0xe3, 0xea, 0xd0, 0xbd, 0x70, 0xca, 0x7a, 0xbe,
  0xf3, 0xf1, 0x1b, 0xbd, 0xca, 0xb3, 0xdf, 0x3d, 0x19, 0x72, 0x22, 0x3d,
  0xc7, 0x77, 0x4c, 0x3d, 0xfe, 0xe7, 0x47, 0x3e, 0x8e, 0x96, 0x75, 0x3e,
  0xa7, 0x4d, 0xce, 0x3a, 0xfc, 0x79, 0x1c, 0xbd, 0x9e, 0x85, 0xae, 0x3d,
  0x0f, 0x88, 0x92, 0x3d, 0xc7, 0x5c, 0xf7, 0x3d, 0xb6, 0xa1, 0xb2, 0x3e,
  0x4d, 0x9d, 0x21, 0xbe, 0x76, 0xd8, 0xc9, 0x3d, 0xe9, 0xb8, 0x26, 0xbc,
  0xde, 0x90, 0xef, 0xbd, 0xd6, 0x59, 0x06, 0x3e, 0x54, 0x7b, 0xa2, 0xbe,
  0xef, 0xda, 0x12, 0x3e, 0x22, 0x66, 0x02, 0x3e, 0xd0, 0xae, 0xf6, 0xbd,
  0xa5, 0xf4, 0x0c, 0x3e, 0x95, 0xd8, 0x11, 0x3d, 0x50, 0x66, 0x4e, 0xbd,
  0x11, 0x96, 0x03, 0xbe, 0xaa, 0xbf, 0x95, 0xbd, 0x94, 0x0f, 0xdd, 0xbd,
  0xa0, 0x30, 0x15, 0xbf, 0xaf, 0x0d, 0xae, 0x3d, 0x1b, 0x6c, 0x08, 0x3e,
  0x16, 0xec, 0xcb, 0x3e, 0xc6, 0xd9, 0x1f, 0xbb, 0x82, 0x4d, 0x6d, 0x3d,
  0x35, 0xca, 0x94, 0x3e, 0xf8, 0x46, 0xd0, 0xbc, 0x38, 0xd5, 0xb6, 0x3d,
  0x4a, 0x05, 0xb2, 0xbd, 0x14, 0xde, 0xbc, 0x3e, 0x18, 0xad, 0x38, 0xbe,
  0x8d, 0x97, 0xec, 0x3d, 0xb9, 0x95, 0xe3, 0xbe, 0x59, 0x20, 0x81, 0x3e,
  0xfc, 0x3b, 0x3a, 0x3d, 0x7d, 0x9b, 0xa2, 0x3e, 0x9e, 0x44, 0xd2, 0xbd,
  0xc7, 0xcb, 0x9a, 0xbd, 0x31, 0x05, 0x32, 0x3e, 0xcb, 0x3e, 0xdc, 0xbd,
  0x86, 0xe8, 0xb9, 0x3c, 0x85, 0xa9, 0xa4, 0x3e, 0x48, 0x88, 0x1a, 0xbc,
  0x6e, 0x26, 0x4b, 0xbd, 0x9b, 0x84, 0x54, 0x3d, 0x65, 0x78, 0x46, 0x3e,
  0xde, 0xd1, 0x07, 0xbe, 0x5e, 0x95, 0x8e, 0xbe, 0x82, 0x91, 0x13, 0x3d,
  0xfb, 0xf5, 0x92, 0x3d, 0xbe, 0x27, 0x1b, 0xbe, 0x04, 0x1b, 0xb3, 0x3d,
  0x61, 0x34, 0x77, 0xbe, 0x27, 0x0c, 0x1a, 0x3d, 0x72, 0x2e, 0xee, 0xbc,
  0x0a, 0xd3, 0xe0, 0xbd, 0x83, 0x88, 0x95, 0x3d, 0xe3, 0xe7, 0x43, 0xbe,
  0xe8, 0x74, 0x33, 0x3e, 0x21, 0x82, 0xb3, 0xbd, 0x8b, 0x2b, 0x46, 0xbc,
  0x29, 0x01, 0xa9, 0xbb, 0x9e, 0xe0, 0xff, 0xff, 0x10, 0x00, 0x00, 0x00,
  0x07, 0x00, 0x00, 0x00, 0x1c, 0x00, 0x00, 0x00, 0x38, 0x00, 0x00, 0x00,
  0x04, 0x00, 0x00, 0x00, 0x08, 0x00, 0x00, 0x00, 0x04, 0x00, 0x00, 0x00,
  0x03, 0x00, 0x00, 0x00, 0x01, 0x00, 0x00, 0x00, 0x18, 0x00, 0x00, 0x00,
  0x73, 0x65, 0x71, 0x75, 0x65, 0x6e, 0x74, 0x69, 0x61, 0x6c, 0x2f, 0x63,
  0x6f, 0x6e, 0x76, 0x32, 0x64, 0x2f, 0x43, 0x6f, 0x6e, 0x76, 0x32, 0x44,
  0x00, 0x00, 0x00, 0x00, 0x98, 0xe0, 0xff, 0xff, 0x8e, 0xe1, 0xff, 0xff,
  0x04, 0x00, 0x00, 0x00, 0x00, 0x01, 0x00, 0x00, 0x53, 0x39, 0xb0, 0x3c,
  0x11, 0x1e, 0x10, 0xbe, 0xa7, 0x43, 0x7c, 0x3d, 0xfd, 0x5f, 0xbe, 0xbe,
  0x59, 0x98, 0xd0, 0x3d, 0x19, 0xcf, 0xc1, 0x3e, 0x14, 0xae, 0x02, 0x3d,
  0xd0, 0xb6, 0x35, 0xbe, 0xad, 0xfa, 0x27, 0x3e, 0xc8, 0xc0, 0xf9, 0xbd,
  0xc7, 0xee, 0xc5, 0x3c, 0xae, 0xf9, 0xae, 0xbe, 0x35, 0x43, 0xd5, 0x3d,
  0x2b, 0xea, 0x5e, 0xbe, 0x9b, 0xc1, 0xe2, 0x3c, 0x4c, 0xdb, 0xdc, 0x3e,
  0xac, 0x66, 0xa0, 0x39, 0xbc, 0xf5, 0xe8, 0xbc, 0xf8, 0xe2, 0xc4, 0x3d,
  0xdf, 0x0a, 0x36, 0xbd, 0xc4, 0x99, 0x17, 0x3e, 0xf1, 0x69, 0xa4, 0x3e,
  0x05, 0x9f, 0x14, 0xbc, 0x53, 0x67, 0x22, 0xbd, 0x40, 0x22, 0xf9, 0x3d,
  0x49, 0x59, 0x9a, 0xbd, 0x7d, 0x7f, 0x90, 0xbd, 0x25, 0x84, 0x83, 0xbe,
  0x52, 0xcc, 0x05, 0x3e, 0x94, 0xeb, 0x2c, 0xbe, 0xaa, 0xea, 0xcb, 0x3d,
  0xda, 0x33, 0x8d, 0x3d, 0xd1, 0xec, 0x15, 0xbe, 0x94, 0xad, 0xc3, 0xbe,
  0xfc, 0x99, 0xdf, 0x3d, 0x69, 0x1a, 0xcc, 0x3e, 0x3f, 0x85, 0x94, 0xbd,
  0x6e, 0xce, 0x88, 0x3e, 0x16, 0x84, 0xc2, 0xbd, 0x74, 0xe3, 0x74, 0xbe,
  0x49, 0xb3, 0x4e, 0x3e, 0x97, 0x60, 0x32, 0xbe, 0x23, 0x76, 0x4c, 0xbc,
  0x02, 0xa8, 0x51, 0xbe, 0x03, 0x46, 0xc3, 0x3d, 0xc5, 0xf4, 0x84, 0xbf,
  0xde, 0x1e, 0x59, 0x3e, 0xea, 0x58, 0x05, 0x3e, 0xe2, 0xf2, 0x5e, 0xbd,
  0xe8, 0x70, 0xe5, 0xbc, 0xbb, 0x69, 0xba, 0x3c, 0xdc, 0xf2, 0x1c, 0x3e,
  0x4f, 0x50, 0x55, 0x3d, 0x30, 0x91, 0xa9, 0x3e, 0x63, 0xa1, 0xa2, 0xbd,
  0x78, 0xac, 0xdd, 0xbc, 0x97, 0x05, 0xdc, 0x3d, 0x87, 0x0d, 0x0f, 0xbe,
  0xf1, 0xbc, 0x97, 0x3d, 0x80, 0xc8, 0x35, 0xbe, 0x02, 0x78, 0xc9, 0x3c,
  0xc4, 0x38, 0x24, 0xbe, 0x34, 0x8b, 0xff, 0x3d, 0x9a, 0x7b, 0xa8, 0x3e,
  0xf6, 0xe1, 0xff, 0xff, 0x10, 0x00, 0x00, 0x00, 0x06, 0x00, 0x00, 0x00,
  0x14, 0x00, 0x00, 0x00, 0x30, 0x00, 0x00, 0x00, 0x02, 0x00, 0x00, 0x00,
  0x04, 0x00, 0x00, 0x00, 0x10, 0x00, 0x00, 0x00, 0x19, 0x00, 0x00, 0x00,
  0x73, 0x65, 0x71, 0x75, 0x65, 0x6e, 0x74, 0x69, 0x61, 0x6c, 0x2f, 0x64,
  0x65, 0x6e, 0x73, 0x65, 0x5f, 0x31, 0x2f, 0x4d, 0x61, 0x74, 0x4d, 0x75,
  0x6c, 0x00, 0x00, 0x00, 0xe8, 0xe1, 0xff, 0xff, 0xde, 0xe2, 0xff, 0xff,
  0x04, 0x00, 0x00, 0x00, 0x00, 0x1c, 0x00, 0x00, 0x1b, 0x45, 0x0a, 0x3e,
  0xaa, 0x27, 0x80, 0x3d, 0x2c, 0xc7, 0x17, 0x3e, 0x73, 0xfd, 0x5e, 0xbd,
  0x03, 0x4f, 0x90, 0xbc, 0xb6, 0xc3, 0x3c, 0xbe, 0xfa, 0x9b, 0xd9, 0xbc,
  0xe3, 0xec, 0xa2, 0x3c, 0x42, 0x3d, 0x27, 0xbb, 0x29, 0xad, 0xdf, 0x3d,
  0x3a, 0x96, 0xc7, 0x3d, 0x47, 0x83, 0x26, 0xbd, 0x84, 0xab, 0x12, 0xbd,
  0xda, 0x07, 0x3d, 0x3e, 0xc5, 0xd3, 0xe6, 0x3b, 0xc5, 0x15, 0xcc, 0xbc,
  0xdf, 0x35, 0xb2, 0x3d, 0xaa, 0x69, 0xb1, 0xbd, 0xe7, 0x02, 0xcc, 0x3d,
  0x83, 0x7b, 0x52, 0xbf, 0x0b, 0x6e, 0xd3, 0xbd, 0x04, 0xa9, 0xd0, 0xbd,
  0x8c, 0xb2, 0x20, 0x3e, 0xd5, 0x93, 0x1e, 0x3d, 0x64, 0x47, 0xff, 0xbd,
  0x63, 0xcc, 0xe6, 0x3b, 0x9f, 0x8c, 0xb6, 0x3d, 0x95, 0x6a, 0x35, 0x3d,
  0xbf, 0xc9, 0xe7, 0x3c, 0xdd, 0xa3, 0x0b, 0x3b, 0xa5, 0xff, 0x98, 0x3e,
  0x89, 0xfb, 0xba, 0xbc, 0xd4, 0x88, 0xaf, 0x3d, 0x29, 0xba, 0xc4, 0xbd,
  0x17, 0xe7, 0x3c, 0x3e, 0x2a, 0x99, 0x19, 0xbf, 0xae, 0x40, 0x35, 0xbe,
  0x9e, 0x91, 0xf0, 0xbe, 0xa7, 0x1e, 0x99, 0xbe, 0xa8, 0xb9, 0x72, 0xbd,
  0x55, 0x69, 0x35, 0x3e, 0x79, 0x74, 0xa4, 0x3c, 0x22, 0x23, 0x9c, 0x3c,
  0x1b, 0x97, 0xa8, 0xbd, 0xaf, 0x12, 0x85, 0x3d, 0x88, 0x62, 0xb6, 0xbd,
  0xba, 0xb5, 0xb0, 0x3e, 0x79, 0xf3, 0x74, 0xbb, 0xeb, 0x28, 0x17, 0x3e,
  0x05, 0x5e, 0x35, 0xbd, 0xda, 0xe1, 0x83, 0x3d, 0xeb, 0x68, 0xc9, 0xbe,
  0x05, 0x8b, 0x62, 0xbe, 0xbc, 0xbc, 0x04, 0xbe, 0xc8, 0x69, 0xae, 0xbc,
  0x31, 0x9e, 0xfd, 0xbc, 0x40, 0x5e, 0xd4, 0x3d, 0xb4, 0x84, 0x27, 0x3d,
  0xe9, 0x39, 0xaa, 0xbd, 0x5d, 0xf9, 0x23, 0x3e, 0xee, 0x4a, 0x45, 0xbd,
  0x54, 0x65, 0x19, 0xbe, 0x25, 0xf6, 0xfc, 0x3d, 0x7a, 0xd0, 0x81, 0x3b,
  0xf6, 0x3b, 0xa4, 0x3d, 0xd6, 0x65, 0x86, 0xbd, 0x20, 0x0c, 0xca, 0x3d,
  0xec, 0x8e, 0x83, 0x3d, 0x41, 0x72, 0x17, 0xbe, 0xa4, 0x59, 0x82, 0xbc,
  0x22, 0x4e, 0x4a, 0x3d, 0xde, 0x75, 0x96, 0x3c, 0x1e, 0x83, 0xbc, 0x3d,
  0xca, 0x67, 0x85, 0x3d, 0xba, 0x8d, 0x78, 0x3c, 0x71, 0x5e, 0x5a, 0x3e,
  0xb5, 0x4c, 0x90, 0x3c, 0x76, 0x4c, 0x86, 0x3c, 0xbb, 0x08, 0x19, 0x3e,
  0xdc, 0xa6, 0xe1, 0xbc, 0x2a, 0xbb, 0x15, 0x3e, 0xb7, 0x97, 0xee, 0x3b,
  0xf9, 0x04, 0xf4, 0x3d, 0x9f, 0x78, 0x35, 0x3e, 0xee, 0xaf, 0xde, 0xbd,
  0x34, 0xed, 0x6a, 0xbe, 0x7e, 0xfb, 0x0d, 0xbd, 0xf5, 0x71, 0xe3, 0xbc,
  0x07, 0x7b, 0xc5, 0x3d, 0x12, 0x33, 0x98, 0x3d, 0xf0, 0x02, 0x0e, 0x3e,
  0x54, 0x36, 0x86, 0x3e, 0x70, 0x9c, 0xb6, 0x3d, 0xee, 0x67, 0xb9, 0xbd,
  0x74, 0xf3, 0x89, 0x3e, 0xaa, 0xaf, 0x06, 0xbd, 0x50, 0x6b, 0xbd, 0x3d,
  0x2b, 0x7f, 0xa9, 0xba, 0xc7, 0x75, 0x0f, 0x3e, 0x4d, 0xbf, 0xa7, 0x3d,
  0xb6, 0xaa, 0x06, 0x3d, 0x90, 0x80, 0xcc, 0x3d, 0x14, 0xbb, 0xda, 0xbc,
  0x1e, 0x36, 0x70, 0x3d, 0x85, 0x0c, 0x3e, 0x3e, 0xe2, 0xe3, 0x65, 0x3c,
  0xb3, 0xdd, 0x60, 0x3c, 0x93, 0x63, 0x18, 0x3e, 0xca, 0x84, 0xdd, 0xbb,
  0xb8, 0x5d, 0x6a, 0x3d, 0xff, 0x12, 0xc0, 0x3d, 0xaf, 0x1c, 0x0c, 0x3d,
  0xc8, 0xf9, 0xcf, 0xbe, 0x88, 0x78, 0x7c, 0xbe, 0x85, 0x13, 0x11, 0xbe,
  0xcb, 0xb6, 0x4a, 0xbe, 0x11, 0x64, 0x0e, 0xbe, 0xa1, 0xd6, 0x25, 0xbe,
  0x96, 0xe5, 0x18, 0xbe, 0x07, 0x4e, 0xba, 0x3d, 0xc6, 0x02, 0x47, 0xbe,
  0x38, 0x2f, 0xdf, 0xba, 0xdd, 0x35, 0x80, 0xbe, 0x0a, 0xbe, 0x3e, 0x3e,
  0xbe, 0x55, 0x88, 0x3c, 0xc1, 0x3b, 0x87, 0xbe, 0x62, 0x5c, 0x34, 0x3e,
  0x14, 0xd9, 0x03, 0x3e, 0x99, 0xf0, 0x1f, 0x3c, 0xef, 0x5b, 0x8c, 0xbd,
  0x41, 0xfa, 0x6a, 0xbe, 0xae, 0xa4, 0x2e, 0xbe, 0x8e, 0x73, 0xce, 0xbb,
  0xa5, 0x9e, 0x91, 0x3c, 0x57, 0x2d, 0xcd, 0x3d, 0xcc, 0x99, 0x93, 0x3d,
  0x53, 0xe4, 0x9c, 0x3d, 0xf8, 0xa0, 0x1f, 0x3e, 0x94, 0xe9, 0x17, 0x3e,
  0x2a, 0x94, 0x6d, 0xbd, 0x14, 0xde, 0x89, 0x3d, 0xb3, 0x91, 0xec, 0xbe,
  0xec, 0xb7, 0x68, 0x3d, 0xe3, 0xe6, 0x04, 0xbc, 0xe4, 0x33, 0x4c, 0x3d,
  0x3c, 0x95, 0x8e, 0x3c, 0x69, 0xbc, 0x88, 0x3d, 0x7c, 0x37, 0xce, 0xbd,
  0x48, 0x0c, 0xac, 0xbc, 0x02, 0x93, 0xa1, 0x3d, 0x56, 0xc4, 0xd8, 0x3d,
  0x30, 0x79, 0xdf, 0xbc, 0x49, 0x55, 0x6c, 0x3c, 0xa9, 0x51, 0x8f, 0x3d,
  0x46, 0x0d, 0xac, 0xbd, 0x4b, 0xde, 0xa4, 0xbe, 0x66, 0x17, 0x2a, 0x3e,
  0x39, 0x68, 0x40, 0xbe, 0x22, 0xee, 0xf3, 0x3c, 0x8c, 0x96, 0x8e, 0x3d,
  0xd0, 0x4e, 0xff, 0x3c, 0x10, 0xed, 0x90, 0x3c, 0x7b, 0x11, 0x88, 0xbd,
  0xee, 0x7d, 0x91, 0xbe, 0x1e, 0xe1, 0xae, 0xbd, 0xc0, 0x30, 0x02, 0xbe,
  0x40, 0xbc, 0x83, 0xbd, 0x87, 0xe9, 0x20, 0xbb, 0xfa, 0x8f, 0xbf, 0x3d,
  0x7c, 0x50, 0xb2, 0x3e, 0xd2, 0xb0, 0x58, 0xbe, 0x95, 0xa9, 0x2e, 0xbe,
  0xf0, 0x6f, 0xcd, 0xbc, 0x90, 0xa0, 0xd2, 0xbe, 0x52, 0xb4, 0xb6, 0x3d,
  0x89, 0x1d, 0xc0, 0x3d, 0x1a, 0x7f, 0xe9, 0x3b, 0xa0, 0x54, 0xb9, 0xbc,
  0x59, 0x70, 0xb2, 0xbd, 0x29, 0x89, 0x0e, 0xbd, 0xf9, 0x47, 0xc1, 0xbb,
  0x4f, 0x62, 0xcf, 0x3d, 0x60, 0x87, 0x80, 0xbc, 0x83, 0x33, 0x5f, 0x3d,
  0x8d, 0x3f, 0x66, 0x3d, 0xfc, 0x0b, 0x8f, 0x3d, 0xc4, 0x69, 0xbf, 0xbd,
  0x54, 0xe0, 0x7c, 0xbe, 0x15, 0x5b, 0xc2, 0x3d, 0xd4, 0x71, 0x21, 0xbe,
  0xfe, 0x76, 0xc2, 0x3c, 0x58, 0xa5, 0x0d, 0x3c, 0xb8, 0x57, 0x59, 0x3c,
  0x30, 0x5d, 0xa3, 0xbd, 0x7e, 0xaa, 0xe8, 0xbd, 0x67, 0xb7, 0x48, 0xbd,
  0xa1, 0x95, 0xe9, 0x3d, 0x1d, 0x74, 0x33, 0xbd, 0x4b, 0xf9, 0x83, 0x3d,
  0x98, 0x87, 0xbe, 0xbd, 0x6d, 0xb8, 0xef, 0xbe, 0x75, 0xec, 0xfb, 0x3d,
  0xb6, 0x6c, 0xa4, 0xbd, 0xd6, 0x4c, 0xfd, 0xbe, 0xe0, 0xc4, 0x34, 0x3e,
  0x65, 0x5d, 0xae, 0xbd, 0x07, 0x52, 0x7e, 0xbe, 0xbe, 0xeb, 0x17, 0xbd,
  0x56, 0x72, 0x86, 0x3c, 0xe6, 0x68, 0x9a, 0x3c, 0x73, 0xe0, 0x3b, 0xbe,
  0x85, 0x5e, 0x1f, 0xbe, 0xab, 0x97, 0x12, 0xbd, 0x3d, 0xdc, 0x03, 0xbf,
  0xe6, 0x30, 0x90, 0xbc, 0xdf, 0xed, 0x01, 0x3e, 0xca, 0xc8, 0x5c, 0xbe,
  0x56, 0x09, 0x17, 0x3d, 0x1a, 0x15, 0x8f, 0x3c, 0xec, 0x3d, 0x79, 0xbe,
  0x39, 0x91, 0x99, 0x3d, 0x15, 0x90, 0x8e, 0xbd, 0x8c, 0x42, 0x05, 0xbe,
  0xf0, 0x23, 0x5e, 0xbc, 0x95, 0x52, 0x99, 0xbd, 0xf6, 0x91, 0xb8, 0xbe,
  0x1a, 0x69, 0x38, 0x3c, 0x28, 0xc0, 0x73, 0x3d, 0xb7, 0xb4, 0x41, 0x3d,
  0x57, 0x6b, 0x25, 0x3d, 0x4f, 0xf8, 0x53, 0x3e, 0xca, 0x97, 0x08, 0x3e,
  0xc5, 0x7d, 0x91, 0x3e, 0x1e, 0x46, 0x31, 0x3e, 0x10, 0x31, 0x1b, 0x3e,
  0x8b, 0x00, 0x9b, 0xbc, 0x55, 0xac, 0x66, 0x3d, 0xfa, 0x58, 0x63, 0x3d,
  0x15, 0x69, 0xc0, 0x3c, 0x12, 0x76, 0xf8, 0xbc, 0xf8, 0xf3, 0x9e, 0xbd,
  0xe4, 0x16, 0xc3, 0xbd, 0x6c, 0xc3, 0xa2, 0x3d, 0x92, 0xe7, 0x14, 0x3c,
  0x24, 0xa9, 0x6e, 0xbd, 0x8b, 0x0a, 0xaa, 0x3e, 0xb7, 0xb3, 0xba, 0x3e,
  0x36, 0x24, 0x93, 0x3d, 0xde, 0xe7, 0x06, 0x3e, 0x45, 0xc9, 0x60, 0x3e,
  0xd7, 0xb6, 0x88, 0x3e, 0xbf, 0xd0, 0x13, 0x3d, 0xfc, 0x81, 0x9b, 0xbe,
  0xc4, 0x5f, 0xff, 0x3c, 0x7c, 0xcc, 0x93, 0xbe, 0xcb, 0x5e, 0x81, 0xbd,
  0x15, 0x52, 0x20, 0xbe, 0x8e, 0x42, 0x3f, 0xbe, 0x4a, 0xc2, 0x47, 0xbe,
  0x29, 0xc8, 0xac, 0x3c, 0x57, 0x3e, 0xa3, 0xbb, 0xe5, 0x6c, 0xda, 0x3d,
  0x39, 0x94, 0x68, 0x3e, 0x79, 0x8b, 0x31, 0xbe, 0x8e, 0xeb, 0x41, 0xbe,
  0x12, 0xbb, 0xdd, 0xbc, 0xa6, 0x62, 0x82, 0x3e, 0x12, 0xfb, 0xcf, 0x3c,
  0xdd, 0xfe, 0x20, 0xbe, 0xe0, 0xe8, 0xe7, 0xbd, 0xf5, 0xce, 0x01, 0xbe,
  0xf9, 0x4f, 0x3b, 0x3b, 0xac, 0x66, 0xd6, 0xbe, 0x63, 0x9d, 0x55, 0xbe,
  0x92, 0xa3, 0x92, 0xbe, 0x8e, 0x96, 0x12, 0xbc, 0x6e, 0xa9, 0xed, 0xbc,
  0x3b, 0xf4, 0x9e, 0x3d, 0x36, 0x34, 0xba, 0x3e, 0x71, 0x8f, 0x93, 0xbe,
  0x98, 0x46, 0xd7, 0x3d, 0x08, 0x96, 0x42, 0xbd, 0x89, 0xf7, 0x28, 0x3d,
  0x7e, 0x8a, 0x96, 0xbd, 0x4a, 0xd3, 0x0f, 0xbd, 0xa7, 0x15, 0x84, 0xbe,
  0x51, 0x5d, 0x90, 0xbc, 0x98, 0xe2, 0xb0, 0xbc, 0xf0, 0xac, 0x96, 0xbe,
  0x76, 0x2f, 0x12, 0xbe, 0xec, 0x0b, 0xbf, 0x3d, 0x41, 0xea, 0x35, 0xbd,
  0xbd, 0xf7, 0x80, 0xbd, 0x2b, 0xe6, 0xe3, 0x3e, 0x04, 0xab, 0xb7, 0x3e,
  0x8f, 0x23, 0x98, 0xbe, 0x42, 0x21, 0x40, 0x3e, 0x1c, 0xa3, 0x2e, 0x3d,
  0x4b, 0xfb, 0x09, 0x3e, 0xf3, 0xcd, 0x2a, 0xbe, 0x42, 0x70, 0x78, 0x3d,
  0xbe, 0x48, 0x64, 0xbe, 0x68, 0xd6, 0xdc, 0xbc, 0xa6, 0x49, 0x02, 0xbd,
  0x7a, 0x64, 0xcb, 0xbb, 0xdd, 0x94, 0x75, 0xbe, 0x95, 0xa1, 0x9e, 0xbb,
  0x54, 0xf0, 0x3e, 0xbc, 0x17, 0x00, 0xdb, 0xbc, 0x5c, 0x0e, 0xed, 0x3d,
  0xcc, 0x45, 0x4f, 0x3e, 0xad, 0x3f, 0x8b, 0x3d, 0x4f, 0xcc, 0x50, 0x3e,
  0xce, 0x98, 0xc6, 0x3d, 0xf2, 0x27, 0x14, 0x3e, 0x89, 0x90, 0x75, 0xbe,
  0xc6, 0x6a, 0x0b, 0xbe, 0x7c, 0x52, 0xa9, 0xbd, 0xbd, 0x54, 0x03, 0x3e,
  0xa4, 0x40, 0x27, 0xbc, 0xac, 0x39, 0x83, 0x3d, 0x77, 0xf8, 0x08, 0xbe,
  0x88, 0x83, 0x3d, 0xbd, 0xfd, 0x24, 0x16, 0xbe, 0x71, 0x1f, 0x88, 0x3d,
  0x30, 0x43, 0xbd, 0x3e, 0x98, 0x5d, 0x81, 0x3e, 0x72, 0xa9, 0xc7, 0x3b,
  0x73, 0xbe, 0x90, 0x3e, 0x14, 0x93, 0x83, 0x3d, 0xfe, 0x30, 0x68, 0x3c,
  0xe1, 0x70, 0x8d, 0xbe, 0xc4, 0x75, 0x4c, 0xbe, 0x28, 0x25, 0xc8, 0x3d,
  0xd6, 0xa1, 0xb6, 0x3e, 0xfb, 0xbd, 0xb2, 0xbc, 0xdc, 0x98, 0x89, 0xbc,
  0xd3, 0xe5, 0x3c, 0xbe, 0x77, 0xf9, 0x85, 0x3d, 0xe0, 0x6b, 0xce, 0x3c,
  0x29, 0xb0, 0x91, 0xbe, 0xc1, 0x4a, 0x06, 0xbc, 0xd1, 0x03, 0x1e, 0xbe,
  0x05, 0x6b, 0xe1, 0xbd, 0x17, 0x63, 0xaa, 0xbd, 0x26, 0x2a, 0xb5, 0xbd,
  0xc8, 0x71, 0xfc, 0xbb, 0x83, 0xfd, 0xf6, 0xbd, 0xf8, 0x1d, 0xb5, 0xbd,
  0xa3, 0x02, 0x1b, 0xbe, 0x4f, 0x3b, 0x22, 0xbe, 0xac, 0x54, 0x9c, 0xbd,
  0x90, 0xa2, 0x5f, 0xbe, 0x0a, 0x69, 0x6e, 0xbe, 0xf2, 0xff, 0x84, 0xbe,
  0x0b, 0x0d, 0x84, 0xbc, 0xe9, 0x24, 0x00, 0xbe, 0x7d, 0x78, 0x53, 0xbe,
  0x69, 0x2d, 0x08, 0xbe, 0xe2, 0x43, 0x39, 0xbe, 0xe4, 0xb4, 0xa0, 0xbd,
  0x55, 0x2f, 0x9e, 0x3d, 0x66, 0x78, 0x0d, 0xbd, 0x74, 0xc8, 0x67, 0xbc,
  0xd2, 0x6f, 0xb4, 0xbd, 0x9f, 0x23, 0x4d, 0x3d, 0xdf, 0xd7, 0x66, 0xbe,
  0xa5, 0x30, 0x20, 0xbe, 0x8c, 0xd3, 0xa1, 0x3d, 0x1c, 0x3e, 0x88, 0x3c,
  0x41, 0xd0, 0x9e, 0x3d, 0x1e, 0x2f, 0x8b, 0x3d, 0x05, 0xa3, 0x3e, 0xbe,
  0x5e, 0x96, 0x4f, 0xbe, 0x76, 0xa1, 0x81, 0xbe, 0xcf, 0x12, 0x38, 0xbe,
  0xef, 0xed, 0x13, 0x3e, 0x70, 0x0d, 0x43, 0xbd, 0x5a, 0xc1, 0x30, 0xbe,
  0x83, 0x96, 0x8d, 0xbd, 0xab, 0xd9, 0x73, 0xbe, 0x25, 0x78, 0xb5, 0x3d,
  0xa5, 0xff, 0x34, 0x3d, 0xdb, 0x2d, 0x0e, 0xbe, 0x28, 0xdc, 0x76, 0x3d,
  0x2d, 0x6a, 0xc5, 0xbc, 0xb9, 0x5c, 0x56, 0xbe, 0xf2, 0x53, 0x06, 0xbe,
  0xd8, 0x59, 0x63, 0xbe, 0x02, 0x84, 0x09, 0xbb, 0xa5, 0x00, 0xd5, 0xbd,
  0xe9, 0xa0, 0x94, 0xbd, 0x08, 0x29, 0xd8, 0xbd, 0x9b, 0x32, 0x16, 0xbe,
  0x54, 0xf3, 0x26, 0xbd, 0xdc, 0x02, 0x1b, 0x3e, 0x58, 0x90, 0x77, 0xba,
  0x32, 0xd6, 0x2c, 0xbe, 0x86, 0x67, 0x40, 0x38, 0x17, 0x2f, 0xf1, 0xbd,
  0xa9, 0x72, 0x08, 0xbe, 0x6d, 0xdf, 0x4d, 0xbe, 0xb2, 0x22, 0x69, 0xbe,
  0x2b, 0x51, 0xb7, 0xbd, 0x16, 0x3b, 0x72, 0xbd, 0x5e, 0xc8, 0x6b, 0xbd,
  0xe0, 0xb9, 0x2e, 0x3d, 0x8d, 0x89, 0x9e, 0xbe, 0xd8, 0x14, 0x1b, 0x3e,
  0x29, 0x06, 0x19, 0x3c, 0x35, 0x95, 0x8d, 0x3d, 0x3b, 0x6e, 0x25, 0x3e,
  0x01, 0xce, 0x54, 0xbd, 0x3e, 0xc6, 0x5c, 0xbd, 0x98, 0x9d, 0x1e, 0xbe,
  0xf1, 0x3e, 0x38, 0xbe, 0x97, 0x56, 0x56, 0xbe, 0x74, 0x70, 0x70, 0x3d,
  0xa5, 0xf4, 0x6d, 0xbe, 0xdd, 0x75, 0x1c, 0xbe, 0x94, 0x4e, 0xb4, 0xbd,
  0xc1, 0x15, 0x09, 0x3e, 0x0f, 0x52, 0x45, 0xbe, 0x12, 0x1d, 0x70, 0x3d,
  0x8d, 0x10, 0x3b, 0xbe, 0xb0, 0x8d, 0x8e, 0xbd, 0x13, 0x27, 0x27, 0x3c,
  0x82, 0xe7, 0x89, 0x3d, 0x00, 0xa0, 0x13, 0xbe, 0x61, 0x29, 0xfe, 0xbd,
  0x50, 0x62, 0xd3, 0x3c, 0xd9, 0xeb, 0xa2, 0xbd, 0x06, 0xf9, 0xa9, 0xbd,
  0x6d, 0x48, 0x8a, 0xbd, 0x79, 0x98, 0xfe, 0xbc, 0x11, 0x6c, 0x05, 0xbc,
  0x33, 0x99, 0xdd, 0xbd, 0x69, 0xd1, 0x41, 0xbe, 0x73, 0xf4, 0x58, 0x3d,
  0xda, 0x30, 0x9b, 0xbe, 0x64, 0xb8, 0x59, 0x3d, 0xd1, 0x05, 0x71, 0xbe,
  0x91, 0x59, 0x87, 0x3a, 0xc2, 0x57, 0x27, 0xbe, 0xfb, 0xc6, 0x7c, 0xbc,
  0xb7, 0x37, 0xb0, 0xbe, 0x59, 0x32, 0x1c, 0xbe, 0x49, 0x39, 0xa7, 0xbc,
  0x52, 0xd8, 0x37, 0xbe, 0x4e, 0x25, 0x23, 0xbe, 0x7b, 0x5b, 0x00, 0xbe,
  0x84, 0xf5, 0xc1, 0xbe, 0xc8, 0xa5, 0x18, 0xbf, 0xed, 0x02, 0x44, 0xbe,
  0xae, 0x5d, 0xdb, 0xbe, 0x44, 0xdf, 0xd2, 0xbe, 0x3f, 0x11, 0xb7, 0xbd,
  0x8d, 0x60, 0xca, 0xbe, 0xe1, 0xfb, 0x95, 0xbe, 0x2c, 0xe0, 0x99, 0xbe,
  0x9d, 0x7d, 0x55, 0xbd, 0x00, 0x6f, 0x16, 0xbf, 0xae, 0xef, 0xab, 0x3d,
  0xde, 0x86, 0x81, 0xbc, 0x35, 0x52, 0xa5, 0xbe, 0xa1, 0x6d, 0xb8, 0xbe,
  0x57, 0x3b, 0x4f, 0x3d, 0x93, 0x3f, 0xc7, 0xbe, 0x1d, 0xa4, 0xee, 0xbe,
  0xf0, 0x0c, 0x78, 0x3c, 0xb0, 0xc1, 0x8f, 0xbe, 0xcc, 0x78, 0x17, 0xbf,
  0x83, 0x5e, 0xa9, 0xbe, 0xc1, 0xc9, 0x79, 0xbe, 0x92, 0x20, 0x40, 0xbe,
  0xc8, 0xe5, 0xcd, 0xbe, 0x0f, 0x4c, 0x9a, 0x3c, 0x12, 0xf0, 0x84, 0xbe,
  0xb4, 0xb0, 0x66, 0x3d, 0x49, 0xbc, 0x34, 0xbd, 0x74, 0xef, 0xdc, 0xbd,
  0x70, 0xf8, 0xaa, 0xbe, 0x90, 0x7f, 0x95, 0x3d, 0x25, 0x7c, 0x7a, 0xbe,
  0xa7, 0x70, 0xd5, 0xbe, 0xb7, 0x70, 0x91, 0xbe, 0x77, 0x59, 0x1c, 0xbe,
  0xc0, 0xc6, 0x26, 0xbf, 0x18, 0x42, 0x4d, 0xbd, 0x9a, 0x24, 0x91, 0xbe,
  0xe9, 0xf6, 0x31, 0xbe, 0xa7, 0xf5, 0x91, 0xbe, 0x8b, 0xa7, 0x97, 0x3d,
  0x0d, 0xce, 0x84, 0xbe, 0x23, 0x82, 0x90, 0xbd, 0x86, 0x82, 0x4d, 0x3a,
  0x46, 0x09, 0xda, 0xbe, 0x8f, 0x67, 0xab, 0xbe, 0x99, 0x1d, 0xbb, 0xbd,
  0x92, 0x07, 0xba, 0xbe, 0x33, 0xb1, 0xdc, 0xbe, 0xef, 0xbd, 0x67, 0xbe,
  0x03, 0x12, 0x7f, 0xbe, 0x10, 0x54, 0x1f, 0xbf, 0x9b, 0x28, 0x2c, 0xbe,
  0x6b, 0x5a, 0x85, 0xbe, 0x50, 0x46, 0x55, 0xbe, 0x78, 0x0f, 0xe4, 0xbd,
  0x8c, 0x1f, 0x28, 0xbd, 0x2f, 0x93, 0x82, 0xbe, 0x34, 0x4c, 0x75, 0xbd,
  0xa5, 0x7f, 0x25, 0xbc, 0xbc, 0x5c, 0xaf, 0xbe, 0x4a, 0x00, 0x00, 0xbf,
  0x0c, 0x88, 0x62, 0xbb, 0x56, 0xfc, 0x8c, 0xbe, 0x81, 0xed, 0xc2, 0xbe,
  0x54, 0x2c, 0x89, 0x3e, 0x0c, 0x49, 0x8a, 0x3e, 0x0e, 0xf2, 0x14, 0xbe,
  0x2e, 0x59, 0x2f, 0x3e, 0x75, 0x7f, 0x94, 0x3d, 0x28, 0xd0, 0xba, 0xbe,
  0x67, 0x38, 0xd1, 0xbe, 0x83, 0x1a, 0x12, 0x3d, 0x49, 0x8e, 0xf9, 0xbd,
  0x5e, 0x56, 0xfe, 0xbd, 0x9c, 0xe1, 0x2e, 0xbd, 0xd6, 0xf3, 0xae, 0xbd,
  0x54, 0x62, 0x67, 0xbe, 0x3a, 0x9d, 0x6c, 0x3d, 0x80, 0x19, 0x68, 0xbe,
  0xb0, 0x67, 0x1d, 0x3c, 0xe2, 0x2e, 0x96, 0xbd, 0x62, 0x9c, 0x1c, 0x3e,
  0xca, 0x3a, 0xef, 0xbd, 0x43, 0x47, 0x2a, 0x3e, 0xcc, 0x59, 0xad, 0x3e,
  0xa8, 0x34, 0x79, 0x3d, 0xe2, 0x87, 0xc7, 0xbe, 0xae, 0x7c, 0x6f, 0x3d,
  0x00, 0x07, 0x81, 0xbd, 0xa2, 0x8f, 0xd4, 0xbd, 0xe3, 0xa5, 0xc8, 0xbc,
  0x48, 0x4e, 0x61, 0x3d, 0x50, 0x5f, 0xa0, 0xbd, 0x96, 0x8d, 0xd6, 0xbd,
  0x1b, 0x02, 0x1d, 0x3e, 0xc4, 0x6b, 0x27, 0x3e, 0x6a, 0x74, 0xae, 0x3e,
  0x11, 0x54, 0x4d, 0x3d, 0xd0, 0x01, 0x1a, 0x3e, 0x74, 0xc3, 0x8f, 0x3e,
  0xd6, 0xf1, 0x84, 0x3d, 0xce, 0x81, 0x53, 0xb8, 0xeb, 0xc9, 0x44, 0xbe,
  0xaf, 0x8b, 0x29, 0x3d, 0x98, 0x04, 0xc2, 0x3d, 0x7b, 0x8c, 0x85, 0x3b,
  0xe6, 0x2e, 0x0f, 0x3c, 0x4d, 0x87, 0x02, 0x3e, 0x2c, 0x67, 0xfa, 0x3d,
  0xe9, 0x20, 0x9f, 0x3e, 0x3d, 0xe5, 0x0c, 0xbf, 0x2c, 0xa1, 0x5a, 0xbe,
  0x4b, 0x3f, 0x86, 0xbe, 0xdb, 0x09, 0x75, 0xbe, 0xc7, 0x6f, 0xec, 0xbc,
  0x9d, 0x9e, 0x51, 0x3d, 0xec, 0xac, 0x95, 0xbe, 0xa2, 0xb0, 0x09, 0xbd,
  0xad, 0x5a, 0xc4, 0x3e, 0x73, 0x41, 0x09, 0xbf, 0xcd, 0x63, 0xdc, 0x3d,
  0x6b, 0x57, 0x40, 0xbe, 0xa2, 0xf0, 0xbc, 0x3d, 0x3e, 0x38, 0xf2, 0x3d,
  0xda, 0x16, 0x1d, 0xbe, 0xd0, 0xd1, 0xf5, 0x3c, 0x0f, 0xd4, 0x0a, 0xbf,
  0x39, 0x81, 0x68, 0xbe, 0x27, 0x01, 0x68, 0xbe, 0x92, 0x39, 0x2b, 0xbe,
  0xf0, 0x12, 0xba, 0xbd, 0xa2, 0x9b, 0x5a, 0x3e, 0x8d, 0x72, 0xd3, 0xbd,
  0x29, 0x28, 0x75, 0xbd, 0x35, 0x27, 0x1c, 0x3e, 0xb6, 0xc4, 0xa8, 0x3e,
  0xac, 0x3e, 0xb5, 0xb9, 0x68, 0x08, 0x23, 0x3f, 0xb6, 0x7d, 0x3f, 0xbd,
  0x53, 0xe7, 0x85, 0x3e, 0x4b, 0x13, 0x81, 0xbd, 0xaa, 0xeb, 0x50, 0x3e,
  0xb5, 0x02, 0x69, 0xbe, 0x45, 0x19, 0x45, 0xbe, 0xd4, 0x7a, 0x2b, 0xbf,
  0x13, 0xb0, 0xe7, 0xbc, 0x74, 0x70, 0xb5, 0x3d, 0xd8, 0x9b, 0x8d, 0x3e,
  0x06, 0x62, 0x9c, 0xbb, 0x21, 0x8e, 0xe2, 0x3d, 0x62, 0x53, 0x41, 0x3e,
  0xc8, 0x77, 0x83, 0x3e, 0x2e, 0x8e, 0xa2, 0xbd, 0x65, 0xfe, 0x1c, 0x3f,
  0x91, 0x7d, 0x29, 0xbd, 0xed, 0xb1, 0x80, 0x3e, 0x5a, 0xce, 0xa0, 0xbd,
  0x3d, 0x44, 0x56, 0x3e, 0x58, 0x80, 0x05, 0xbe, 0x99, 0x80, 0x9c, 0xbc,
  0x6b, 0x87, 0xe0, 0xbd, 0xc5, 0xcb, 0x2e, 0xbe, 0x3c, 0x26, 0x58, 0xbd,
  0x28, 0x4b, 0xd3, 0x3d, 0xe4, 0xf6, 0xf6, 0x3c, 0xee, 0x5b, 0x3f, 0x3e,
  0xb5, 0xa4, 0xb7, 0x3e, 0x41, 0xd2, 0x8b, 0x3e, 0x58, 0x38, 0x27, 0xbc,
  0xcf, 0x2b, 0xce, 0x3e, 0xa4, 0x1b, 0x0f, 0xbd, 0x89, 0x65, 0x26, 0x3e,
  0x77, 0xe7, 0xc8, 0xbd, 0x9a, 0x50, 0x03, 0x3e, 0x8d, 0x59, 0x48, 0x3e,
  0xb0, 0x32, 0x27, 0xbe, 0x49, 0x8a, 0x0e, 0xbe, 0x4c, 0x60, 0x2a, 0xbe,
  0x3f, 0x73, 0xf3, 0x3d, 0x50, 0xfa, 0x10, 0xbf, 0x6e, 0x24, 0xdc, 0xbe,
  0x52, 0x83, 0x61, 0x3e, 0xb3, 0x39, 0xa8, 0x3e, 0xf7, 0x0a, 0x78, 0x3d,
  0x3d, 0x7f, 0x05, 0x3d, 0x6e, 0xe6, 0x14, 0x3f, 0x32, 0xe1, 0x79, 0xbc,
  0xec, 0xfa, 0x57, 0x3e, 0x20, 0x3c, 0xe5, 0x3d, 0xff, 0xd6, 0x21, 0x3e,
  0xd1, 0x07, 0x83, 0x3e, 0xf6, 0x89, 0xb8, 0xbe, 0x00, 0xc0, 0x5f, 0x3e,
  0x02, 0xe6, 0x75, 0xbd, 0xf8, 0x76, 0xcd, 0x3d, 0x2b, 0x2b, 0x48, 0xbe,
  0xa2, 0x3c, 0xfc, 0xbe, 0xc8, 0xe4, 0x1e, 0xbe, 0xbf, 0x4a, 0xfc, 0x3d,
  0xd7, 0x75, 0xc8, 0x3e, 0x94, 0xb2, 0x9e, 0xbd, 0x22, 0xe6, 0x05, 0x3f,
  0x7b, 0x2a, 0xbe, 0x3c, 0x9f, 0x7e, 0x8b, 0x3d, 0x78, 0x15, 0x56, 0x3d,
  0x20, 0x39, 0x63, 0x3e, 0x71, 0xcc, 0xea, 0x3d, 0xa6, 0x5c, 0x9b, 0xbd,
  0x75, 0xb0, 0xe5, 0xbd, 0x45, 0x1b, 0xda, 0x3c, 0x49, 0x05, 0x7f, 0xbd,
  0x55, 0x7e, 0xc6, 0xbd, 0x21, 0xbd, 0x11, 0xbe, 0x69, 0x8b, 0x32, 0xbc,
  0x95, 0xbf, 0x3e, 0x3e, 0xff, 0xaa, 0x6d, 0x3e, 0x8c, 0xb0, 0xea, 0xbc,
  0xbe, 0xe3, 0x1f, 0x3e, 0x07, 0x9e, 0x06, 0x3b, 0x80, 0xae, 0xd2, 0x3d,
  0x92, 0xd3, 0xf3, 0x3d, 0x11, 0x1f, 0xaa, 0x3e, 0xd1, 0x31, 0x87, 0xbe,
  0xc2, 0x55, 0xd1, 0xbe, 0x2e, 0x5c, 0x1e, 0xbe, 0x67, 0x73, 0xe5, 0x3a,
  0x81, 0xf4, 0x20, 0xbe, 0x8c, 0x12, 0x60, 0x3d, 0x0f, 0xc3, 0xbc, 0xbe,
  0x07, 0xa0, 0x5c, 0xbe, 0x66, 0x88, 0xa9, 0xbc, 0xdb, 0xde, 0xc4, 0xbe,
  0xfe, 0xf0, 0x54, 0x3d, 0xa0, 0x91, 0xcd, 0xbd, 0x59, 0xa5, 0xf3, 0xbd,
  0x58, 0xee, 0xe3, 0x3c, 0x88, 0x79, 0x64, 0xbd, 0x1d, 0x66, 0x3d, 0x3e,
  0x77, 0xad, 0x7d, 0xbe, 0x1a, 0x28, 0xd2, 0xbe, 0xa6, 0xdf, 0xe4, 0xbc,
  0x8c, 0x74, 0x4b, 0xbe, 0x9a, 0x61, 0x1f, 0xbe, 0xcc, 0x48, 0x0c, 0x3e,
  0x95, 0x42, 0xe2, 0xbd, 0x47, 0x92, 0xe1, 0xbe, 0x45, 0xa9, 0xb7, 0x3e,
  0x7c, 0xd6, 0xb6, 0x3e, 0x7e, 0x92, 0xb3, 0x3d, 0x7d, 0x54, 0xec, 0x3e,
  0x3f, 0x6a, 0x6c, 0xbd, 0x9c, 0x0f, 0x8f, 0x3e, 0x0e, 0xf3, 0x22, 0x3d,
  0xbe, 0x7e, 0xc8, 0x3e, 0xd3, 0xa1, 0x02, 0xbe, 0x0c, 0xd6, 0xce, 0xbe,
  0x81, 0x10, 0xa6, 0xbc, 0x66, 0xa7, 0xe7, 0xbd, 0xc3, 0x5b, 0x2c, 0xbd,
  0xaa, 0x3d, 0x1c, 0x3e, 0x7d, 0x76, 0x30, 0x3c, 0xac, 0x12, 0x47, 0x3e,
  0x66, 0x9f, 0x0b, 0x3f, 0x6e, 0x9c, 0xd6, 0x3e, 0x8a, 0x67, 0x52, 0xbe,
  0xb4, 0x5d, 0x19, 0x3f, 0x91, 0x01, 0x39, 0xbe, 0xdb, 0x7b, 0xa6, 0x3e,
  0x21, 0x7e, 0xd5, 0xbc, 0x09, 0x7c, 0xcd, 0x3d, 0x3c, 0xef, 0x3b, 0xbe,
  0xed, 0x45, 0x9e, 0xbe, 0x13, 0x1f, 0x8f, 0xbd, 0x6c, 0x60, 0xc7, 0xbe,
  0x7c, 0x22, 0x25, 0x3e, 0x6c, 0x5a, 0x69, 0xbe, 0x04, 0x6e, 0x11, 0x3e,
  0x2a, 0xe5, 0x7b, 0x3e, 0x94, 0xe7, 0x2d, 0x3e, 0xe5, 0xda, 0x49, 0x3e,
  0x75, 0xbd, 0x80, 0xbd, 0x69, 0x3a, 0x25, 0x3e, 0xe7, 0xbd, 0xbc, 0x3b,
  0x65, 0xd8, 0x47, 0x3e, 0x2a, 0x15, 0x09, 0x3e, 0xe2, 0x92, 0x58, 0x3e,
  0x4a, 0x0f, 0x35, 0xbe, 0xee, 0x44, 0xdb, 0xbe, 0x80, 0xc3, 0xf8, 0xbd,
  0x2a, 0x61, 0x3a, 0xbe, 0x81, 0x65, 0x88, 0x3e, 0xb4, 0xe8, 0x1b, 0x3e,
  0xcd, 0xcc, 0xb4, 0xbe, 0x86, 0x2c, 0x6b, 0x3e, 0xa0, 0x05, 0x1f, 0x3f,
  0x0a, 0xca, 0x85, 0x3e, 0x6f, 0xdf, 0x9d, 0x3d, 0x69, 0x37, 0x13, 0x3f,
  0x72, 0x0d, 0xbd, 0xbd, 0x0d, 0x6f, 0xdf, 0x3d, 0xed, 0x46, 0x8f, 0xba,
  0xe8, 0x9d, 0x83, 0x3e, 0xff, 0x86, 0xc8, 0xbd, 0x99, 0x10, 0x78, 0xbe,
  0x17, 0xe6, 0x62, 0x3e, 0x54, 0x49, 0xd5, 0xbe, 0xf5, 0x1b, 0x93, 0x3d,
  0x0b, 0x91, 0x27, 0xbe, 0x1e, 0x8d, 0x7d, 0xbe, 0x2d, 0xcf, 0x07, 0xbe,
  0x24, 0x2a, 0x27, 0x3f, 0x37, 0xbe, 0xa7, 0x3e, 0xbd, 0xb0, 0x35, 0x3e,
  0x68, 0xb0, 0x06, 0x3f, 0xe4, 0xea, 0x90, 0xbd, 0xe2, 0xf9, 0x84, 0xbd,
  0x05, 0x98, 0x35, 0xbe, 0xcb, 0x63, 0x13, 0x3d, 0xea, 0xc1, 0xa0, 0xbe,
  0xbb, 0x3d, 0x9d, 0xbe, 0x36, 0xe5, 0x59, 0xbe, 0xb9, 0xbe, 0x87, 0xbc,
  0xbe, 0xe4, 0xeb, 0xbd, 0x30, 0x29, 0xb5, 0xbc, 0xd5, 0x88, 0xe8, 0xbd,
  0x74, 0xda, 0xf6, 0xbd, 0x3d, 0xeb, 0x8c, 0x3e, 0x67, 0x76, 0xda, 0x3e,
  0xe2, 0x34, 0xef, 0xbd, 0x2b, 0xe3, 0xe5, 0x3e, 0x45, 0x57, 0x09, 0xbe,
  0x89, 0x11, 0x1c, 0xbe, 0x0a, 0x2a, 0x01, 0xbd, 0xbb, 0x2d, 0xd7, 0xbc,
  0x48, 0xe7, 0xbd, 0xbb, 0xa6, 0x51, 0x13, 0x3c, 0x33, 0xd9, 0x22, 0xbd,
  0x88, 0xd3, 0x1b, 0xbe, 0xd0, 0x57, 0xbf, 0xbe, 0xf1, 0x71, 0x02, 0x3d,
  0x4d, 0xc8, 0x2c, 0xbd, 0x96, 0x55, 0xa3, 0xbe, 0xad, 0xf2, 0xa4, 0xbd,
  0x34, 0x9a, 0x05, 0x3e, 0xb9, 0x4f, 0xc7, 0x3c, 0xdf, 0x9b, 0xfc, 0x3c,
  0xe8, 0x6f, 0x17, 0x3c, 0x66, 0x0a, 0x0a, 0xbd, 0x6f, 0x98, 0x27, 0xbd,
  0xf9, 0x67, 0x06, 0xbe, 0x86, 0xc6, 0xb8, 0xbe, 0x14, 0xef, 0xe8, 0x3c,
  0xe4, 0xb6, 0xe9, 0xbd, 0x97, 0x61, 0x38, 0xbe, 0x35, 0x3f, 0x3d, 0xbe,
  0xc8, 0x75, 0x92, 0xbd, 0xeb, 0xbb, 0xf7, 0x3c, 0xaf, 0x35, 0x47, 0xbe,
  0x98, 0x11, 0xb7, 0xbe, 0x96, 0xfe, 0xca, 0x3d, 0x60, 0xe7, 0xed, 0x3c,
  0xf9, 0xc7, 0xdf, 0xbe, 0x5d, 0x00, 0x55, 0x3c, 0x8c, 0x8b, 0x92, 0xbd,
  0xc7, 0xc8, 0x08, 0x3e, 0x42, 0x7e, 0x38, 0xbc, 0xcc, 0x6f, 0xb4, 0xbe,
  0x51, 0x49, 0xec, 0x3c, 0x7a, 0x5c, 0xfb, 0x3c, 0xc5, 0x86, 0xb2, 0xbd,
  0x87, 0xa3, 0xc7, 0xbc, 0xe7, 0x08, 0xb3, 0xbd, 0xc1, 0xe2, 0x39, 0xbc,
  0xfa, 0x9d, 0x2c, 0xbd, 0xdb, 0x04, 0xd7, 0xbd, 0x89, 0xf8, 0x5b, 0xbd,
  0xd3, 0x07, 0x7c, 0x3d, 0xb7, 0xef, 0x7f, 0xbe, 0x20, 0xe8, 0x80, 0xbd,
  0x49, 0x9d, 0xcf, 0xbd, 0x41, 0xef, 0xba, 0x3d, 0x1b, 0x4d, 0x0f, 0xbd,
  0x43, 0x1b, 0x3f, 0xbe, 0xc0, 0x7a, 0x6f, 0x3d, 0xb0, 0x7f, 0xcf, 0x3d,
  0xd2, 0x4f, 0x5c, 0xbd, 0xc8, 0xab, 0x26, 0x3e, 0x99, 0x86, 0x9f, 0xbd,
  0xfe, 0x3f, 0xb1, 0x3d, 0x19, 0xeb, 0x09, 0x3e, 0xeb, 0xfa, 0x1b, 0x3e,
  0x58, 0x26, 0x40, 0x3e, 0x2e, 0xb7, 0x92, 0x3d, 0x3e, 0xe6, 0x46, 0x3e,
  0x64, 0x66, 0x92, 0xbc, 0x49, 0x05, 0x17, 0xbe, 0x67, 0xf7, 0xbf, 0x3c,
  0xd3, 0x2c, 0x3c, 0xbe, 0xd4, 0x5f, 0x9a, 0xbe, 0xe2, 0x31, 0xa1, 0x3d,
  0x30, 0x73, 0xd2, 0x3c, 0xe9, 0x55, 0x76, 0xbd, 0x0c, 0x51, 0xc5, 0xbd,
  0x09, 0x5d, 0x25, 0xbe, 0xb9, 0xac, 0x89, 0x3d, 0xcf, 0xde, 0xf0, 0xbc,
  0xef, 0xcf, 0xcf, 0xbe, 0xcf, 0x7a, 0xc4, 0x3d, 0x9e, 0x5a, 0xb3, 0x3d,
  0x1c, 0x71, 0x04, 0xbf, 0x4e, 0xb7, 0x24, 0xbd, 0x7a, 0x72, 0x5b, 0xbd,
  0x66, 0x5f, 0xc0, 0x3c, 0xcb, 0x15, 0xb2, 0xbe, 0xbf, 0x81, 0xa6, 0xbe,
  0xd8, 0xfc, 0x08, 0x3d, 0x7e, 0x69, 0x89, 0x3c, 0x71, 0x16, 0xea, 0xbd,
  0x15, 0x42, 0x1e, 0xbd, 0x6a, 0xd0, 0x3b, 0xbe, 0xe6, 0x12, 0x53, 0xbe,
  0xea, 0x40, 0x29, 0xbe, 0x38, 0x47, 0xd0, 0xbd, 0x7e, 0xc0, 0x5f, 0xbe,
  0x7f, 0xac, 0xdb, 0x3d, 0x19, 0x52, 0x16, 0xbf, 0x65, 0x3c, 0xb9, 0x3b,
  0x94, 0x29, 0x00, 0xbe, 0xfa, 0x65, 0x1d, 0x3c, 0xcd, 0x59, 0x78, 0xbd,
  0x58, 0xe0, 0x39, 0xbd, 0x80, 0x94, 0x25, 0x3d, 0xb9, 0xaa, 0xd6, 0x3d,
  0xaf, 0xca, 0x18, 0xbe, 0x5c, 0x55, 0xbe, 0xbd, 0xa7, 0x68, 0x75, 0x3d,
  0xb3, 0x9b, 0xc9, 0xbc, 0xc1, 0x0e, 0x94, 0x3d, 0x3a, 0x53, 0x6c, 0xbe,
  0x2a, 0x3a, 0xa6, 0x3d, 0x9c, 0x70, 0x83, 0x3d, 0xc8, 0xfb, 0x35, 0x3c,
  0xe5, 0x10, 0x1e, 0x3d, 0xbb, 0x4a, 0xc0, 0xbc, 0x87, 0x21, 0x69, 0x39,
  0x5b, 0x9f, 0x7c, 0x3e, 0x7d, 0x55, 0x10, 0xbe, 0xc4, 0x42, 0x8e, 0x3c,
  0xca, 0x24, 0xeb, 0x3d, 0x4a, 0xc5, 0x81, 0x3e, 0xa3, 0xc6, 0x10, 0x3d,
  0xae, 0x34, 0x86, 0x3e, 0xdd, 0x4b, 0x34, 0xbe, 0xb2, 0xe1, 0xfc, 0x3d,
  0x61, 0x07, 0xf5, 0xbc, 0x3f, 0x21, 0xf6, 0xbe, 0x11, 0x37, 0x15, 0x3e,
  0xe0, 0xf9, 0x84, 0x3d, 0xd4, 0x44, 0x8a, 0x3e, 0x69, 0xcb, 0x68, 0xbe,
  0xae, 0x09, 0x30, 0xbe, 0x2e, 0xfd, 0xdd, 0xbd, 0x61, 0x08, 0x6a, 0x3d,
  0x4e, 0xbe, 0xa8, 0x3d, 0x3a, 0x47, 0x8a, 0x3e, 0xd8, 0x59, 0x53, 0x3e,
  0x3b, 0xba, 0x91, 0xbe, 0x28, 0x11, 0xcb, 0x3e, 0x1d, 0xb0, 0x73, 0x3e,
  0x2b, 0x60, 0x89, 0x3e, 0xd8, 0x6d, 0x6a, 0x3e, 0x56, 0x5f, 0x8b, 0x3e,
  0x55, 0x06, 0x4d, 0x3d, 0x54, 0xf3, 0xe8, 0x3e, 0x32, 0x16, 0xa6, 0xbe,
  0x50, 0xe0, 0xf3, 0xbc, 0x26, 0x0a, 0xaf, 0xbe, 0xb9, 0x5c, 0x1d, 0xbe,
  0x37, 0x5d, 0xdc, 0xbb, 0x4f, 0x80, 0x70, 0xbb, 0xba, 0x57, 0x58, 0x3d,
  0x2e, 0xa5, 0x72, 0x3e, 0xab, 0x12, 0x6f, 0x3d, 0x62, 0x51, 0x15, 0x3e,
  0x22, 0xdc, 0x7d, 0x3e, 0x77, 0x91, 0x8f, 0x3e, 0xf1, 0xab, 0x31, 0x3b,
  0x75, 0x05, 0x6b, 0x3e, 0x8b, 0xd3, 0x2f, 0xbe, 0xdd, 0xb3, 0x01, 0x3f,
  0xd1, 0x57, 0xfc, 0xbe, 0xa7, 0x08, 0xfe, 0x3d, 0xe5, 0x3a, 0x51, 0xbe,
  0xee, 0x7c, 0xd7, 0xbe, 0xec, 0x85, 0x33, 0x3d, 0x49, 0xe2, 0xd1, 0xbb,
  0x94, 0x75, 0xaa, 0x3d, 0x74, 0x0d, 0x5e, 0x3e, 0xbe, 0x9c, 0x51, 0x3d,
  0x4c, 0xd9, 0x1b, 0x3e, 0x0d, 0x2f, 0x7c, 0x3e, 0x90, 0xfe, 0xe9, 0x3d,
  0x18, 0x11, 0xe7, 0xbd, 0x52, 0x3b, 0x38, 0x3f, 0xb3, 0xe4, 0x43, 0xbe,
  0x78, 0x7e, 0xf2, 0x3e, 0xe9, 0x41, 0x0a, 0xbf, 0xca, 0x46, 0xa5, 0xbd,
  0x8e, 0xdf, 0x12, 0x3e, 0x34, 0x89, 0x7e, 0xbe, 0x15, 0x5a, 0xa4, 0xbd,
  0x9a, 0x80, 0xa0, 0x3b, 0x58, 0x11, 0xb9, 0x3e, 0xf9, 0x43, 0x89, 0x3e,
  0x09, 0xb4, 0x5a, 0x3e, 0x33, 0xa2, 0xb0, 0x3e, 0x51, 0x76, 0xea, 0x3c,
  0x02, 0x86, 0x65, 0x3e, 0xaa, 0x3b, 0x54, 0xbd, 0x6d, 0x65, 0xe2, 0x3e,
  0x9b, 0xae, 0x88, 0xbe, 0x79, 0xe8, 0x24, 0x3f, 0xc1, 0x76, 0xb8, 0xbe,
  0xbe, 0xf1, 0x2e, 0xbd, 0x92, 0xaf, 0xa5, 0xbd, 0x98, 0xb5, 0x8d, 0xbc,
  0xfb, 0x22, 0x5c, 0xbd, 0xe7, 0x25, 0x1c, 0xbd, 0x6f, 0x94, 0xae, 0x3e,
  0x91, 0x87, 0x98, 0x3e, 0x74, 0x03, 0xe1, 0xbe, 0xe4, 0x15, 0x99, 0x3e,
  0x96, 0xac, 0x0e, 0xbd, 0xf0, 0x29, 0x81, 0xbd, 0x44, 0xa2, 0x26, 0xbe,
  0xbc, 0x98, 0x90, 0x3e, 0x76, 0x25, 0xc1, 0x3d, 0x23, 0xb9, 0x6d, 0x3f,
  0xe8, 0x02, 0x92, 0xbe, 0x95, 0xff, 0x88, 0xbe, 0xbe, 0xef, 0xd7, 0xbd,
  0x7d, 0x12, 0xf4, 0x3d, 0x6f, 0x54, 0xfc, 0xbc, 0xb3, 0x12, 0x27, 0xbd,
  0x73, 0x3e, 0xc9, 0x3e, 0x7f, 0x12, 0x6f, 0x3e, 0xbe, 0x48, 0xe1, 0xbe,
  0x33, 0x46, 0x48, 0x3e, 0x71, 0x22, 0x73, 0xbd, 0x0c, 0x52, 0x9f, 0xbd,
  0xf1, 0x2e, 0x86, 0x3c, 0x21, 0x8c, 0xb1, 0x3e, 0xfb, 0xed, 0xaa, 0xbd,
  0x60, 0xe5, 0x63, 0x3e, 0xc4, 0x88, 0xcd, 0xbe, 0x84, 0xa7, 0xe3, 0x3d,
  0x15, 0x95, 0x6c, 0xbe, 0x59, 0x0b, 0x73, 0xbd, 0x43, 0xd4, 0x21, 0x3e,
  0x36, 0xad, 0x06, 0x3c, 0x7c, 0x8a, 0x23, 0xbe, 0x87, 0x2a, 0x08, 0x3d,
  0x44, 0xe7, 0xab, 0x3d, 0xc8, 0x55, 0x46, 0xbd, 0x12, 0x68, 0xa3, 0x3e,
  0x4f, 0x33, 0x5f, 0x3e, 0x76, 0xe4, 0xc2, 0xbe, 0x96, 0xdc, 0x98, 0x3d,
  0xee, 0xde, 0x13, 0xbd, 0x8f, 0x09, 0x3c, 0x3d, 0x97, 0x65, 0xcd, 0xbd,
  0xe3, 0xd4, 0x71, 0x3d, 0x8d, 0xa3, 0x3d, 0x3e, 0xd4, 0x88, 0xec, 0x3c,
  0x53, 0x47, 0x14, 0xbf, 0x9f, 0x6c, 0x0c, 0x3d, 0xa2, 0xcb, 0x48, 0xbe,
  0x7e, 0xd2, 0x59, 0x3e, 0x28, 0x19, 0x7c, 0x3e, 0xdd, 0x6b, 0xca, 0xbd,
  0xcb, 0x21, 0x46, 0xbe, 0xce, 0xf2, 0xf1, 0x3d, 0x81, 0xb8, 0xb5, 0xbe,
  0x11, 0x8f, 0x83, 0xbe, 0x22, 0xc0, 0x57, 0x3d, 0x51, 0x69, 0xbc, 0xbe,
  0x96, 0x10, 0xfb, 0x3c, 0x01, 0x64, 0x5a, 0xbe, 0xfe, 0x95, 0x3c, 0xbc,
  0x46, 0x46, 0xbf, 0xbd, 0x48, 0xee, 0x16, 0xbf, 0x0c, 0xf6, 0x89, 0xbe,
  0xf0, 0xd9, 0xf8, 0x3d, 0xb7, 0x29, 0xef, 0xbe, 0xb1, 0x61, 0x20, 0xbe,
  0x8a, 0x12, 0xc8, 0xbe, 0xe2, 0xec, 0xdc, 0xbe, 0xaf, 0x56, 0x07, 0xbf,
  0x69, 0xb5, 0x1d, 0xbe, 0x02, 0xce, 0xa2, 0xbe, 0x5d, 0x77, 0x83, 0x3d,
  0xf8, 0xa9, 0x0b, 0xbf, 0x97, 0x62, 0x67, 0x3c, 0xa9, 0xe2, 0x84, 0xbe,
  0xb6, 0x39, 0xbd, 0x3b, 0xd9, 0x86, 0x18, 0xbe, 0x6b, 0xaa, 0x01, 0xbf,
  0xc1, 0x09, 0xd3, 0xbe, 0x66, 0x66, 0x35, 0x3d, 0x8f, 0xa6, 0xc0, 0x3d,
  0xab, 0x7b, 0x8c, 0xbe, 0x76, 0xd9, 0x2f, 0x3e, 0xa4, 0x78, 0x91, 0xbe,
  0x22, 0xf5, 0x3d, 0xbf, 0x19, 0xe0, 0x87, 0xbe, 0x2f, 0x6c, 0xb2, 0xbc,
  0x05, 0x02, 0x50, 0xbd, 0x32, 0x1b, 0xd2, 0xbe, 0xbe, 0x9b, 0x4c, 0xbd,
  0x07, 0x9a, 0x0d, 0xbe, 0x6a, 0xd7, 0xe3, 0xbc, 0x00, 0x0f, 0x80, 0x3e,
  0x4a, 0xf3, 0xd4, 0xbe, 0x20, 0x73, 0x20, 0xbe, 0x30, 0xd0, 0x0d, 0xbe,
  0x04, 0x1b, 0x93, 0x3d, 0x35, 0x34, 0x3b, 0xbe, 0x93, 0x83, 0x8a, 0x3e,
  0x62, 0x96, 0x91, 0x3e, 0x7e, 0xdd, 0x73, 0xbe, 0xf7, 0x81, 0xad, 0xbe,
  0x9c, 0x0b, 0xb5, 0x3c, 0x52, 0x43, 0xfe, 0xbd, 0xe2, 0x31, 0x8f, 0xbe,
  0x54, 0x22, 0x0b, 0xbd, 0x2e, 0xb6, 0x2c, 0x3d, 0x41, 0x82, 0xcd, 0xbd,
  0x47, 0x74, 0xae, 0x3c, 0xc2, 0x87, 0x79, 0xbe, 0x13, 0x9e, 0xfa, 0x3d,
  0x1b, 0xa3, 0x3e, 0xbe, 0x15, 0xa9, 0x16, 0x3e, 0x01, 0xd0, 0x9e, 0x3d,
  0xa9, 0x22, 0x21, 0x3e, 0xf8, 0x61, 0x43, 0x3e, 0x40, 0xb1, 0x53, 0x3e,
  0xb0, 0x8d, 0xf9, 0xbe, 0x63, 0xc4, 0xdd, 0x3d, 0x41, 0x13, 0xc2, 0xbd,
  0xc5, 0x47, 0x81, 0xbe, 0x3a, 0xe7, 0x68, 0xbd, 0xf9, 0xc7, 0xf3, 0x3d,
  0xf5, 0xe8, 0xdb, 0x3c, 0x33, 0xb9, 0x9a, 0xbb, 0xf1, 0x9f, 0xd7, 0x3e,
  0x3c, 0xbc, 0x9a, 0x3d, 0x53, 0x33, 0xb5, 0x3d, 0x45, 0x72, 0x2b, 0x3b,
  0xef, 0x81, 0x26, 0x3e, 0x77, 0xef, 0x8f, 0x3e, 0xd9, 0x4c, 0x96, 0xbd,
  0x19, 0x58, 0xf6, 0xbc, 0x0b, 0x36, 0x20, 0xbe, 0xa3, 0xa5, 0xdd, 0xbd,
  0xdc, 0xc5, 0x42, 0x3c, 0x74, 0xf3, 0x52, 0xbe, 0x95, 0x72, 0x26, 0xbb,
  0x88, 0x28, 0x66, 0xbe, 0x2d, 0x18, 0x00, 0xbe, 0x80, 0x5e, 0x0c, 0xbd,
  0x9a, 0x10, 0x1e, 0xbe, 0x1f, 0x88, 0x28, 0xbd, 0x08, 0x3e, 0xe9, 0xbd,
  0x4b, 0xe5, 0x25, 0xbe, 0x56, 0xcc, 0x0a, 0x3e, 0x6b, 0x1f, 0x2e, 0x3d,
  0x3e, 0x43, 0xf3, 0xbc, 0x5f, 0x0e, 0x50, 0xbe, 0x0f, 0xf3, 0xf8, 0x3d,
  0x6e, 0xc7, 0x49, 0xbe, 0x29, 0x38, 0xa5, 0xbe, 0x7b, 0x32, 0xff, 0x3c,
  0x65, 0x49, 0x31, 0x3d, 0xfb, 0xae, 0x93, 0x3d, 0xc8, 0x8d, 0x22, 0x3e,
  0x7d, 0xa4, 0x9c, 0xbe, 0x4e, 0x57, 0x83, 0xbd, 0xd8, 0x8a, 0x2f, 0xbe,
  0x5c, 0x93, 0x02, 0x3d, 0xca, 0x1c, 0xd5, 0xbd, 0x2b, 0x5f, 0x22, 0x3e,
  0xac, 0xc2, 0x91, 0x3c, 0xf3, 0xb5, 0x34, 0x3d, 0x26, 0xb5, 0x6a, 0xbe,
  0xe1, 0xfb, 0x15, 0x3d, 0xf5, 0xe7, 0x0c, 0xbd, 0x85, 0x0f, 0x7f, 0xbe,
  0xc0, 0x87, 0x3e, 0xbe, 0x16, 0x30, 0x55, 0xbe, 0xd8, 0x91, 0xb1, 0xba,
  0xdb, 0xba, 0xbd, 0xbd, 0x7e, 0xca, 0xeb, 0x3d, 0x55, 0x1d, 0xe7, 0xbd,
  0x9f, 0x74, 0x3a, 0xbe, 0x5c, 0x36, 0x83, 0x3d, 0xc0, 0x4a, 0xee, 0x3d,
  0x5a, 0x60, 0x71, 0x3d, 0x79, 0xeb, 0x55, 0x3b, 0xc1, 0x94, 0x04, 0x3e,
  0xaa, 0xf7, 0x44, 0x3e, 0x50, 0x41, 0x09, 0x3d, 0x6a, 0x6b, 0x9b, 0x3d,
  0x82, 0xc0, 0x9d, 0xbd, 0xd7, 0xba, 0xe5, 0xbd, 0x69, 0x57, 0x55, 0xbe,
  0xff, 0xde, 0x3f, 0xbe, 0x65, 0xb4, 0x09, 0x3e, 0x09, 0x00, 0x3f, 0xbe,
  0xf5, 0x1f, 0x0b, 0x3e, 0xe0, 0x9c, 0x9b, 0x3b, 0x02, 0x40, 0x24, 0x3e,
  0x97, 0xe3, 0x78, 0x3d, 0x35, 0xdd, 0xcd, 0x3d, 0x11, 0x6c, 0x08, 0x3e,
  0x8d, 0x73, 0x4a, 0x3e, 0xa8, 0x35, 0x3c, 0x3d, 0x5a, 0xe7, 0xd2, 0x3d,
  0xfc, 0x6c, 0x8e, 0xbc, 0x8e, 0xf5, 0x00, 0x3e, 0xb7, 0x10, 0x8c, 0x3d,
  0x9a, 0x0d, 0x00, 0xbe, 0xfc, 0x93, 0xe8, 0x3c, 0x77, 0x37, 0xd1, 0x3d,
  0x36, 0xb3, 0xd7, 0xbd, 0xd1, 0x37, 0x11, 0xbe, 0xa3, 0x5d, 0xdd, 0xbd,
  0xd1, 0x61, 0x07, 0x3e, 0x37, 0xb0, 0x08, 0xbe, 0x93, 0xdb, 0xe7, 0x3d,
  0x74, 0x01, 0x2a, 0xbe, 0x11, 0xb5, 0xd6, 0x3d, 0x4c, 0xb4, 0x51, 0x3d,
  0xbc, 0x72, 0x77, 0xbe, 0xb1, 0x9d, 0x31, 0x3b, 0x3e, 0xc3, 0x75, 0x3d,
  0x2a, 0xc7, 0x80, 0x3d, 0xb2, 0x3f, 0x02, 0xbe, 0x09, 0xb1, 0xd3, 0xbd,
  0x1e, 0x9b, 0x01, 0x3d, 0xb6, 0xbd, 0x8a, 0xbe, 0x3c, 0x98, 0x1c, 0xbd,
  0xdd, 0xac, 0xe0, 0xbd, 0x12, 0x81, 0xd9, 0xbd, 0xfb, 0xc0, 0x93, 0x3d,
  0x23, 0x4b, 0x54, 0x3d, 0x3d, 0xf9, 0xd1, 0xbc, 0xab, 0x0a, 0x4e, 0xbc,
  0xba, 0xbd, 0x22, 0xbd, 0x2b, 0x0b, 0x9b, 0x3d, 0x79, 0x4d, 0x83, 0xbe,
  0x59, 0x19, 0x13, 0xbc, 0x8f, 0x9e, 0x1f, 0xbe, 0xc2, 0xd8, 0x12, 0x3c,
  0x96, 0xc6, 0x47, 0xbe, 0xf6, 0x99, 0x1a, 0x3d, 0x4b, 0x8f, 0x82, 0xbe,
  0x82, 0x37, 0xa2, 0x3d, 0x77, 0x09, 0x2e, 0xbd, 0xa2, 0x29, 0x3e, 0x3d,
  0xc9, 0xd7, 0x1c, 0x3e, 0x94, 0x20, 0x7e, 0x3c, 0x58, 0x57, 0x2a, 0xbd,
  0x71, 0x99, 0x7a, 0xbe, 0x7b, 0xd8, 0x40, 0xbe, 0x48, 0xe1, 0xf3, 0x3b,
  0x6d, 0x7d, 0xd0, 0x3b, 0x16, 0x10, 0x1a, 0x3d, 0x4f, 0xfb, 0x19, 0xbe,
  0x63, 0x42, 0x2e, 0xbe, 0xd3, 0xc0, 0x7e, 0xbe, 0x1b, 0x28, 0x49, 0xbd,
  0x6d, 0x3d, 0xee, 0xbe, 0xa9, 0xe8, 0x42, 0x3e, 0x2d, 0xd8, 0x0b, 0xbd,
  0x4d, 0x02, 0x89, 0x3d, 0x30, 0x62, 0x78, 0xbe, 0x3d, 0x85, 0xa1, 0x3b,
  0x6a, 0x13, 0x93, 0xbe, 0xa9, 0xa1, 0x08, 0x3d, 0x3e, 0x4c, 0x87, 0xbe,
  0x97, 0x12, 0xc4, 0x3c, 0x25, 0x6a, 0x05, 0xbd, 0x27, 0xcc, 0x9b, 0xbe,
  0xb0, 0x5b, 0x1f, 0xbd, 0xd9, 0x82, 0x14, 0x3e, 0xbf, 0x55, 0x08, 0x3e,
  0xb0, 0x68, 0x29, 0x3c, 0x12, 0xd5, 0xd5, 0xbe, 0xc1, 0x3b, 0x09, 0xbc,
  0xf3, 0xfc, 0xbb, 0xbd, 0xd7, 0x0a, 0x59, 0x3e, 0x65, 0xa5, 0x53, 0xbe,
  0xd7, 0xd5, 0x17, 0x3e, 0x13, 0x87, 0x15, 0x3e, 0x48, 0x28, 0x8e, 0xbd,
  0x03, 0x42, 0x63, 0x3d, 0x4e, 0x9e, 0xc8, 0x3c, 0x97, 0xee, 0xea, 0xbe,
  0x4a, 0x52, 0xc8, 0xbe, 0xdf, 0x95, 0xf3, 0x3d, 0xd2, 0xf9, 0x0f, 0xbe,
  0xac, 0xdb, 0x54, 0x3e, 0x91, 0x84, 0x7e, 0x3d, 0x29, 0xb2, 0xfb, 0xbd,
  0xd6, 0x67, 0x7d, 0xbc, 0x0e, 0xb7, 0x90, 0xbd, 0xf0, 0xf0, 0x97, 0xbc,
  0xfd, 0x21, 0x52, 0x3d, 0x68, 0xb9, 0x80, 0x3e, 0xec, 0x23, 0x9c, 0x3e,
  0x16, 0x40, 0xd7, 0x3e, 0x99, 0x32, 0x9e, 0x3d, 0x20, 0x44, 0xd6, 0x3d,
  0xb9, 0xe7, 0xd4, 0xbe, 0xfd, 0x72, 0x0f, 0xbe, 0x9f, 0xe5, 0x9e, 0xbd,
  0x41, 0x01, 0x26, 0x3d, 0x0d, 0x59, 0x00, 0x3e, 0x9f, 0xb5, 0xe3, 0xbc,
  0x86, 0xfd, 0x99, 0xbe, 0x42, 0x27, 0x4f, 0x3e, 0xa9, 0xc5, 0x5d, 0xbd,
  0xf9, 0xa3, 0x0a, 0x3e, 0xfe, 0xfe, 0x90, 0xb9, 0x75, 0x63, 0x08, 0x3e,
  0x4b, 0x00, 0x2f, 0x3e, 0x8e, 0xe1, 0x30, 0x3e, 0xaa, 0x07, 0x81, 0xbd,
  0x3d, 0x41, 0x67, 0x3e, 0xf0, 0xba, 0x72, 0xbe, 0x4f, 0x24, 0xee, 0xbd,
  0x25, 0xb7, 0x4a, 0x3e, 0x74, 0x80, 0x2d, 0xbe, 0x53, 0x30, 0x0a, 0x3e,
  0x98, 0x37, 0x51, 0x3c, 0x18, 0x50, 0x95, 0xbe, 0x09, 0x8a, 0xfd, 0x3c,
  0x74, 0xe6, 0x26, 0xbd, 0xe6, 0x89, 0xb2, 0x3e, 0x39, 0x7a, 0x69, 0x3d,
  0x42, 0x96, 0x33, 0x3e, 0x1f, 0x26, 0x11, 0xbe, 0xa0, 0x92, 0x55, 0x3e,
  0x90, 0x8d, 0x28, 0x3e, 0x2b, 0x80, 0x89, 0x3e, 0x1d, 0x90, 0xbf, 0xbe,
  0xb5, 0x33, 0x92, 0xbe, 0x48, 0xf2, 0xbe, 0xbd, 0x4e, 0xb7, 0x59, 0x3b,
  0xf7, 0x0f, 0x96, 0x3b, 0x41, 0x55, 0xd5, 0xbd, 0xf8, 0xdc, 0xd5, 0xbe,
  0x5c, 0xfe, 0x49, 0x3e, 0xb1, 0x31, 0x89, 0xbb, 0x12, 0x64, 0xd8, 0x3b,
  0xcf, 0x48, 0xa4, 0xbe, 0xb5, 0xb7, 0x0a, 0x3d, 0xa7, 0xa3, 0x38, 0xbe,
  0xc7, 0x63, 0xc4, 0xbc, 0xf4, 0xbd, 0xbc, 0xbd, 0x0f, 0xf4, 0x54, 0x3e,
  0xb9, 0x99, 0xee, 0xbe, 0x87, 0x99, 0x83, 0xbd, 0xda, 0x7e, 0xe8, 0xbe,
  0x50, 0x09, 0x11, 0xbd, 0xe4, 0x3c, 0x67, 0xbd, 0xc0, 0xdb, 0x9e, 0xbc,
  0xf0, 0x56, 0xcd, 0xbe, 0x2b, 0xd8, 0xfe, 0x3e, 0xd5, 0xbd, 0x62, 0xbd,
  0xf3, 0xea, 0x3b, 0xbe, 0x83, 0xec, 0xab, 0xbe, 0xba, 0x0e, 0x61, 0x3d,
  0x60, 0x49, 0x56, 0xbe, 0xbe, 0xa8, 0xf7, 0xbc, 0xa6, 0xfc, 0xbf, 0xbd,
  0x6f, 0xa3, 0x08, 0x3d, 0xdb, 0xc8, 0x65, 0xbe, 0x44, 0x65, 0x45, 0xbd,
  0x16, 0x03, 0x0a, 0xbd, 0xad, 0xaa, 0x15, 0xbd, 0x7a, 0x55, 0x5c, 0x3d,
  0x5f, 0xe6, 0xa2, 0xbe, 0x3f, 0xb0, 0x77, 0x3d, 0x13, 0x0c, 0x4d, 0x3d,
  0x74, 0xeb, 0x25, 0x3e, 0xee, 0x9a, 0x04, 0xbe, 0xfd, 0x3e, 0x46, 0x3d,
  0x2d, 0x84, 0xf7, 0x3d, 0xc7, 0x07, 0xf7, 0xbd, 0xf6, 0xed, 0x77, 0x3e,
  0x93, 0xaf, 0x4a, 0x3e, 0x09, 0x30, 0x80, 0xbe, 0xfc, 0x1d, 0xd0, 0x3d,
  0x2f, 0xcf, 0x15, 0x3e, 0x4d, 0x80, 0x02, 0xbe, 0xbd, 0x29, 0x16, 0xbd,
  0x7e, 0xd6, 0x8d, 0x3e, 0x31, 0x9b, 0xa9, 0xbc, 0xf0, 0x80, 0x9a, 0x3d,
  0xfc, 0x31, 0xfc, 0xbd, 0xaa, 0xeb, 0xe7, 0xbd, 0xc6, 0x38, 0x91, 0xbd,
  0xb5, 0xc4, 0xb1, 0x3e, 0xce, 0x1a, 0x9f, 0x3e, 0x76, 0xf1, 0x52, 0xbe,
  0x7d, 0x90, 0x36, 0xbd, 0x6a, 0xd3, 0x84, 0x3d, 0xed, 0x95, 0x99, 0xbd,
  0xa3, 0xca, 0x9c, 0xbe, 0x54, 0x92, 0x87, 0xbb, 0x08, 0x9f, 0xc3, 0xbe,
  0x32, 0xa8, 0x10, 0xbc, 0x71, 0xb6, 0x66, 0xbe, 0xf2, 0x79, 0xa4, 0x3d,
  0x91, 0x05, 0x05, 0x3e, 0xc9, 0x0c, 0x80, 0x3b, 0xc4, 0x9b, 0x0d, 0xbe,
  0xca, 0xcc, 0x98, 0xbe, 0x7e, 0x4a, 0xa5, 0xbd, 0x38, 0xf4, 0x46, 0x3e,
  0x53, 0xa7, 0x9c, 0xbd, 0xce, 0x59, 0x50, 0xbe, 0xbf, 0xe1, 0xc8, 0xbe,
  0x65, 0x19, 0x57, 0xbd, 0x59, 0x3e, 0x59, 0xbd, 0x5f, 0xc9, 0xec, 0xba,
  0x75, 0xc8, 0xb9, 0xbe, 0xcf, 0xa1, 0x28, 0x3c, 0xf0, 0x47, 0xef, 0xbe,
  0x10, 0xd1, 0x58, 0xbb, 0x6d, 0xc6, 0x25, 0xbe, 0x38, 0xb8, 0xa0, 0xbc,
  0xa6, 0xeb, 0xb2, 0xbd, 0x1e, 0xa2, 0xa7, 0xbe, 0x0b, 0x01, 0x29, 0xbe,
  0x04, 0xd0, 0x46, 0xbe, 0x3a, 0xf7, 0x87, 0xbd, 0x5e, 0x26, 0x1b, 0xbe,
  0xb0, 0x34, 0x41, 0xbf, 0xd7, 0x9e, 0x43, 0xbe, 0x28, 0x6a, 0xa5, 0xbd,
  0xeb, 0xfd, 0x44, 0xbe, 0x28, 0x97, 0xd4, 0xbd, 0xcf, 0xb5, 0x4f, 0xbb,
  0xd6, 0x48, 0xc7, 0xbd, 0xc0, 0xe6, 0xb2, 0xb7, 0x8b, 0x84, 0x0f, 0xbe,
  0xc1, 0xf8, 0x8c, 0xbc, 0x1d, 0xa9, 0x1d, 0xbd, 0xd0, 0x67, 0x2f, 0xbe,
  0x43, 0xf3, 0x20, 0x3d, 0x94, 0xc8, 0x73, 0xbd, 0x1c, 0x14, 0xd4, 0xbd,
  0x1c, 0x13, 0x42, 0xbe, 0xef, 0xe9, 0x23, 0xbf, 0x67, 0x3d, 0x33, 0xbe,
  0xeb, 0x5c, 0x2c, 0xbe, 0x0b, 0xac, 0x5e, 0xbe, 0x44, 0xb1, 0x70, 0x3c,
  0x30, 0xa2, 0x9b, 0x3a, 0x53, 0xae, 0xd0, 0xbc, 0x60, 0x74, 0x3a, 0x3d,
  0x3b, 0x75, 0xd0, 0xbd, 0xe1, 0x28, 0x94, 0xbd, 0x76, 0x47, 0x80, 0xbd,
  0xb4, 0xa6, 0x44, 0xbe, 0xfb, 0xcf, 0x0a, 0xbc, 0x96, 0xfd, 0x5d, 0xbe,
  0x6c, 0xea, 0x03, 0xbe, 0xd3, 0x6c, 0x6e, 0xbe, 0x7e, 0x5c, 0x96, 0xbe,
  0x46, 0x6a, 0xb2, 0xbc, 0xd5, 0xa4, 0xd1, 0xbd, 0xce, 0x40, 0x44, 0xbe,
  0x6e, 0xce, 0x1d, 0xbe, 0x66, 0xd1, 0x6a, 0x3b, 0x37, 0x77, 0x40, 0xbd,
  0x3b, 0x62, 0x7a, 0x3d, 0xf7, 0x40, 0x71, 0xbd, 0xd7, 0x9d, 0x82, 0x3c,
  0xec, 0xdd, 0xd3, 0xbd, 0x5b, 0x41, 0x91, 0xbe, 0xce, 0xb2, 0x7c, 0xbe,
  0xe7, 0x3d, 0x6e, 0xbd, 0xac, 0xda, 0x85, 0xbe, 0xe5, 0x57, 0xf5, 0xbc,
  0xf9, 0xe4, 0x33, 0xbc, 0x40, 0xe4, 0x3a, 0xbe, 0x50, 0x9a, 0x44, 0xbd,
  0xc4, 0x49, 0x32, 0xbe, 0xd6, 0xc4, 0xa8, 0xbe, 0xdb, 0x53, 0x38, 0xbd,
  0xcf, 0x57, 0x9f, 0xbe, 0xad, 0x16, 0xbd, 0xbc, 0x1b, 0x72, 0x61, 0xbe,
  0x10, 0xfa, 0x3c, 0xbe, 0xe1, 0xe6, 0xf1, 0xbd, 0xe6, 0x95, 0x9f, 0xbe,
  0xcd, 0xb1, 0x19, 0x3e, 0x41, 0xfb, 0x1b, 0x3d, 0x43, 0x59, 0x65, 0xbe,
  0xa5, 0xbb, 0x52, 0x3d, 0xed, 0xaf, 0x57, 0xbe, 0xe0, 0x4c, 0x0c, 0xbe,
  0x19, 0x09, 0xde, 0xbd, 0xc0, 0xd1, 0xb4, 0xbe, 0x8f, 0xa9, 0x33, 0xbe,
  0x7d, 0xdb, 0x00, 0x3d, 0x19, 0x95, 0x0d, 0x3e, 0x7b, 0xae, 0x60, 0x3d,
  0x29, 0x16, 0x93, 0xbd, 0x23, 0x44, 0x91, 0xbc, 0x73, 0x6a, 0x59, 0xbe,
  0xdd, 0x08, 0xf9, 0x3d, 0xdb, 0x0a, 0xf4, 0xbd, 0xdc, 0xb5, 0x75, 0x3e,
  0x0d, 0x7b, 0xf2, 0x3c, 0xf3, 0xa4, 0xa9, 0x3d, 0x91, 0x73, 0x2f, 0xbd,
  0x7a, 0x6f, 0x32, 0x3e, 0x08, 0xc8, 0xb3, 0xbe, 0xc6, 0x04, 0x66, 0xbe,
  0xa6, 0xc5, 0xef, 0xbd, 0x70, 0xe2, 0x8e, 0x3b, 0xd9, 0xf2, 0x17, 0x3e,
  0x17, 0x70, 0x15, 0x3d, 0xba, 0xc7, 0xd8, 0xbd, 0xcc, 0x2b, 0xac, 0xbd,
  0xfb, 0xa8, 0x9d, 0x3b, 0x40, 0x7e, 0x2f, 0xbe, 0x40, 0x8b, 0x32, 0xbe,
  0xa2, 0x11, 0x1b, 0x3e, 0x26, 0x4c, 0x4a, 0x3e, 0x32, 0xef, 0xa5, 0xbd,
  0x3c, 0xd3, 0x42, 0xbe, 0x1b, 0x78, 0x56, 0x3e, 0x6d, 0x10, 0x5b, 0xbd,
  0xc5, 0x16, 0x11, 0xbe, 0xb9, 0x48, 0xc1, 0xbd, 0xc7, 0x5b, 0x46, 0xbc,
  0x10, 0x36, 0x39, 0x3e, 0x55, 0x82, 0xd3, 0x3b, 0x51, 0xc7, 0x39, 0xbe,
  0x73, 0x6c, 0xd5, 0x3d, 0x64, 0xbe, 0x76, 0xbd, 0x5c, 0xe8, 0xa8, 0x3c,
  0xd7, 0xdd, 0xb7, 0x3b, 0x0d, 0xe5, 0x94, 0x3d, 0x3d, 0xc0, 0x17, 0x3d,
  0x8b, 0xad, 0xd6, 0x3d, 0xf0, 0x07, 0x4b, 0xbe, 0x42, 0x82, 0x1a, 0x3e,
  0x82, 0x59, 0xc3, 0x3c, 0xf3, 0x9a, 0x8e, 0xbd, 0x05, 0xdd, 0x2f, 0xbe,
  0x04, 0x69, 0xa7, 0x3b, 0xf9, 0x06, 0x0f, 0x3e, 0xdb, 0xba, 0x02, 0x3e,
  0xfd, 0x6c, 0x0e, 0xbe, 0x91, 0x38, 0x4f, 0x3e, 0x38, 0xd7, 0xa0, 0x3d,
  0x7b, 0x93, 0xea, 0xbc, 0xc2, 0x20, 0x4e, 0x3d, 0x26, 0xa6, 0x1f, 0x3e,
  0x4a, 0xa5, 0x5c, 0xbe, 0xd4, 0x3d, 0xab, 0x3e, 0x66, 0xbb, 0x36, 0xbe,
  0xd6, 0x34, 0x90, 0x3c, 0x3e, 0x2c, 0xf5, 0xbe, 0x2d, 0x8e, 0xdd, 0xbd,
  0x25, 0x0b, 0x03, 0xbe, 0x87, 0x94, 0x42, 0x3d, 0x89, 0x67, 0x7a, 0xbd,
  0xce, 0x52, 0xa9, 0xbb, 0xcf, 0x70, 0xa4, 0xbe, 0x34, 0xb3, 0xf7, 0xbd,
  0xd6, 0xee, 0xcf, 0x3b, 0xc7, 0xd9, 0x6d, 0xbc, 0x03, 0xb7, 0x94, 0xbe,
  0x54, 0xdd, 0x89, 0x3d, 0x6a, 0x4e, 0x48, 0xbe, 0x51, 0x1a, 0x85, 0xbd,
  0x3d, 0x60, 0x8e, 0xbe, 0x59, 0xe8, 0xa8, 0x3e, 0xfa, 0x11, 0xea, 0xbe,
  0x47, 0xa9, 0x59, 0xbe, 0xf5, 0x8b, 0x47, 0xbf, 0x7f, 0x79, 0x05, 0x3e,
  0x44, 0x63, 0xe3, 0xbd, 0x6c, 0x79, 0xeb, 0x3c, 0x7b, 0xbf, 0xcb, 0xbe,
  0x96, 0xcb, 0x0c, 0x3e, 0xb1, 0x2b, 0x3d, 0xbd, 0x30, 0xf1, 0x2f, 0xbd,
  0xe2, 0xb6, 0x07, 0x3e, 0x64, 0x27, 0xe5, 0x3d, 0x47, 0xca, 0x36, 0xbe,
  0xee, 0x78, 0x6e, 0xbe, 0xef, 0x27, 0x9e, 0xbe, 0xdc, 0x7d, 0x90, 0xbe,
  0x32, 0x11, 0xef, 0x3e, 0x42, 0x36, 0xa8, 0xbb, 0x96, 0x04, 0x26, 0xbe,
  0x92, 0xf0, 0xac, 0xbc, 0x56, 0xb6, 0x89, 0xbe, 0x0f, 0xfb, 0xf2, 0xbe,
  0xd2, 0x70, 0x5e, 0xbb, 0x3f, 0x80, 0xb2, 0xbd, 0x31, 0x6a, 0x06, 0x3c,
  0xa1, 0x1f, 0x02, 0x3d, 0x6b, 0xdd, 0x77, 0x3e, 0x4d, 0x8b, 0x30, 0xbe,
  0xde, 0xf8, 0xc9, 0x3e, 0xb4, 0x18, 0xc2, 0xbd, 0xb2, 0xd1, 0x8a, 0xbb,
  0x10, 0x6b, 0x8d, 0xbd, 0xd7, 0x6b, 0xf7, 0xbe, 0x21, 0x99, 0x3f, 0x3d,
  0xa4, 0xee, 0x3c, 0x3e, 0xa6, 0x00, 0x36, 0xbe, 0x3a, 0x71, 0xbd, 0xbe,
  0x2c, 0xb3, 0x4d, 0xbe, 0x92, 0x68, 0xf1, 0xbc, 0x2d, 0xae, 0x9b, 0x3b,
  0xff, 0xe6, 0xd9, 0x3d, 0x30, 0x77, 0x19, 0x3f, 0x9e, 0xc6, 0x81, 0x3e,
  0x5f, 0xc1, 0x90, 0xbe, 0x8b, 0x71, 0x09, 0x3e, 0x77, 0x26, 0x96, 0x3e,
  0x87, 0xf2, 0x44, 0x3e, 0xae, 0xf6, 0xe1, 0x3d, 0x34, 0x97, 0xfa, 0xbd,
  0x08, 0xa8, 0xa9, 0x3d, 0xb2, 0x2c, 0x5b, 0xb7, 0x94, 0x57, 0x24, 0xbf,
  0xf5, 0x05, 0x3d, 0x3b, 0xa2, 0x11, 0xc9, 0xbe, 0x61, 0xa7, 0xce, 0xbe,
  0x26, 0x8f, 0x73, 0x3c, 0xb0, 0xd8, 0xb3, 0x3a, 0xab, 0x44, 0x54, 0x3e,
  0x62, 0xe8, 0x90, 0x3e, 0x88, 0x10, 0x22, 0xbe, 0xa0, 0x13, 0xb2, 0x3d,
  0x3d, 0xcb, 0xe8, 0x3d, 0xce, 0x76, 0xd3, 0x3e, 0x8f, 0xfd, 0x11, 0xbe,
  0xae, 0x12, 0x86, 0xbe, 0x49, 0x88, 0x5e, 0xbd, 0x50, 0x83, 0x02, 0x3e,
  0x1c, 0x58, 0x36, 0xbf, 0xfe, 0x2a, 0x88, 0xbe, 0xd1, 0x9b, 0x9d, 0xbe,
  0x7d, 0xa8, 0x7b, 0xbe, 0xca, 0x85, 0x51, 0x3c, 0x20, 0x15, 0x5f, 0x3d,
  0x33, 0xda, 0x6e, 0x3e, 0x56, 0xcc, 0xa3, 0x3e, 0x6b, 0xa4, 0x88, 0xbe,
  0x6a, 0xa7, 0x84, 0x3d, 0xff, 0xb5, 0xfe, 0xbb, 0x66, 0xbd, 0x9c, 0x3e,
  0xd7, 0x76, 0x80, 0x3d, 0x1a, 0x34, 0x51, 0xbe, 0x0c, 0x2b, 0x77, 0xbe,
  0x8c, 0x51, 0x67, 0x3e, 0xa5, 0x5b, 0xc3, 0xbe, 0x30, 0x94, 0x32, 0xbe,
  0x3c, 0x6e, 0x1d, 0xbe, 0x24, 0x98, 0xab, 0xbe, 0xf9, 0x76, 0x89, 0xbc,
  0x56, 0x1a, 0xe8, 0xbb, 0xbb, 0x9c, 0x07, 0x3f, 0x9b, 0xdb, 0x37, 0x3e,
  0x63, 0x95, 0x9f, 0x3c, 0x48, 0x48, 0x95, 0x3e, 0x2e, 0x2f, 0xde, 0xbc,
  0x9d, 0xf7, 0x9c, 0x3e, 0xc6, 0x4e, 0x18, 0xbe, 0xd5, 0x01, 0x45, 0xbe,
  0xb4, 0xa6, 0x05, 0xbe, 0x27, 0x57, 0xa7, 0x3e, 0x2f, 0x83, 0x30, 0xbf,
  0xfa, 0x2d, 0xd3, 0xbe, 0xb8, 0xe6, 0xec, 0xbc, 0x1d, 0xde, 0xc0, 0xbd,
  0x7b, 0x4f, 0xc2, 0xbc, 0xef, 0xef, 0x2b, 0x3c, 0x9f, 0xa7, 0xdf, 0x3e,
  0x65, 0x98, 0x4e, 0x3e, 0xe8, 0x8a, 0x80, 0xbe, 0x6d, 0x61, 0xaa, 0x3d,
  0x2f, 0x14, 0xc1, 0x3d, 0x81, 0xf1, 0x25, 0xbd, 0x88, 0x67, 0x0f, 0xbe,
  0x6e, 0x0c, 0x67, 0xbd, 0x48, 0x12, 0x5a, 0x3d, 0xd6, 0x87, 0x81, 0x3e,
  0x7b, 0x3d, 0xf0, 0xbe, 0x22, 0x3a, 0x77, 0xbe, 0x36, 0x42, 0x38, 0xbe,
  0x83, 0x23, 0x3e, 0xbe, 0x66, 0x9e, 0xf8, 0xbd, 0x33, 0xa7, 0x4d, 0xbc,
  0x4a, 0xe9, 0xee, 0x3e, 0x5e, 0x2f, 0xc7, 0x3e, 0x57, 0xb5, 0x20, 0xbe,
  0xfa, 0x5f, 0x88, 0x3e, 0x25, 0x8c, 0xfd, 0xbd, 0x61, 0xaa, 0x29, 0xbc,
  0xf3, 0xfa, 0x98, 0xbe, 0x61, 0xd4, 0x00, 0xbe, 0xe2, 0xc9, 0x10, 0xbd,
  0x82, 0xf5, 0x18, 0x3f, 0xd8, 0x4e, 0x56, 0xbd, 0xcb, 0x95, 0x9d, 0x3d,
  0x00, 0x3b, 0xb5, 0x3c, 0x0d, 0xce, 0x29, 0xbe, 0xce, 0xbe, 0x8a, 0xbe,
  0x4b, 0xd4, 0xbf, 0xbe, 0xdc, 0x3f, 0x76, 0xbe, 0x6a, 0x8d, 0x71, 0xbd,
  0xb1, 0x32, 0xa8, 0x3d, 0x2e, 0x3b, 0x87, 0xbe, 0x18, 0xa5, 0xea, 0xbd,
  0xbd, 0x07, 0xb5, 0x3c, 0x93, 0xe2, 0x0e, 0x3d, 0x85, 0x69, 0xc5, 0xbe,
  0xe3, 0x54, 0x3b, 0xbe, 0x8f, 0x7e, 0x50, 0x3d, 0x2d, 0x7a, 0xaf, 0xbe,
  0x67, 0xb6, 0x8a, 0x3c, 0x74, 0x75, 0x4b, 0xbe, 0xe8, 0xa8, 0x74, 0x3d,
  0x21, 0x51, 0x7d, 0xbd, 0xa1, 0x4f, 0x3c, 0xbe, 0x23, 0x76, 0xc9, 0x3d,
  0xce, 0xa5, 0x39, 0x3d, 0x0d, 0x8d, 0xde, 0xbd, 0xb6, 0xa7, 0xbc, 0x3d,
  0x7b, 0xd7, 0x37, 0x3e, 0xdb, 0xc8, 0xd8, 0xbd, 0x57, 0xf0, 0xcd, 0x3e,
  0xd4, 0x0c, 0x03, 0x3f, 0xd3, 0xe7, 0x6c, 0x3d, 0xc3, 0x9a, 0x39, 0x3f,
  0xdf, 0x38, 0x75, 0xbe, 0xd7, 0xf1, 0x79, 0xbe, 0xec, 0x91, 0x11, 0x3e,
  0xfa, 0xb3, 0x89, 0xbd, 0xf5, 0x6b, 0x59, 0xbd, 0xee, 0x1b, 0x75, 0xbd,
  0x37, 0x65, 0x8d, 0x3d, 0x3c, 0xc7, 0x19, 0xbe, 0x66, 0x4c, 0x88, 0x3e,
  0xaa, 0x12, 0xbd, 0xbd, 0xf2, 0x51, 0xe2, 0x3d, 0xfa, 0x3b, 0x9c, 0xbd,
  0x2d, 0x5a, 0x2d, 0x3e, 0xfc, 0xca, 0x11, 0x3f, 0x9b, 0x4b, 0x02, 0xbe,
  0x0f, 0x5f, 0x72, 0x3e, 0x5a, 0xeb, 0xa8, 0xbd, 0xa0, 0x15, 0x97, 0x3e,
  0x71, 0xfa, 0x23, 0xbd, 0x84, 0xcd, 0x81, 0xbe, 0x1d, 0x32, 0x42, 0xbe,
  0xd8, 0x9c, 0x43, 0xbe, 0xf5, 0x15, 0x05, 0x3e, 0xa0, 0xf2, 0x85, 0xbe,
  0xd5, 0xf4, 0xf0, 0x3e, 0x44, 0x04, 0xbe, 0x3d, 0xb3, 0xa3, 0x9e, 0xbc,
  0x91, 0xd5, 0x04, 0x3e, 0xf6, 0x01, 0xff, 0x3e, 0x77, 0x79, 0xb5, 0x3e,
  0xc2, 0x90, 0xe6, 0xbd, 0x7f, 0x7f, 0x68, 0x3f, 0x45, 0xe4, 0xc6, 0xbd,
  0x1c, 0x82, 0x5d, 0x3e, 0xc1, 0xbd, 0x93, 0xbd, 0x2b, 0x51, 0xb2, 0x3c,
  0xed, 0x0a, 0xd6, 0xbc, 0x8d, 0x01, 0x8f, 0xbe, 0x26, 0x3b, 0x45, 0xbc,
  0x14, 0x2e, 0xba, 0xbd, 0x0d, 0x69, 0xac, 0x3e, 0xef, 0xab, 0x92, 0xbd,
  0x07, 0xde, 0xba, 0x3d, 0x88, 0x5a, 0xb1, 0xbd, 0x0f, 0x84, 0xe4, 0x3e,
  0xc4, 0xda, 0x42, 0x3f, 0x2f, 0xf3, 0x34, 0xbd, 0xe7, 0x7e, 0x1f, 0x3f,
  0x7a, 0x7c, 0xb5, 0xbe, 0x3a, 0x49, 0x82, 0xbe, 0xc0, 0x6c, 0x39, 0xbd,
  0xde, 0x4e, 0x43, 0x3e, 0x98, 0xd9, 0x58, 0xbe, 0xc4, 0xc9, 0xa3, 0xbe,
  0x98, 0x89, 0x22, 0xbe, 0x55, 0x1d, 0xac, 0x39, 0xb9, 0xa5, 0x47, 0xbd,
  0x68, 0xd1, 0x30, 0xbe, 0xfe, 0xd8, 0x61, 0xbd, 0xf9, 0x5b, 0x15, 0xbc,
  0xa7, 0xac, 0x20, 0x3f, 0x52, 0x93, 0xe6, 0x3e, 0x54, 0x93, 0x0e, 0x39,
  0xb2, 0x00, 0x53, 0x3f, 0xf6, 0xd4, 0xbe, 0xbd, 0x19, 0xcf, 0xcb, 0xbd,
  0x35, 0xe0, 0x82, 0xbe, 0x76, 0x12, 0x81, 0xbd, 0xae, 0x03, 0x41, 0xbe,
  0x7a, 0x61, 0x9f, 0xbe, 0x73, 0xe9, 0x15, 0xbe, 0x9c, 0xab, 0xbb, 0xbe,
  0x27, 0x7a, 0x0f, 0xbd, 0xef, 0xae, 0x8a, 0x3d, 0x8d, 0x4f, 0xca, 0xbd,
  0xc5, 0xf1, 0xda, 0xbe, 0x39, 0xc5, 0xd6, 0x3e, 0x37, 0x0a, 0x8b, 0x3f,
  0x0a, 0x5f, 0xf3, 0xbe, 0x80, 0x46, 0x32, 0x3f, 0x13, 0x62, 0xb6, 0xbe,
  0x46, 0xfe, 0xff, 0xff, 0x10, 0x00, 0x00, 0x00, 0x05, 0x00, 0x00, 0x00,
  0x14, 0x00, 0x00, 0x00, 0x2c, 0x00, 0x00, 0x00, 0x02, 0x00, 0x00, 0x00,
  0x10, 0x00, 0x00, 0x00, 0x70, 0x00, 0x00, 0x00, 0x17, 0x00, 0x00, 0x00,
  0x73, 0x65, 0x71, 0x75, 0x65, 0x6e, 0x74, 0x69, 0x61, 0x6c, 0x2f, 0x64,
  0x65, 0x6e, 0x73, 0x65, 0x2f, 0x4d, 0x61, 0x74, 0x4d, 0x75, 0x6c, 0x00,
  0x34, 0xfe, 0xff, 0xff, 0x2a, 0xff, 0xff, 0xff, 0x04, 0x00, 0x00, 0x00,
  0x08, 0x00, 0x00, 0x00, 0xff, 0xff, 0xff, 0xff, 0x70, 0x00, 0x00, 0x00,
  0x00, 0x00, 0x0e, 0x00, 0x18, 0x00, 0x08, 0x00, 0x07, 0x00, 0x0c, 0x00,
  0x10, 0x00, 0x14, 0x00, 0x0e, 0x00, 0x00, 0x00, 0x00, 0x00, 0x00, 0x02,
  0x10, 0x00, 0x00, 0x00, 0x04, 0x00, 0x00, 0x00, 0x10, 0x00, 0x00, 0x00,
  0x2c, 0x00, 0x00, 0x00, 0x01, 0x00, 0x00, 0x00, 0x02, 0x00, 0x00, 0x00,
  0x18, 0x00, 0x00, 0x00, 0x73, 0x65, 0x71, 0x75, 0x65, 0x6e, 0x74, 0x69,
  0x61, 0x6c, 0x2f, 0x66, 0x6c, 0x61, 0x74, 0x74, 0x65, 0x6e, 0x2f, 0x43,
  0x6f, 0x6e, 0x73, 0x74, 0x00, 0x00, 0x00, 0x00, 0x9c, 0xfe, 0xff, 0xff,
  0x92, 0xff, 0xff, 0xff, 0x04, 0x00, 0x00, 0x00, 0x10, 0x00, 0x00, 0x00,
  0x09, 0x53, 0xbc, 0xbf, 0x3c, 0x99, 0x3c, 0xc0, 0x03, 0x7f, 0xf9, 0xbf,
  0x32, 0xf2, 0x64, 0x40, 0x0a, 0xff, 0xff, 0xff, 0x10, 0x00, 0x00, 0x00,
  0x03, 0x00, 0x00, 0x00, 0x10, 0x00, 0x00, 0x00, 0x3c, 0x00, 0x00, 0x00,
  0x01, 0x00, 0x00, 0x00, 0x04, 0x00, 0x00, 0x00, 0x29, 0x00, 0x00, 0x00,
  0x73, 0x65, 0x71, 0x75, 0x65, 0x6e, 0x74, 0x69, 0x61, 0x6c, 0x2f, 0x64,
  0x65, 0x6e, 0x73, 0x65, 0x5f, 0x31, 0x2f, 0x42, 0x69, 0x61, 0x73, 0x41,
  0x64, 0x64, 0x2f, 0x52, 0x65, 0x61, 0x64, 0x56, 0x61, 0x72, 0x69, 0x61,
  0x62, 0x6c, 0x65, 0x4f, 0x70, 0x00, 0x00, 0x00, 0x60, 0xff, 0xff, 0xff,
  0x00, 0x00, 0x06, 0x00, 0x08, 0x00, 0x04, 0x00, 0x06, 0x00, 0x00, 0x00,
  0x04, 0x00, 0x00, 0x00, 0x40, 0x00, 0x00, 0x00, 0x75, 0x8a, 0x13, 0xbf,
  0xa9, 0x0e, 0x98, 0x3f, 0x51, 0x3e, 0xf2, 0xbf, 0xce, 0x57, 0x4f, 0xbe,
  0x58, 0x81, 0x1c, 0xbf, 0x2b, 0xdc, 0x3a, 0x3e, 0xbc, 0xc3, 0xa1, 0x3f,
  0x15, 0xf0, 0xd1, 0x3f, 0xc1, 0xe8, 0x9b, 0xbe, 0xd9, 0x00, 0x00, 0xc0,
  0x13, 0xe2, 0x09, 0xbe, 0x7e, 0x7c, 0xae, 0x3f, 0x38, 0x84, 0xca, 0xbf,
  0x7f, 0x8d, 0xd2, 0x3f, 0x3d, 0x2e, 0x83, 0xbf, 0x52, 0x53, 0xe3, 0x3e,
  0xae, 0xff, 0xff, 0xff, 0x10, 0x00, 0x00, 0x00, 0x02, 0x00, 0x00, 0x00,
  0x10, 0x00, 0x00, 0x00, 0x3c, 0x00, 0x00, 0x00, 0x01, 0x00, 0x00, 0x00,
  0x10, 0x00, 0x00, 0x00, 0x27, 0x00, 0x00, 0x00, 0x73, 0x65, 0x71, 0x75,
  0x65, 0x6e, 0x74, 0x69, 0x61, 0x6c, 0x2f, 0x64, 0x65, 0x6e, 0x73, 0x65,
  0x2f, 0x42, 0x69, 0x61, 0x73, 0x41, 0x64, 0x64, 0x2f, 0x52, 0x65, 0x61,
  0x64, 0x56, 0x61, 0x72, 0x69, 0x61, 0x62, 0x6c, 0x65, 0x4f, 0x70, 0x00,
  0x04, 0x00, 0x06, 0x00, 0x04, 0x00, 0x00, 0x00, 0x00, 0x00, 0x0e, 0x00,
  0x14, 0x00, 0x04, 0x00, 0x00, 0x00, 0x08, 0x00, 0x0c, 0x00, 0x10, 0x00,
  0x0e, 0x00, 0x00, 0x00, 0x10, 0x00, 0x00, 0x00, 0x01, 0x00, 0x00, 0x00,
  0x1c, 0x00, 0x00, 0x00, 0x2c, 0x00, 0x00, 0x00, 0x04, 0x00, 0x00, 0x00,
  0x01, 0x00, 0x00, 0x00, 0x40, 0x00, 0x00, 0x00, 0x03, 0x00, 0x00, 0x00,
  0x01, 0x00, 0x00, 0x00, 0x0c, 0x00, 0x00, 0x00, 0x63, 0x6f, 0x6e, 0x76,
  0x32, 0x64, 0x5f, 0x69, 0x6e, 0x70, 0x75, 0x74, 0x00, 0x00, 0x00, 0x00,
  0xfc, 0xff, 0xff, 0xff, 0x04, 0x00, 0x04, 0x00, 0x04, 0x00, 0x00, 0x00

  // Paste the data of the char array in `src/model.cc` here
};

unsigned int model_tflite_len = 12384;// Fill the int in `src/model.cc` here