#include "magic_wand_model_data.h"

// We need to keep the data array aligned on some architectures.
#ifdef __has_attribute
#define HAVE_ATTRIBUTE(x) __has_attribute(x)
#else
#define HAVE_ATTRIBUTE(x) 0
#endif
#if HAVE_ATTRIBUTE(aligned) || (defined(__GNUC__) && !defined(__clang__))
#define DATA_ALIGN_ATTRIBUTE __attribute__((aligned(4)))
#else
#define DATA_ALIGN_ATTRIBUTE
#endif

const unsigned char g_magic_wand_model_data[] DATA_ALIGN_ATTRIBUTE = {
  // Paste the data of the char array in `src/model.cc` here
  0x08, 0x00, 0x00, 0x00, 0x54, 0x46, 0x4c, 0x33, 0x62, 0xff, 0xff, 0xff,
  0x03, 0x00, 0x00, 0x00, 0x10, 0x00, 0x00, 0x00, 0x24, 0x00, 0x00, 0x00,
  0x78, 0x00, 0x00, 0x00, 0x24, 0x00, 0x00, 0x00, 0x05, 0x00, 0x00, 0x00,
  0x78, 0x05, 0x00, 0x00, 0xb0, 0x04, 0x00, 0x00, 0xe0, 0x02, 0x00, 0x00,
  0x60, 0x02, 0x00, 0x00, 0x54, 0x01, 0x00, 0x00, 0x01, 0x00, 0x00, 0x00,
  0x78, 0x00, 0x00, 0x00, 0x13, 0x00, 0x00, 0x00, 0xd4, 0x2f, 0x00, 0x00,
  0xd0, 0x2f, 0x00, 0x00, 0xdc, 0x2e, 0x00, 0x00, 0x68, 0x2e, 0x00, 0x00,
  0xfc, 0x2d, 0x00, 0x00, 0xac, 0x11, 0x00, 0x00, 0x98, 0x10, 0x00, 0x00,
  0xbc, 0x0e, 0x00, 0x00, 0x60, 0x06, 0x00, 0x00, 0xfc, 0x05, 0x00, 0x00,
  0x78, 0x05, 0x00, 0x00, 0xa8, 0x2f, 0x00, 0x00, 0xa4, 0x2f, 0x00, 0x00,
  0xa0, 0x2f, 0x00, 0x00, 0x9c, 0x2f, 0x00, 0x00, 0x98, 0x2f, 0x00, 0x00,
  0x94, 0x2f, 0x00, 0x00, 0x90, 0x2f, 0x00, 0x00, 0x8c, 0x2f, 0x00, 0x00,
  0x0f, 0x00, 0x00, 0x00, 0x4d, 0x4c, 0x49, 0x52, 0x20, 0x43, 0x6f, 0x6e,
  0x76, 0x65, 0x72, 0x74, 0x65, 0x64, 0x2e, 0x00, 0x00, 0x00, 0x0e, 0x00,
  0x18, 0x00, 0x04, 0x00, 0x08, 0x00, 0x0c, 0x00, 0x10, 0x00, 0x14, 0x00,
  0x0e, 0x00, 0x00, 0x00, 0x14, 0x00, 0x00, 0x00, 0x5c, 0x00, 0x00, 0x00,
  0x60, 0x00, 0x00, 0x00, 0x64, 0x00, 0x00, 0x00, 0x84, 0x00, 0x00, 0x00,
  0x12, 0x00, 0x00, 0x00, 0x04, 0x2f, 0x00, 0x00, 0xa0, 0x2e, 0x00, 0x00,
  0xf8, 0x2d, 0x00, 0x00, 0x98, 0x2d, 0x00, 0x00, 0x30, 0x2d, 0x00, 0x00,
  0xdc, 0x10, 0x00, 0x00, 0xc0, 0x0f, 0x00, 0x00, 0xe4, 0x0d, 0x00, 0x00,
  0xa0, 0x05, 0x00, 0x00, 0x3c, 0x05, 0x00, 0x00, 0xb0, 0x04, 0x00, 0x00,
  0xe8, 0x03, 0x00, 0x00, 0x38, 0x03, 0x00, 0x00, 0xa4, 0x02, 0x00, 0x00,
  0x10, 0x02, 0x00, 0x00, 0x90, 0x01, 0x00, 0x00, 0xfc, 0x00, 0x00, 0x00,
  0x80, 0x00, 0x00, 0x00, 0x01, 0x00, 0x00, 0x00, 0x00, 0x00, 0x00, 0x00,
  0x01, 0x00, 0x00, 0x00, 0x11, 0x00, 0x00, 0x00, 0x08, 0x00, 0x00, 0x00,
  0x1c, 0x04, 0x00, 0x00, 0x58, 0x03, 0x00, 0x00, 0xc8, 0x02, 0x00, 0x00,
  0x24, 0x02, 0x00, 0x00, 0xac, 0x01, 0x00, 0x00, 0x10, 0x01, 0x00, 0x00,
  0x94, 0x00, 0x00, 0x00, 0x10, 0x00, 0x00, 0x00, 0x04, 0x00, 0x00, 0x00,
  0x6d, 0x61, 0x69, 0x6e, 0x00, 0x00, 0x00, 0x00, 0x8e, 0xff, 0xff, 0xff,
  0x00, 0x00, 0x00, 0x09, 0x04, 0x00, 0x00, 0x00, 0x1c, 0x00, 0x00, 0x00,
  0x10, 0x00, 0x00, 0x00, 0x04, 0x00, 0x00, 0x00, 0x4e, 0xd2, 0xff, 0xff,
  0x00, 0x00, 0x80, 0x3f, 0x01, 0x00, 0x00, 0x00, 0x11, 0x00, 0x00, 0x00,
  0x01, 0x00, 0x00, 0x00, 0x10, 0x00, 0x00, 0x00, 0xf6, 0xfb, 0xff, 0xff,
  0x00, 0x00, 0x00, 0x19, 0x01, 0x00, 0x00, 0x00, 0xce, 0xd1, 0xff, 0xff,
  0x10, 0x00, 0x00, 0x00, 0x12, 0x00, 0x00, 0x00, 0x14, 0x00, 0x00, 0x00,
  0x20, 0x00, 0x00, 0x00, 0x02, 0x00, 0x00, 0x00, 0x01, 0x00, 0x00, 0x00,
  0x03, 0x00, 0x00, 0x00, 0x08, 0x00, 0x00, 0x00, 0x49, 0x64, 0x65, 0x6e,
  0x74, 0x69, 0x74, 0x79, 0x00, 0x00, 0x00, 0x00, 0x08, 0xd2, 0xff, 0xff,
  0x00, 0x00, 0x0e, 0x00, 0x18, 0x00, 0x08, 0x00, 0x0c, 0x00, 0x10, 0x00,
  0x07, 0x00, 0x14, 0x00, 0x0e, 0x00, 0x00, 0x00, 0x00, 0x00, 0x00, 0x08,
  0x03, 0x00, 0x00, 0x00, 0x18, 0x00, 0x00, 0x00, 0x0c, 0x00, 0x00, 0x00,
  0x04, 0x00, 0x00, 0x00, 0xdc, 0xd1, 0xff, 0xff, 0x01, 0x00, 0x00, 0x00,
  0x10, 0x00, 0x00, 0x00, 0x03, 0x00, 0x00, 0x00, 0x0f, 0x00, 0x00, 0x00,
  0x05, 0x00, 0x00, 0x00, 0x02, 0x00, 0x00, 0x00, 0x46, 0xd2, 0xff, 0xff,
  0x10, 0x00, 0x00, 0x00, 0x11, 0x00, 0x00, 0x00, 0x14, 0x00, 0x00, 0x00,
  0x30, 0x00, 0x00, 0x00, 0x02, 0x00, 0x00, 0x00, 0x01, 0x00, 0x00, 0x00,
  0x03, 0x00, 0x00, 0x00, 0x1a, 0x00, 0x00, 0x00, 0x73, 0x65, 0x71, 0x75,
  0x65, 0x6e, 0x74, 0x69, 0x61, 0x6c, 0x2f, 0x64, 0x65, 0x6e, 0x73, 0x65,
  0x5f, 0x31, 0x2f, 0x42, 0x69, 0x61, 0x73, 0x41, 0x64, 0x64, 0x00, 0x00,
  0x38, 0xd2, 0xff, 0xff, 0xd6, 0xfd, 0xff, 0xff, 0x00, 0x00, 0x00, 0x08,
  0x03, 0x00, 0x00, 0x00, 0x24, 0x00, 0x00, 0x00, 0x18, 0x00, 0x00, 0x00,
  0x0c, 0x00, 0x00, 0x00, 0x00, 0x00, 0x06, 0x00, 0x08, 0x00, 0x07, 0x00,
  0x06, 0x00, 0x00, 0x00, 0x00, 0x00, 0x00, 0x01, 0x01, 0x00, 0x00, 0x00,
  0x0f, 0x00, 0x00, 0x00, 0x03, 0x00, 0x00, 0x00, 0x0e, 0x00, 0x00, 0x00,
  0x04, 0x00, 0x00, 0x00, 0x01, 0x00, 0x00, 0x00, 0xfe, 0xfc, 0xff, 0xff,
  0x00, 0x00, 0x00, 0x09, 0x01, 0x00, 0x00, 0x00, 0xd6, 0xd2, 0xff, 0xff,
  0x10, 0x00, 0x00, 0x00, 0x10, 0x00, 0x00, 0x00, 0x14, 0x00, 0x00, 0x00,
  0x2c, 0x00, 0x00, 0x00, 0x02, 0x00, 0x00, 0x00, 0x01, 0x00, 0x00, 0x00,
  0x10, 0x00, 0x00, 0x00, 0x15, 0x00, 0x00, 0x00, 0x73, 0x65, 0x71, 0x75,
  0x65, 0x6e, 0x74, 0x69, 0x61, 0x6c, 0x2f, 0x64, 0x65, 0x6e, 0x73, 0x65,
  0x2f, 0x52, 0x65, 0x6c, 0x75, 0x00, 0x00, 0x00, 0x1c, 0xd3, 0xff, 0xff,
  0x00, 0x00, 0x0a, 0x00, 0x10, 0x00, 0x04, 0x00, 0x08, 0x00, 0x0c, 0x00,
  0x0a, 0x00, 0x00, 0x00, 0x02, 0x00, 0x00, 0x00, 0x10, 0x00, 0x00, 0x00,
  0x04, 0x00, 0x00, 0x00, 0x01, 0x00, 0x00, 0x00, 0x0e, 0x00, 0x00, 0x00,
  0x02, 0x00, 0x00, 0x00, 0x0d, 0x00, 0x00, 0x00, 0x03, 0x00, 0x00, 0x00,
  0x7a, 0xfd, 0xff, 0xff, 0x00, 0x00, 0x00, 0x16, 0x01, 0x00, 0x00, 0x00,
  0x52, 0xd3, 0xff, 0xff, 0x10, 0x00, 0x00, 0x00, 0x0f, 0x00, 0x00, 0x00,
  0x14, 0x00, 0x00, 0x00, 0x30, 0x00, 0x00, 0x00, 0x02, 0x00, 0x00, 0x00,
  0x01, 0x00, 0x00, 0x00, 0x70, 0x00, 0x00, 0x00, 0x1a, 0x00, 0x00, 0x00,
  0x73, 0x65, 0x71, 0x75, 0x65, 0x6e, 0x74, 0x69, 0x61, 0x6c, 0x2f, 0x66,
  0x6c, 0x61, 0x74, 0x74, 0x65, 0x6e, 0x2f, 0x52, 0x65, 0x73, 0x68, 0x61,
  0x70, 0x65, 0x00, 0x00, 0x44, 0xd3, 0xff, 0xff, 0xe2, 0xfe, 0xff, 0xff,
  0x00, 0x00, 0x00, 0x05, 0x01, 0x00, 0x00, 0x00, 0x38, 0x00, 0x00, 0x00,
  0x2c, 0x00, 0x00, 0x00, 0x14, 0x00, 0x00, 0x00, 0x00, 0x00, 0x0e, 0x00,
  0x14, 0x00, 0x00, 0x00, 0x10, 0x00, 0x0c, 0x00, 0x08, 0x00, 0x04, 0x00,
  0x0e, 0x00, 0x00, 0x00, 0x03, 0x00, 0x00, 0x00, 0x01, 0x00, 0x00, 0x00,
  0x03, 0x00, 0x00, 0x00, 0x01, 0x00, 0x00, 0x00, 0x01, 0x00, 0x00, 0x00,
  0x0d, 0x00, 0x00, 0x00, 0x01, 0x00, 0x00, 0x00, 0x0c, 0x00, 0x00, 0x00,
  0xe2, 0xd3, 0xff, 0xff, 0x10, 0x00, 0x00, 0x00, 0x0e, 0x00, 0x00, 0x00,
  0x1c, 0x00, 0x00, 0x00, 0x40, 0x00, 0x00, 0x00, 0x04, 0x00, 0x00, 0x00,
  0x01, 0x00, 0x00, 0x00, 0x07, 0x00, 0x00, 0x00, 0x01, 0x00, 0x00, 0x00,
  0x10, 0x00, 0x00, 0x00, 0x22, 0x00, 0x00, 0x00, 0x73, 0x65, 0x71, 0x75,
  0x65, 0x6e, 0x74, 0x69, 0x61, 0x6c, 0x2f, 0x6d, 0x61, 0x78, 0x5f, 0x70,
  0x6f, 0x6f, 0x6c, 0x69, 0x6e, 0x67, 0x32, 0x64, 0x5f, 0x31, 0x2f, 0x4d,
  0x61, 0x78, 0x50, 0x6f, 0x6f, 0x6c, 0x00, 0x00, 0xe4, 0xd3, 0xff, 0xff,
  0xc2, 0xfe, 0xff, 0xff, 0x00, 0x00, 0x00, 0x01, 0x24, 0x00, 0x00, 0x00,
  0x18, 0x00, 0x00, 0x00, 0x04, 0x00, 0x00, 0x00, 0xb4, 0xfe, 0xff, 0xff,
  0x01, 0x00, 0x00, 0x00, 0x01, 0x00, 0x00, 0x00, 0x00, 0x00, 0x00, 0x01,
  0x01, 0x00, 0x00, 0x00, 0x0c, 0x00, 0x00, 0x00, 0x03, 0x00, 0x00, 0x00,
  0x0b, 0x00, 0x00, 0x00, 0x07, 0x00, 0x00, 0x00, 0x09, 0x00, 0x00, 0x00,
  0x72, 0xd4, 0xff, 0xff, 0x10, 0x00, 0x00, 0x00, 0x0d, 0x00, 0x00, 0x00,
  0x1c, 0x00, 0x00, 0x00, 0x2c, 0x00, 0x00, 0x00, 0x04, 0x00, 0x00, 0x00,
  0x01, 0x00, 0x00, 0x00, 0x15, 0x00, 0x00, 0x00, 0x01, 0x00, 0x00, 0x00,
  0x10, 0x00, 0x00, 0x00, 0x0c, 0x00, 0x00, 0x00, 0x74, 0x66, 0x6c, 0x2e,
  0x63, 0x6f, 0x6e, 0x76, 0x5f, 0x32, 0x64, 0x31, 0x00, 0x00, 0x00, 0x00,
  0xb8, 0xd4, 0xff, 0xff, 0x00, 0x00, 0x0e, 0x00, 0x1a, 0x00, 0x08, 0x00,
  0x0c, 0x00, 0x10, 0x00, 0x07, 0x00, 0x14, 0x00, 0x0e, 0x00, 0x00, 0x00,
  0x00, 0x00, 0x00, 0x05, 0x01, 0x00, 0x00, 0x00, 0x3c, 0x00, 0x00, 0x00,
  0x30, 0x00, 0x00, 0x00, 0x14, 0x00, 0x00, 0x00, 0x00, 0x00, 0x0e, 0x00,
  0x18, 0x00, 0x17, 0x00, 0x10, 0x00, 0x0c, 0x00, 0x08, 0x00, 0x04, 0x00,
  0x0e, 0x00, 0x00, 0x00, 0x03, 0x00, 0x00, 0x00, 0x03, 0x00, 0x00, 0x00,
  0x03, 0x00, 0x00, 0x00, 0x03, 0x00, 0x00, 0x00, 0x00, 0x00, 0x00, 0x01,
  0x01, 0x00, 0x00, 0x00, 0x0b, 0x00, 0x00, 0x00, 0x01, 0x00, 0x00, 0x00,
  0x0a, 0x00, 0x00, 0x00, 0x46, 0xff, 0xff, 0xff, 0x00, 0x00, 0x00, 0x11,
  0x01, 0x00, 0x00, 0x00, 0x1e, 0xd5, 0xff, 0xff, 0x10, 0x00, 0x00, 0x00,
  0x0c, 0x00, 0x00, 0x00, 0x1c, 0x00, 0x00, 0x00, 0x40, 0x00, 0x00, 0x00,
  0x04, 0x00, 0x00, 0x00, 0x01, 0x00, 0x00, 0x00, 0x15, 0x00, 0x00, 0x00,
  0x01, 0x00, 0x00, 0x00, 0x08, 0x00, 0x00, 0x00, 0x20, 0x00, 0x00, 0x00,
  0x73, 0x65, 0x71, 0x75, 0x65, 0x6e, 0x74, 0x69, 0x61, 0x6c, 0x2f, 0x6d,
  0x61, 0x78, 0x5f, 0x70, 0x6f, 0x6f, 0x6c, 0x69, 0x6e, 0x67, 0x32, 0x64,
  0x2f, 0x4d, 0x61, 0x78, 0x50, 0x6f, 0x6f, 0x6c, 0x00, 0x00, 0x00, 0x00,
  0x78, 0xd5, 0xff, 0xff, 0x00, 0x00, 0x0e, 0x00, 0x14, 0x00, 0x00, 0x00,
  0x08, 0x00, 0x0c, 0x00, 0x07, 0x00, 0x10, 0x00, 0x0e, 0x00, 0x00, 0x00,
  0x00, 0x00, 0x00, 0x01, 0x30, 0x00, 0x00, 0x00, 0x24, 0x00, 0x00, 0x00,
  0x10, 0x00, 0x00, 0x00, 0x0c, 0x00, 0x10, 0x00, 0x00, 0x00, 0x04, 0x00,
  0x08, 0x00, 0x0f, 0x00, 0x0c, 0x00, 0x00, 0x00, 0x01, 0x00, 0x00, 0x00,
  0x01, 0x00, 0x00, 0x00, 0x00, 0x00, 0x00, 0x01, 0x01, 0x00, 0x00, 0x00,
  0x0a, 0x00, 0x00, 0x00, 0x03, 0x00, 0x00, 0x00, 0x00, 0x00, 0x00, 0x00,
  0x06, 0x00, 0x00, 0x00, 0x08, 0x00, 0x00, 0x00, 0x00, 0x00, 0x0a, 0x00,
  0x0c, 0x00, 0x07, 0x00, 0x00, 0x00, 0x08, 0x00, 0x0a, 0x00, 0x00, 0x00,
  0x00, 0x00, 0x00, 0x03, 0x01, 0x00, 0x00, 0x00, 0xe2, 0xd5, 0xff, 0xff,
  0x10, 0x00, 0x00, 0x00, 0x0b, 0x00, 0x00, 0x00, 0x1c, 0x00, 0x00, 0x00,
  0x28, 0x00, 0x00, 0x00, 0x04, 0x00, 0x00, 0x00, 0x01, 0x00, 0x00, 0x00,
  0x40, 0x00, 0x00, 0x00, 0x03, 0x00, 0x00, 0x00, 0x08, 0x00, 0x00, 0x00,
  0x0b, 0x00, 0x00, 0x00, 0x74, 0x66, 0x6c, 0x2e, 0x63, 0x6f, 0x6e, 0x76,
  0x5f, 0x32, 0x64, 0x00, 0xcc, 0xd5, 0xff, 0xff, 0xc2, 0xd6, 0xff, 0xff,
  0x04, 0x00, 0x00, 0x00, 0x40, 0x00, 0x00, 0x00, 0x00, 0xf9, 0x89, 0xbd,
  0xd5, 0xee, 0xe8, 0xbf, 0x4d, 0xfe, 0x37, 0x3f, 0x0b, 0xfc, 0x02, 0x40,
  0x5b, 0xbd, 0xd5, 0x3e, 0x7b, 0xbe, 0x06, 0xc0, 0x83, 0x2f, 0x9d, 0xbe,
  0x8d, 0x98, 0xae, 0x3e, 0xa7, 0x81, 0x8f, 0x3e, 0xdd, 0xb4, 0xff, 0x3e,
  0x66, 0xe8, 0xf1, 0xbd, 0xc5, 0xad, 0x02, 0x40, 0xfc, 0x13, 0x87, 0xbc,
  0x36, 0x13, 0x16, 0x40, 0x88, 0x9e, 0xd8, 0x3f, 0xf7, 0x5e, 0x94, 0xbf,
  0x6a, 0xd6, 0xff, 0xff, 0x10, 0x00, 0x00, 0x00, 0x0a, 0x00, 0x00, 0x00,
  0x10, 0x00, 0x00, 0x00, 0x20, 0x00, 0x00, 0x00, 0x01, 0x00, 0x00, 0x00,
  0x10, 0x00, 0x00, 0x00, 0x0d, 0x00, 0x00, 0x00, 0x73, 0x74, 0x64, 0x2e,
  0x63, 0x6f, 0x6e, 0x73, 0x74, 0x61, 0x6e, 0x74, 0x31, 0x00, 0x00, 0x00,
  0x4c, 0xd6, 0xff, 0xff, 0x42, 0xd7, 0xff, 0xff, 0x04, 0x00, 0x00, 0x00,
  0x20, 0x00, 0x00, 0x00, 0x2c, 0x78, 0x04, 0xc0, 0xf6, 0x0a, 0x23, 0xc0,
  0x10, 0x62, 0x99, 0x3f, 0xa6, 0xf2, 0x80, 0xbe, 0xb1, 0x98, 0x14, 0xc0,
  0xcd, 0xf9, 0xc9, 0x3e, 0x38, 0x71, 0x18, 0xc0, 0x4a, 0x67, 0x20, 0xbe,
  0xca, 0xd6, 0xff, 0xff, 0x10, 0x00, 0x00, 0x00, 0x09, 0x00, 0x00, 0x00,
  0x10, 0x00, 0x00, 0x00, 0x20, 0x00, 0x00, 0x00, 0x01, 0x00, 0x00, 0x00,
  0x08, 0x00, 0x00, 0x00, 0x0c, 0x00, 0x00, 0x00, 0x73, 0x74, 0x64, 0x2e,
  0x63, 0x6f, 0x6e, 0x73, 0x74, 0x61, 0x6e, 0x74, 0x00, 0x00, 0x00, 0x00,
  0xac, 0xd6, 0xff, 0xff, 0xa2, 0xd7, 0xff, 0xff, 0x04, 0x00, 0x00, 0x00,
  0x00, 0x08, 0x00, 0x00, 0x68, 0x27, 0x7e, 0xbe, 0xea, 0x4e, 0x83, 0xbe,
  0x94, 0xd9, 0x2c, 0x3e, 0x82, 0xd0, 0x81, 0xbd, 0x78, 0xc8, 0x55, 0xbd,
  0x4b, 0x7c, 0xd9, 0x3d, 0x71, 0x2c, 0x23, 0xbe, 0x85, 0xeb, 0xd5, 0xbe,
  0x08, 0x77, 0xb2, 0x3d, 0xa2, 0x37, 0xb8, 0x3e, 0x5b, 0x12, 0x8d, 0x3d,
  0xc1, 0x58, 0xcc, 0xbd, 0x0f, 0xaa, 0x45, 0xbd, 0x11, 0x6c, 0xe2, 0xbe,
  0xe6, 0xcd, 0x68, 0xbe, 0x13, 0x06, 0xcb, 0xbe, 0x9d, 0x48, 0x46, 0x3d,
  0x8c, 0xbe, 0x8c, 0xbd, 0x17, 0x5c, 0x97, 0xbc, 0xd2, 0x2c, 0x90, 0x3d,
  0x81, 0xcb, 0x47, 0x3e, 0x09, 0x21, 0x0a, 0xbf, 0xb8, 0x6d, 0xa1, 0x3e,
  0x81, 0x32, 0xad, 0xbe, 0x38, 0x4f, 0x3c, 0x3d, 0xb1, 0x73, 0xb1, 0xbe,
  0x9b, 0xe3, 0xe1, 0x3d, 0xdc, 0xfc, 0x2d, 0xbd, 0x9d, 0x3e, 0xfc, 0x3d,
  0x74, 0xa3, 0x64, 0xbd, 0xf9, 0xef, 0x8f, 0x3e, 0x6d, 0x7a, 0x18, 0xbe,
  0xa8, 0xe9, 0xa6, 0x3c, 0x9b, 0x11, 0xb1, 0xbd, 0x24, 0x68, 0x76, 0x3c,
  0x57, 0x59, 0x69, 0xbe, 0x7e, 0xa6, 0x63, 0x3e, 0x11, 0x74, 0x31, 0xbf,
  0x3e, 0xee, 0x1c, 0x3e, 0x15, 0xe6, 0xdd, 0xbe, 0xb5, 0x28, 0x3b, 0x3d,
  0xa2, 0x03, 0x1f, 0x3f, 0x6a, 0x6f, 0xc0, 0xbd, 0xf5, 0x6b, 0x4a, 0xbb,
  0x3e, 0xde, 0xc8, 0x3d, 0x3f, 0xb6, 0xe1, 0xbd, 0x87, 0x06, 0x69, 0xbd,
  0xb4, 0x79, 0xc5, 0xbd, 0xdf, 0xb3, 0xa3, 0x3e, 0x4a, 0x0d, 0x6d, 0x3e,
  0xf3, 0x83, 0xe5, 0xbd, 0xe3, 0xf6, 0x9c, 0x3d, 0xbb, 0x3d, 0xcd, 0x3e,
  0x79, 0x3b, 0xe4, 0xbd, 0x71, 0x00, 0xc8, 0x3e, 0x5f, 0x17, 0x55, 0xbd,
  0x5c, 0x74, 0x30, 0xbe, 0xfe, 0x9a, 0xfc, 0xbe, 0xa0, 0x72, 0xbe, 0xbd,
  0xfe, 0xf4, 0x4a, 0xbd, 0x9f, 0x50, 0x3d, 0xbe, 0xa4, 0xa9, 0x25, 0xbd,
  0x29, 0x56, 0xe3, 0xbd, 0x20, 0x31, 0x59, 0xbd, 0x9b, 0x46, 0x1f, 0x3e,
  0x0b, 0xf5, 0x81, 0xbd, 0x5e, 0x21, 0x22, 0x3e, 0x0f, 0x92, 0xb6, 0xbd,
  0x42, 0xb6, 0x93, 0x3c, 0xcc, 0x26, 0x00, 0xbe, 0x44, 0xb4, 0x34, 0x3e,
  0x9e, 0x17, 0xe3, 0xbd, 0x9e, 0xc9, 0xe8, 0x3d, 0x93, 0xce, 0x46, 0x3d,
  0x99, 0x9d, 0x3d, 0x3e, 0x10, 0x43, 0x11, 0xbd, 0x3a, 0x9e, 0x31, 0x3e,
  0x16, 0x59, 0x26, 0xbd, 0xad, 0x97, 0xd5, 0xbc, 0xdb, 0x7c, 0x80, 0xbd,
  0x6b, 0x76, 0xdd, 0x3e, 0xcd, 0xbf, 0x3d, 0x3e, 0xed, 0x4d, 0x95, 0xbd,
  0xa0, 0x60, 0xf2, 0xbd, 0x7a, 0xd7, 0xaa, 0x3d, 0x50, 0xb0, 0x23, 0x3e,
  0x6f, 0xef, 0x05, 0x3e, 0x7b, 0x98, 0xb1, 0xbd, 0x92, 0x8f, 0x06, 0x3e,
  0x26, 0x28, 0x00, 0x3c, 0x40, 0x30, 0xc0, 0xbd, 0xea, 0x04, 0x81, 0x3d,
  0xd8, 0x60, 0x34, 0xbe, 0x51, 0xa7, 0x0c, 0x3e, 0x60, 0xaf, 0x23, 0xbd,
  0x49, 0x70, 0x78, 0x3e, 0x91, 0xc7, 0xf1, 0x3d, 0xd7, 0x36, 0x22, 0xbe,
  0x02, 0x01, 0x2c, 0x3d, 0xf0, 0xee, 0x96, 0xbe, 0xeb, 0xe9, 0x15, 0xbe,
  0x6e, 0xdd, 0xe7, 0x3d, 0x5a, 0xbb, 0x3f, 0xbe, 0xb6, 0xbb, 0x85, 0xbd,
  0xa8, 0xfe, 0x6b, 0xbe, 0x07, 0xe8, 0x9e, 0x3c, 0x7b, 0x7d, 0x4f, 0x3e,
  0xa6, 0x5e, 0x83, 0xbe, 0x2a, 0x9b, 0x3d, 0x3e, 0xc0, 0x7d, 0x53, 0x3e,
  0x86, 0x62, 0x63, 0x3e, 0xe5, 0x0e, 0x2a, 0xbd, 0xa4, 0x5b, 0x01, 0x3e,
  0x0e, 0x76, 0xb7, 0xbe, 0x30, 0x03, 0xff, 0x3b, 0x1e, 0x43, 0xe6, 0xbe,
  0x7b, 0xd8, 0x16, 0xbe, 0x2f, 0x94, 0x27, 0xbe, 0x28, 0x13, 0x01, 0xbe,
  0x2b, 0x45, 0x30, 0xbe, 0x2f, 0xb8, 0x06, 0x3e, 0x78, 0xd9, 0x8b, 0xbe,
  0x47, 0x3e, 0x8e, 0xbe, 0xde, 0xfa, 0xc3, 0xbe, 0xd4, 0x22, 0x47, 0x3e,
  0x7e, 0x8d, 0xc3, 0xbc, 0x1b, 0x67, 0x03, 0xbe, 0x69, 0x9e, 0xc9, 0xbd,
  0x22, 0xfe, 0x9e, 0x3e, 0xd5, 0xea, 0xab, 0x3e, 0x21, 0xa7, 0x73, 0xbd,
  0xc8, 0xb1, 0x54, 0x3b, 0xa4, 0x6e, 0x66, 0x3e, 0xd2, 0x92, 0xbe, 0xbe,
  0x41, 0x44, 0x25, 0x3e, 0x68, 0xb5, 0x40, 0xbe, 0x2a, 0x9d, 0x34, 0x3e,
  0xaf, 0x74, 0xc7, 0xbc, 0x6c, 0x1f, 0x3f, 0xbc, 0x8d, 0x41, 0xb3, 0xbc,
  0x58, 0x29, 0xf5, 0x3d, 0xcf, 0x87, 0xe8, 0xbe, 0x7b, 0xf9, 0x8b, 0x3e,
  0x53, 0xba, 0x49, 0xbe, 0x07, 0x6a, 0x83, 0x3d, 0x79, 0x6a, 0xf2, 0x3e,
  0xdb, 0x09, 0x9f, 0x3d, 0x17, 0x80, 0xe9, 0xbd, 0x32, 0xf6, 0x44, 0xbe,
  0x7a, 0xb1, 0xad, 0xbe, 0xec, 0x7f, 0xac, 0x3e, 0xf4, 0x90, 0x5d, 0xbe,
  0xa7, 0xea, 0x1c, 0x3d, 0x0d, 0xf8, 0x5e, 0x3e, 0x73, 0x74, 0xff, 0xbc,
  0xf6, 0xe7, 0xdd, 0x3c, 0x9e, 0x02, 0x10, 0x3d, 0x24, 0x25, 0xae, 0xbe,
  0x1d, 0x49, 0xb5, 0x3d, 0xf7, 0xcc, 0x39, 0xbe, 0xb7, 0x43, 0xbe, 0xbd,
  0x70, 0x27, 0xce, 0xbb, 0x05, 0x53, 0x7c, 0xbe, 0x88, 0xfa, 0xfe, 0xbd,
  0x3e, 0xb7, 0x24, 0x3e, 0xbc, 0x61, 0xac, 0xbd, 0xd9, 0xcb, 0xd8, 0xbc,
  0xdc, 0x55, 0xe9, 0xbd, 0x06, 0x1e, 0x89, 0xbd, 0xe6, 0x63, 0x90, 0x3e,
  0x1d, 0x34, 0xc1, 0xbe, 0x6b, 0x7c, 0xd6, 0xbd, 0xd3, 0xc8, 0xb3, 0x3d,
  0xef, 0xc0, 0x67, 0xbd, 0xcf, 0xfe, 0xe9, 0x3b, 0x12, 0x41, 0xb8, 0xbd,
  0x37, 0xb5, 0xc5, 0x3e, 0x56, 0x62, 0x67, 0x3e, 0x2e, 0x31, 0x86, 0xbe,
  0xdf, 0xc0, 0x50, 0xbe, 0x9b, 0x45, 0xb4, 0x3e, 0x12, 0x88, 0x77, 0xbd,
  0x22, 0xc6, 0xb6, 0x3e, 0x98, 0x86, 0xbe, 0xbc, 0xdc, 0xbe, 0x30, 0x3f,
  0xa3, 0x4d, 0x86, 0x3e, 0xb4, 0x23, 0x3e, 0xbe, 0xe1, 0xdc, 0x97, 0xbd,
  0x1b, 0x7d, 0x65, 0x3e, 0xb6, 0x74, 0xd6, 0xbc, 0x07, 0x0d, 0x35, 0x3f,
  0xc2, 0x5a, 0xe7, 0xbc, 0x11, 0x56, 0x71, 0xbd, 0x10, 0x92, 0x26, 0x3f,
  0x15, 0xa8, 0xac, 0xbd, 0xd6, 0xec, 0xa2, 0xbe, 0x70, 0x3b, 0x23, 0xbe,
  0x87, 0x24, 0xa6, 0xbe, 0x56, 0x2e, 0x29, 0xbf, 0xe1, 0xc0, 0x6d, 0xbe,
  0x48, 0x2d, 0xc8, 0xbd, 0x31, 0xdf, 0xe1, 0xbd, 0x98, 0x9a, 0xb5, 0x3d,
  0x19, 0x83, 0x15, 0x3e, 0xbc, 0x3c, 0x29, 0xbe, 0x6f, 0x84, 0x25, 0xbf,
  0x93, 0x2e, 0x51, 0x3e, 0x35, 0x5c, 0x9b, 0xbe, 0xca, 0x29, 0x18, 0x3e,
  0x7b, 0x35, 0x22, 0xbf, 0x2a, 0x9c, 0xc2, 0xbd, 0xa7, 0x57, 0xde, 0x3c,
  0xcf, 0x45, 0x43, 0x3e, 0x8b, 0x83, 0x80, 0xbe, 0x29, 0x7f, 0x9e, 0x3e,
  0x93, 0x12, 0x2e, 0xbe, 0x9f, 0xa1, 0x6a, 0x3d, 0xcf, 0x37, 0x98, 0xbe,
  0x14, 0xf9, 0x7d, 0xbd, 0x74, 0x74, 0xb2, 0x3d, 0x1d, 0x7a, 0x08, 0xbe,
  0x36, 0xcc, 0x16, 0xbc, 0xc4, 0xaa, 0xb8, 0xbc, 0xaa, 0x0b, 0x40, 0xbd,
  0x44, 0xef, 0x9c, 0xbe, 0xe8, 0x2a, 0x30, 0xbe, 0xd9, 0x6c, 0x10, 0xbc,
  0x86, 0x13, 0x99, 0xbe, 0x4d, 0x2a, 0x04, 0xbe, 0x30, 0x77, 0x91, 0xbe,
  0xda, 0x3f, 0x1c, 0xbf, 0xd3, 0x5a, 0x29, 0xbe, 0x05, 0x3b, 0xd0, 0x3d,
  0xe5, 0xdc, 0x20, 0x3f, 0x76, 0x02, 0x13, 0x3e, 0x5a, 0xd0, 0x08, 0xbc,
  0x4b, 0x0c, 0x5f, 0xbd, 0x1f, 0x6d, 0xf5, 0xbe, 0xaa, 0xcb, 0xf5, 0x3d,
  0xce, 0x21, 0x9b, 0xbe, 0xc9, 0xac, 0x04, 0xbe, 0xaa, 0x5c, 0x59, 0xbf,
  0x73, 0xed, 0x4e, 0xbe, 0x12, 0x52, 0x53, 0x3e, 0xe1, 0xbc, 0x21, 0x3e,
  0xf1, 0xae, 0xcc, 0xbe, 0x31, 0x5a, 0x1d, 0x3e, 0x64, 0x56, 0x72, 0xbe,
  0xcd, 0x9d, 0x71, 0x3e, 0x22, 0x4d, 0x9b, 0xbe, 0x79, 0x4d, 0xd2, 0xbe,
  0x39, 0xe8, 0x84, 0x3d, 0xa9, 0x2f, 0x4e, 0x3e, 0x92, 0x51, 0xd3, 0x3d,
  0x10, 0x17, 0x95, 0x3d, 0x74, 0xaf, 0x9a, 0xbd, 0x89, 0xfe, 0xdb, 0xbe,
  0x3e, 0xab, 0xf2, 0x3c, 0xfb, 0xe8, 0x66, 0xbe, 0xf7, 0x9c, 0x45, 0xbe,
  0x2b, 0x9f, 0xfd, 0xbd, 0xb2, 0x7f, 0x70, 0xbd, 0x58, 0x22, 0xc9, 0xbe,
  0xfb, 0x89, 0x05, 0xbe, 0x38, 0xbe, 0x0f, 0xbb, 0x88, 0x03, 0x72, 0x3d,
  0x7e, 0x78, 0xe1, 0xbe, 0x0d, 0xae, 0x0a, 0xbe, 0xd8, 0xdb, 0x7a, 0x3c,
  0x6c, 0xa3, 0x40, 0x3c, 0x02, 0xbe, 0x35, 0x3c, 0xaa, 0x1b, 0x55, 0xbd,
  0xcd, 0xba, 0xdc, 0x3e, 0x03, 0x1c, 0xc9, 0x3d, 0x3a, 0x79, 0x60, 0xbe,
  0x91, 0x6e, 0x47, 0xbe, 0x2f, 0x47, 0x90, 0x3c, 0x35, 0xc6, 0x31, 0x3e,
  0x6c, 0xf0, 0x1d, 0x3e, 0x63, 0x46, 0x0a, 0xbd, 0x34, 0xfc, 0xd9, 0x3e,
  0xf6, 0x94, 0x3a, 0x3d, 0x6e, 0x39, 0x83, 0xbe, 0xc4, 0x70, 0x52, 0xbe,
  0xe1, 0x98, 0x05, 0x3e, 0xc1, 0xcd, 0x32, 0xbd, 0xdc, 0xbf, 0xa5, 0x3d,
  0x8a, 0x57, 0x57, 0x3c, 0x01, 0xe1, 0xe1, 0xbd, 0xc4, 0xa7, 0xb3, 0x3d,
  0xb4, 0xbe, 0xb3, 0x3d, 0x05, 0xbf, 0xce, 0xbd, 0x40, 0xe6, 0x5e, 0x3d,
  0x98, 0x19, 0xff, 0x3b, 0x13, 0x36, 0xb2, 0xbe, 0x0b, 0x80, 0x35, 0xbe,
  0x9a, 0xcc, 0x64, 0xbe, 0x9b, 0x9d, 0x83, 0xbe, 0x10, 0xdc, 0x7e, 0xbc,
  0xa2, 0x46, 0x22, 0x3e, 0x30, 0x9e, 0xe9, 0xbd, 0x9e, 0x8b, 0x2f, 0xbe,
  0x2b, 0x97, 0xbe, 0x3e, 0xb9, 0xc5, 0x3c, 0xbe, 0xc7, 0xc2, 0x23, 0x3c,
  0x58, 0x49, 0xd5, 0xbe, 0x1d, 0x2d, 0x84, 0xbe, 0xa2, 0xd7, 0xcf, 0x3e,
  0xcd, 0x1d, 0x8e, 0x3d, 0x36, 0x60, 0x6a, 0x3e, 0xc7, 0xac, 0x9e, 0xbd,
  0x7a, 0xa2, 0x11, 0x3c, 0x2e, 0x99, 0xf6, 0x3d, 0xd8, 0x38, 0xd1, 0x3d,
  0x89, 0xe0, 0xc1, 0xbe, 0x41, 0x62, 0xf6, 0xbd, 0xfd, 0x66, 0x0a, 0x3d,
  0x36, 0x4e, 0xb5, 0x3c, 0x05, 0xd5, 0x9b, 0xbd, 0xe1, 0x1d, 0x38, 0xbd,
  0x37, 0x0b, 0xa6, 0xbe, 0xf9, 0x04, 0x23, 0xbf, 0xa2, 0x9a, 0x23, 0xbe,
  0xd6, 0x90, 0x9e, 0xbe, 0x1a, 0x35, 0xfa, 0xbe, 0x02, 0x9a, 0xd1, 0xbd,
  0x95, 0x77, 0xcd, 0xbe, 0x50, 0x01, 0xad, 0xbe, 0x38, 0x4e, 0xca, 0xbe,
  0x59, 0x7d, 0xc3, 0x3d, 0x6f, 0x2a, 0xfd, 0x3d, 0x3b, 0xfb, 0xe0, 0xbe,
  0x4a, 0x19, 0xfc, 0xbd, 0x62, 0x10, 0x84, 0xbd, 0xc8, 0xe5, 0x20, 0xbf,
  0x71, 0xd5, 0x4a, 0xbe, 0x65, 0x63, 0xed, 0x3b, 0xbd, 0xf1, 0xa3, 0x3e,
  0xca, 0x20, 0x3e, 0x3d, 0x89, 0xe7, 0x03, 0xbe, 0xc0, 0x32, 0xd4, 0x3e,
  0x78, 0x7e, 0xe6, 0xbe, 0x2c, 0x25, 0x1d, 0xbe, 0x7b, 0x5e, 0x6e, 0xbe,
  0x71, 0xa2, 0x90, 0xbc, 0xc9, 0xfe, 0xad, 0x3e, 0x3f, 0x3c, 0x07, 0x3d,
  0xec, 0x38, 0xba, 0x3e, 0x46, 0x40, 0xb4, 0x3e, 0xe7, 0x45, 0x8f, 0xbe,
  0xa6, 0x06, 0x34, 0x3e, 0x0f, 0x37, 0xbc, 0xbd, 0x29, 0x1c, 0xbd, 0xbe,
  0xc4, 0xa4, 0x9b, 0xbe, 0x51, 0x19, 0xdc, 0xbc, 0x0d, 0xeb, 0xde, 0x3d,
  0xa7, 0xe3, 0x48, 0xbe, 0x13, 0x2e, 0x97, 0x3d, 0xd3, 0x9c, 0x9f, 0xbd,
  0x5b, 0x0c, 0xad, 0xbd, 0xf7, 0xed, 0xbc, 0xbd, 0x7b, 0x36, 0xe2, 0x3b,
  0xcc, 0xb0, 0x92, 0x3d, 0x02, 0x1b, 0x35, 0xbc, 0x03, 0xe3, 0xa6, 0xbe,
  0xd2, 0x52, 0xc7, 0x3c, 0x62, 0x9a, 0x81, 0xbd, 0xce, 0xba, 0xc5, 0x3d,
  0x0b, 0xbd, 0x25, 0xbe, 0x3b, 0xbb, 0x8a, 0x3d, 0x49, 0x27, 0xc8, 0x3d,
  0xb0, 0x25, 0xc0, 0x3d, 0x7a, 0xe3, 0x59, 0x3d, 0xb1, 0x21, 0xcd, 0x3d,
  0x42, 0x9d, 0x23, 0xbd, 0x05, 0xc4, 0xd3, 0xbc, 0x1f, 0x37, 0x0e, 0x3e,
  0xcc, 0x07, 0x01, 0x3e, 0xe5, 0xd0, 0xa4, 0x3b, 0xb8, 0xdf, 0x83, 0x3c,
  0x64, 0xb7, 0xe2, 0x3d, 0x6c, 0xee, 0x4e, 0x3a, 0x95, 0x4c, 0x0e, 0x3e,
  0xac, 0x2d, 0xb1, 0x3c, 0x54, 0x5a, 0x3f, 0xbe, 0xc3, 0x3e, 0xea, 0x3d,
  0x87, 0x9e, 0x4d, 0xbd, 0xf0, 0x98, 0x2c, 0xbe, 0xe4, 0x47, 0x7e, 0xbc,
  0x2d, 0x34, 0x0e, 0xbe, 0x86, 0x12, 0x7f, 0xbd, 0x44, 0xdc, 0x2c, 0xbe,
  0x03, 0x90, 0x41, 0xbe, 0x41, 0xd0, 0xb2, 0x3e, 0x85, 0x92, 0xbb, 0x3d,
  0x09, 0xcf, 0xe0, 0x3d, 0x62, 0xe1, 0xea, 0xba, 0x93, 0xaa, 0xe5, 0xbe,
  0x04, 0x62, 0xef, 0xbc, 0xf0, 0xac, 0xbf, 0xbe, 0x13, 0xd2, 0xb0, 0x3e,
  0x8f, 0xe7, 0x52, 0xbf, 0xaf, 0xbd, 0xe4, 0xbd, 0x7b, 0xc4, 0x85, 0x3d,
  0xd1, 0x03, 0x0f, 0x3f, 0x90, 0x8d, 0x2f, 0xbe, 0x8a, 0xca, 0x1c, 0x3d,
  0x63, 0x33, 0x62, 0xbe, 0x16, 0x2e, 0x03, 0x3d, 0xf1, 0xbf, 0x13, 0xbf,
  0xc6, 0x05, 0x95, 0xbe, 0x02, 0x39, 0x05, 0xbd, 0xb1, 0x2c, 0x51, 0x3d,
  0xe8, 0xea, 0xc8, 0x3c, 0x7d, 0xfd, 0xeb, 0x3d, 0xf6, 0x4d, 0xe7, 0xbd,
  0x82, 0x12, 0x67, 0xbe, 0xc5, 0xd6, 0x79, 0xbc, 0xd0, 0x64, 0x1c, 0xbe,
  0x5a, 0x10, 0xd6, 0x3d, 0x31, 0xde, 0xb0, 0x3d, 0xa1, 0xc3, 0xb5, 0xbe,
  0x27, 0xdb, 0xb9, 0xbd, 0x35, 0x35, 0xd5, 0x3d, 0x00, 0xa6, 0xe8, 0xbd,
  0x12, 0x29, 0x80, 0x3d, 0xee, 0x0b, 0xbe, 0xbd, 0xfc, 0x3e, 0x13, 0xbe,
  0xef, 0xd9, 0xfb, 0xbc, 0xd7, 0xbc, 0xd8, 0xbe, 0xa2, 0x73, 0x86, 0x3d,
  0xef, 0x14, 0x1c, 0x3e, 0x3c, 0x51, 0x9b, 0xbe, 0x4e, 0xb4, 0x9e, 0xbe,
  0xb6, 0xb9, 0xbe, 0x3d, 0x36, 0x4f, 0x19, 0xbe, 0x91, 0xf2, 0x55, 0x3a,
  0x76, 0x5b, 0x1c, 0xbe, 0x16, 0xe8, 0x24, 0xbe, 0x37, 0xed, 0x43, 0xbe,
  0x75, 0xb4, 0x36, 0xbe, 0x93, 0xe0, 0x58, 0xbe, 0x95, 0xd5, 0x1f, 0x3e,
  0x4c, 0xa7, 0x87, 0xbe, 0x66, 0x39, 0xe0, 0xbd, 0xad, 0x54, 0x6c, 0xbd,
  0xf7, 0x49, 0xe8, 0xbe, 0x48, 0xc3, 0xb7, 0xbe, 0xb3, 0x5e, 0xc9, 0xbd,
  0x45, 0x78, 0x27, 0xbe, 0xc4, 0x5c, 0xd9, 0xbd, 0x1d, 0xbb, 0x1b, 0xbc,
  0x74, 0xe9, 0xbb, 0xbe, 0x6b, 0x6f, 0x54, 0x3c, 0x9f, 0xde, 0x99, 0xbd,
  0xf7, 0x29, 0x77, 0xbe, 0x95, 0x2a, 0x8b, 0xbe, 0x5c, 0x70, 0x49, 0x3e,
  0xde, 0x29, 0x85, 0xbd, 0x51, 0xf7, 0x2a, 0xbe, 0xa6, 0xcf, 0x14, 0x3e,
  0x46, 0xb2, 0x94, 0x3c, 0x43, 0x40, 0x46, 0xbf, 0x1f, 0xf2, 0x26, 0xbe,
  0xe2, 0x93, 0x26, 0x3e, 0xd0, 0x96, 0xeb, 0x3d, 0xa6, 0x2f, 0x52, 0x3e,
  0xb5, 0x1f, 0xae, 0xbd, 0xca, 0x70, 0x7f, 0x3e, 0x01, 0xe5, 0x88, 0x3b,
  0xde, 0xb8, 0xa3, 0x3a, 0x82, 0x1f, 0x34, 0xbd, 0x8b, 0xe9, 0xcd, 0xbb,
  0x97, 0x24, 0x9b, 0xbe, 0x8d, 0xf6, 0x81, 0xbe, 0x80, 0x47, 0x89, 0xbe,
  0x8c, 0xc7, 0x9b, 0xbd, 0x9f, 0xb0, 0x28, 0xbd, 0xb8, 0xc2, 0xa1, 0x3e,
  0xb0, 0x97, 0xdd, 0xbd, 0x9a, 0x7c, 0x2b, 0xbe, 0x7e, 0xf0, 0xdd, 0x3e,
  0xaf, 0xdb, 0x7e, 0xbe, 0x41, 0xd5, 0x1d, 0xbe, 0xe3, 0xfe, 0xac, 0x3e,
  0xed, 0xa2, 0x65, 0xbd, 0x6a, 0xc4, 0x84, 0xbe, 0xeb, 0xb7, 0x53, 0xbd,
  0xdf, 0x4d, 0x70, 0xbd, 0x02, 0x0c, 0xee, 0x3d, 0x1b, 0xe3, 0x35, 0xbe,
  0x35, 0xa2, 0x26, 0xbe, 0x73, 0x47, 0x77, 0x3e, 0x7e, 0x19, 0xbc, 0xbd,
  0x5e, 0x8d, 0x8e, 0xbd, 0x54, 0x8c, 0xb6, 0xbd, 0xd6, 0x7d, 0x46, 0x3f,
  0x6c, 0x64, 0x7c, 0x3e, 0xc7, 0xae, 0xdf, 0xbd, 0xa1, 0xde, 0xe3, 0xbd,
  0x56, 0xaf, 0xf5, 0x3d, 0x8b, 0xe4, 0xc6, 0xbd, 0xf1, 0xa0, 0x82, 0x3e,
  0x9c, 0x3a, 0x95, 0xbd, 0xe8, 0x92, 0x6e, 0x3e, 0x0a, 0x41, 0xc0, 0x3d,
  0x27, 0xbc, 0x59, 0xbd, 0x87, 0x88, 0x32, 0xbd, 0x49, 0xf5, 0x8d, 0x3e,
  0xa3, 0xe1, 0x87, 0xbd, 0x7d, 0x99, 0xd7, 0x3c, 0xa4, 0x44, 0x89, 0xbc,
  0x0a, 0xdf, 0xff, 0xff, 0x10, 0x00, 0x00, 0x00, 0x08, 0x00, 0x00, 0x00,
  0x1c, 0x00, 0x00, 0x00, 0x38, 0x00, 0x00, 0x00, 0x04, 0x00, 0x00, 0x00,
  0x10, 0x00, 0x00, 0x00, 0x04, 0x00, 0x00, 0x00, 0x01, 0x00, 0x00, 0x00,
  0x08, 0x00, 0x00, 0x00, 0x1a, 0x00, 0x00, 0x00, 0x73, 0x65, 0x71, 0x75,
  0x65, 0x6e, 0x74, 0x69, 0x61, 0x6c, 0x2f, 0x63, 0x6f, 0x6e, 0x76, 0x32,
  0x64, 0x5f, 0x31, 0x2f, 0x43, 0x6f, 0x6e, 0x76, 0x32, 0x44, 0x00, 0x00,
  0x04, 0xdf, 0xff, 0xff, 0xfa, 0xdf, 0xff, 0xff, 0x04, 0x00, 0x00, 0x00,
  0x80, 0x01, 0x00, 0x00, 0xc5, 0xab, 0xf8, 0x3e, 0x75, 0x00, 0xe6, 0xbd,
  0xdf, 0x1f, 0xa7, 0xbe, 0xbf, 0x10, 0x1c, 0xbd, 0xf3, 0xe0, 0x28, 0xbe,
  0x52, 0xb4, 0x6a, 0x3e, 0x31, 0x47, 0x55, 0xbe, 0x50, 0xee, 0x92, 0x3e,
  0x8e, 0xf3, 0xea, 0x3d, 0x02, 0xbf, 0x4e, 0xbe, 0x5a, 0x56, 0x0c, 0xbc,
  0x4d, 0x67, 0x6e, 0x3d, 0x61, 0xea, 0x0b, 0xbe, 0xe4, 0x8d, 0xe8, 0xbb,
  0x07, 0x45, 0x5e, 0xba, 0x1d, 0xec, 0x03, 0xbf, 0x69, 0x37, 0x5f, 0xbe,
  0xf8, 0x90, 0x54, 0xbe, 0x7a, 0xdf, 0xf2, 0x3e, 0x10, 0x00, 0x7e, 0xbc,
  0xf5, 0xee, 0x8f, 0xbc, 0x6f, 0x4c, 0x62, 0x3e, 0x9e, 0x93, 0xa5, 0x3e,
  0xc8, 0x4b, 0x96, 0x3e, 0x03, 0xaf, 0x04, 0xbd, 0x53, 0xbe, 0x01, 0x3e,
  0xd4, 0x38, 0x0b, 0xbe, 0x33, 0x0a, 0x61, 0x3e, 0xa5, 0x64, 0xbc, 0xbd,
  0x5c, 0x5a, 0xaf, 0x3d, 0x9a, 0xde, 0x46, 0x3e, 0x0d, 0x7c, 0x0f, 0x3e,
  0x34, 0x9e, 0xe0, 0xbd, 0xe2, 0xd0, 0x37, 0x3e, 0x6d, 0xd9, 0x97, 0x3d,
  0x88, 0x3f, 0xff, 0x3d, 0xc3, 0xac, 0x7c, 0x3e, 0x76, 0xaa, 0xbc, 0x3e,
  0xb3, 0x67, 0x9a, 0x3e, 0xd6, 0x3e, 0x8b, 0x3c, 0x5c, 0x7c, 0xac, 0x3d,
  0xb5, 0x2b, 0x76, 0x3d, 0xcf, 0x40, 0x38, 0xbd, 0xfd, 0x61, 0xc8, 0x3c,
  0xc2, 0xed, 0x99, 0x3c, 0x62, 0xb7, 0x18, 0xbe, 0xa2, 0xa6, 0x87, 0xbe,
  0xc0, 0x41, 0x13, 0xbe, 0xda, 0xdd, 0x99, 0xbe, 0x87, 0x6d, 0xb5, 0x3d,
  0xf8, 0x7f, 0xd5, 0x3e, 0xac, 0x7b, 0xec, 0xbd, 0x95, 0x35, 0xda, 0x3c,
  0xe3, 0x94, 0xda, 0xbd, 0xb6, 0xba, 0x32, 0x3e, 0x0e, 0x5e, 0x1a, 0xbe,
  0x15, 0xc5, 0xae, 0x3d, 0x17, 0xea, 0x66, 0x3e, 0x1f, 0x65, 0x56, 0x3d,
  0x86, 0x49, 0xc0, 0xbe, 0x5a, 0xe3, 0x5a, 0xbd, 0x34, 0x0e, 0xac, 0xbd,
  0x49, 0xff, 0x4f, 0xbd, 0x50, 0xf5, 0x2e, 0xbc, 0x6f, 0xa6, 0x5b, 0xbd,
  0x66, 0xab, 0xc0, 0x3d, 0x94, 0xfd, 0x5a, 0x3c, 0x79, 0xd6, 0xd5, 0xbd,
  0x1e, 0x11, 0xce, 0x3d, 0x13, 0xb2, 0x41, 0x3c, 0xc6, 0xc4, 0xb6, 0xbd,
  0x7e, 0xfc, 0x28, 0x3d, 0x9e, 0xea, 0x8a, 0x3e, 0x32, 0x37, 0x27, 0xbe,
  0x15, 0x7a, 0x39, 0x3e, 0x31, 0xc3, 0x71, 0x3e, 0x24, 0x01, 0x9c, 0x3e,
  0x66, 0xfa, 0x9f, 0x3d, 0x86, 0x72, 0x34, 0xbe, 0xd8, 0x07, 0xeb, 0x3d,
  0x8b, 0x04, 0x15, 0xbc, 0xdf, 0xc4, 0x8a, 0xbe, 0x79, 0x87, 0x7c, 0xbe,
  0xa9, 0x40, 0x68, 0xbe, 0x18, 0xc2, 0x59, 0xbe, 0x62, 0x41, 0xad, 0xbc,
  0x6b, 0xf1, 0x65, 0x3e, 0x6d, 0x19, 0x47, 0x3d, 0x10, 0x8e, 0xd2, 0xbd,
  0x75, 0xf7, 0x25, 0x3e, 0x52, 0xd1, 0x76, 0x3d, 0x3c, 0x03, 0x36, 0xbd,
  0xc9, 0x84, 0xfc, 0x3b, 0x95, 0x41, 0x56, 0xbe, 0x8b, 0xc9, 0x5a, 0x3e,
  0xff, 0x11, 0xb1, 0x3d, 0xe2, 0xe0, 0xff, 0xff, 0x10, 0x00, 0x00, 0x00,
  0x07, 0x00, 0x00, 0x00, 0x1c, 0x00, 0x00, 0x00, 0x38, 0x00, 0x00, 0x00,
  0x04, 0x00, 0x00, 0x00, 0x08, 0x00, 0x00, 0x00, 0x04, 0x00, 0x00, 0x00,
  0x03, 0x00, 0x00, 0x00, 0x01, 0x00, 0x00, 0x00, 0x18, 0x00, 0x00, 0x00,
  0x73, 0x65, 0x71, 0x75, 0x65, 0x6e, 0x74, 0x69, 0x61, 0x6c, 0x2f, 0x63,
  0x6f, 0x6e, 0x76, 0x32, 0x64, 0x2f, 0x43, 0x6f, 0x6e, 0x76, 0x32, 0x44,
  0x00, 0x00, 0x00, 0x00, 0xdc, 0xe0, 0xff, 0xff, 0xd2, 0xe1, 0xff, 0xff,
  0x04, 0x00, 0x00, 0x00, 0xc0, 0x00, 0x00, 0x00, 0x7d, 0x3c, 0x52, 0xbe,
  0xb0, 0xd1, 0xc0, 0xbe, 0xb5, 0xf1, 0xc8, 0x3e, 0x94, 0xd5, 0x09, 0xbe,
  0xe4, 0x0a, 0xae, 0xbd, 0x08, 0x9e, 0xc7, 0x3e, 0x61, 0x67, 0xf6, 0xbc,
  0x9d, 0x3c, 0x23, 0x3c, 0xba, 0x73, 0x88, 0xbd, 0x06, 0x95, 0x2a, 0x3d,
  0x90, 0xe8, 0x2c, 0xbe, 0x03, 0xd6, 0xae, 0xbe, 0x4b, 0xf2, 0x70, 0x3d,
  0x26, 0xed, 0x4d, 0x3e, 0xbd, 0xaa, 0x33, 0x3e, 0xec, 0x2c, 0x5d, 0xbd,
  0x13, 0x40, 0xd3, 0xbe, 0x06, 0xf5, 0x5d, 0x3e, 0x88, 0x0e, 0x2b, 0xbd,
  0x25, 0xe4, 0xb6, 0xbd, 0x32, 0x97, 0xd8, 0xbc, 0xbd, 0x22, 0x16, 0xbe,
  0xe0, 0x2b, 0x38, 0x3d, 0x2d, 0x1a, 0x8f, 0x3d, 0x5b, 0x26, 0x52, 0xbe,
  0x73, 0xc0, 0x59, 0x3d, 0xee, 0xdc, 0x1a, 0xbf, 0x34, 0x8b, 0xfc, 0xbe,
  0x81, 0x3d, 0xb1, 0xbe, 0xfd, 0xd8, 0xc1, 0x3e, 0x80, 0x3d, 0x55, 0x3e,
  0x43, 0x9b, 0xf0, 0xbe, 0xc3, 0xae, 0x9f, 0x3b, 0xc6, 0xb5, 0x67, 0xbe,
  0x9a, 0x70, 0x1c, 0xbe, 0x23, 0x39, 0x08, 0xbe, 0xad, 0xb4, 0xcc, 0xbd,
  0x7e, 0x82, 0x9b, 0xbc, 0xbd, 0x98, 0x91, 0x3d, 0xfe, 0xc3, 0xa8, 0x3c,
  0x8c, 0x13, 0x4a, 0xbe, 0x63, 0x91, 0x3d, 0xbd, 0xa4, 0xe4, 0xf5, 0xbe,
  0xba, 0x25, 0xb5, 0x3c, 0x6d, 0xfe, 0xc0, 0x3d, 0xf3, 0x7f, 0xaf, 0x3e,
  0x8a, 0x46, 0x96, 0x3e, 0x42, 0xe2, 0xb5, 0xbe, 0xfa, 0xe1, 0xff, 0xff,
  0x10, 0x00, 0x00, 0x00, 0x06, 0x00, 0x00, 0x00, 0x14, 0x00, 0x00, 0x00,
  0x30, 0x00, 0x00, 0x00, 0x02, 0x00, 0x00, 0x00, 0x03, 0x00, 0x00, 0x00,
  0x10, 0x00, 0x00, 0x00, 0x19, 0x00, 0x00, 0x00, 0x73, 0x65, 0x71, 0x75,
  0x65, 0x6e, 0x74, 0x69, 0x61, 0x6c, 0x2f, 0x64, 0x65, 0x6e, 0x73, 0x65,
  0x5f, 0x31, 0x2f, 0x4d, 0x61, 0x74, 0x4d, 0x75, 0x6c, 0x00, 0x00, 0x00,
  0xec, 0xe1, 0xff, 0xff, 0xe2, 0xe2, 0xff, 0xff, 0x04, 0x00, 0x00, 0x00,
  0x00, 0x1c, 0x00, 0x00, 0xe1, 0xe7, 0xfe, 0xbd, 0x66, 0x9b, 0x2e, 0xbb,
  0x73, 0x4a, 0xb6, 0xbe, 0xd3, 0x6f, 0x28, 0xbe, 0x05, 0x7d, 0xcb, 0xbd,
  0xbf, 0xd3, 0xb1, 0x3d, 0x77, 0x62, 0x08, 0x3e, 0x80, 0x50, 0xb3, 0xbd,
  0xc0, 0x64, 0x65, 0xbe, 0x97, 0xdd, 0x08, 0xbe, 0x48, 0xe0, 0x43, 0xbd,
  0xbd, 0x7d, 0xc0, 0xbd, 0xdd, 0xc6, 0xee, 0xbd, 0x0a, 0xc2, 0x40, 0x3e,
  0x5d, 0xef, 0x13, 0xbd, 0x0c, 0x82, 0x80, 0xbd, 0x1a, 0xc1, 0x62, 0xbe,
  0xb2, 0xd7, 0xff, 0xbd, 0xda, 0x15, 0xb9, 0xbe, 0xe1, 0x24, 0xc1, 0xbd,
  0x4f, 0xa6, 0x14, 0xbe, 0xd1, 0x23, 0xcd, 0x3d, 0x00, 0x19, 0x76, 0x3d,
  0xc3, 0x3c, 0x49, 0xbe, 0x03, 0x3b, 0xf8, 0x3d, 0x82, 0x29, 0xe4, 0xbd,
  0x46, 0xfe, 0xed, 0x3d, 0xae, 0x4b, 0xf6, 0xbd, 0x86, 0x4b, 0xcb, 0x3c,
  0x3f, 0xb3, 0x02, 0xbd, 0x53, 0xd9, 0xa9, 0x3d, 0x2c, 0x39, 0x5b, 0xbb,
  0xc8, 0x92, 0x9c, 0xbd, 0x68, 0xea, 0x29, 0x3e, 0x76, 0x98, 0x55, 0xbe,
  0x33, 0xcf, 0xa3, 0x3d, 0x41, 0x65, 0x96, 0xbc, 0x89, 0x24, 0x95, 0xbd,
  0xfa, 0x29, 0x3a, 0xbe, 0x25, 0x8f, 0x52, 0xbc, 0x8f, 0xd9, 0x1a, 0xbe,
  0x2c, 0x7f, 0x61, 0xbe, 0xc5, 0x2e, 0x09, 0xbd, 0x67, 0x1b, 0x9f, 0x3c,
  0xe9, 0x82, 0xdb, 0x3d, 0x26, 0x57, 0x2b, 0x3e, 0xd1, 0x17, 0xa4, 0x3d,
  0x8c, 0x6c, 0xa2, 0xbe, 0xbb, 0x7e, 0xf6, 0x3d, 0xc9, 0x2f, 0xa7, 0xb9,
  0xb3, 0xe7, 0xbe, 0xbe, 0x58, 0x7d, 0xe6, 0xbd, 0x23, 0xc2, 0x0e, 0x3e,
  0xab, 0x72, 0xb1, 0xbc, 0x6e, 0x19, 0x23, 0xbe, 0x19, 0xf5, 0x0b, 0xbe,
  0x41, 0x49, 0xde, 0xbd, 0x40, 0x59, 0x91, 0xbd, 0x3a, 0xbf, 0x85, 0x3d,
  0x69, 0x84, 0x1d, 0xbb, 0x44, 0x2e, 0xfd, 0x3c, 0xd0, 0x0e, 0xa6, 0x3a,
  0x8e, 0xa7, 0xa0, 0x3d, 0x18, 0x82, 0x02, 0xbe, 0xc3, 0xc0, 0xcb, 0xbc,
  0x8b, 0x36, 0x19, 0x3e, 0xa5, 0x2c, 0x61, 0xbe, 0x4e, 0x43, 0x51, 0xbd,
  0x6b, 0x06, 0xcf, 0x3d, 0x74, 0x7b, 0x4b, 0x3d, 0xd6, 0x5b, 0x09, 0x3e,
  0x9d, 0x91, 0xfd, 0x3d, 0x50, 0x28, 0x30, 0xbd, 0x08, 0x73, 0x4a, 0x3d,
  0xca, 0xa5, 0x83, 0xbd, 0x70, 0x26, 0xfc, 0xbc, 0xf0, 0xbe, 0x34, 0xbe,
  0x00, 0x28, 0x46, 0x3d, 0x1b, 0x15, 0xf3, 0xbd, 0xc5, 0xdb, 0xcb, 0xbd,
  0x89, 0xb5, 0x21, 0xbd, 0x76, 0x5a, 0x15, 0xbe, 0xb0, 0x5d, 0x65, 0xbe,
  0x9e, 0x8c, 0x27, 0x3e, 0xbd, 0xee, 0x12, 0xbe, 0x75, 0x15, 0x24, 0xbe,
  0x65, 0x52, 0x22, 0xbe, 0xe8, 0x3b, 0x25, 0xbe, 0x5d, 0x3d, 0x91, 0xbd,
  0xdd, 0xd7, 0x48, 0xbe, 0x02, 0xb9, 0x13, 0xbe, 0x85, 0x67, 0x85, 0xbe,
  0xbf, 0xe4, 0x92, 0xbd, 0xc7, 0xe7, 0x07, 0x3d, 0x3c, 0xd1, 0x0c, 0xbe,
  0x7e, 0xc7, 0xad, 0xbe, 0x9b, 0xbb, 0x02, 0x3e, 0x56, 0x37, 0x0e, 0xbe,
  0x28, 0xd0, 0x8f, 0xbe, 0xb5, 0xd7, 0x32, 0xbd, 0xd4, 0x3a, 0xb4, 0x3d,
  0x02, 0x69, 0x2f, 0xb8, 0x09, 0xe2, 0x06, 0x3e, 0x43, 0x9f, 0x08, 0x3c,
  0x68, 0x59, 0xd5, 0x3d, 0x2a, 0xcc, 0xb9, 0xbc, 0xb8, 0x67, 0x0d, 0xbe,
  0x7f, 0xdf, 0x27, 0x3d, 0xdd, 0xb2, 0x15, 0xbc, 0x59, 0x28, 0xf7, 0x3c,
  0x8a, 0xab, 0xc5, 0xbd, 0x09, 0x7a, 0x22, 0xbe, 0xba, 0x30, 0x17, 0x3e,
  0xa9, 0xce, 0x3a, 0xbe, 0x2e, 0xd6, 0xdb, 0xbc, 0x2d, 0x47, 0x52, 0xbe,
  0xae, 0xcd, 0x45, 0xbe, 0x04, 0x7e, 0x85, 0xbe, 0x0e, 0x17, 0x8f, 0xbe,
  0x09, 0x64, 0x5f, 0x3d, 0xc7, 0x99, 0x24, 0xbe, 0xe5, 0x93, 0xb4, 0xbd,
  0x7a, 0x87, 0x70, 0x3d, 0xbe, 0xf1, 0x98, 0xbc, 0xb0, 0x79, 0x81, 0xbd,
  0xcd, 0xd0, 0xed, 0xbd, 0x72, 0x68, 0xaf, 0x3c, 0x14, 0x12, 0xdb, 0x3d,
  0xf2, 0xca, 0x06, 0xbd, 0x2e, 0xd1, 0x8d, 0x3d, 0x78, 0x05, 0x7c, 0xbd,
  0xef, 0x69, 0x84, 0xbe, 0x56, 0x54, 0x80, 0xbc, 0x48, 0x8b, 0x3e, 0xbe,
  0xab, 0x8c, 0xe4, 0x3d, 0x8f, 0x3b, 0xa7, 0x3c, 0x3e, 0x67, 0xae, 0xbe,
  0x6e, 0x71, 0x4c, 0x3d, 0xcd, 0x3a, 0x44, 0xbd, 0x2e, 0x27, 0xc0, 0x3c,
  0xa4, 0xa5, 0xb7, 0x3d, 0xe6, 0x5b, 0x26, 0x3e, 0x8d, 0xba, 0x88, 0xbe,
  0x25, 0x2f, 0x81, 0xbe, 0x2b, 0x4a, 0x11, 0x3e, 0x88, 0x14, 0xfb, 0xbc,
  0x9e, 0x00, 0x1f, 0x3b, 0xb0, 0x83, 0xfb, 0xbd, 0x5d, 0x85, 0x0d, 0xbe,
  0x2d, 0x63, 0x01, 0xbe, 0x16, 0xd3, 0x78, 0xbe, 0x99, 0x3c, 0xaa, 0xbd,
  0xf7, 0x35, 0x7b, 0xbe, 0x62, 0xf0, 0x67, 0xbe, 0xd6, 0x56, 0x86, 0x3d,
  0xec, 0xd7, 0xd5, 0x3b, 0xe7, 0xdd, 0x2b, 0xbe, 0x60, 0x64, 0xe4, 0x3b,
  0xcd, 0x54, 0x19, 0x3e, 0x45, 0x70, 0xa4, 0xbd, 0x2d, 0xe0, 0x1c, 0xbd,
  0xf3, 0xa0, 0xa8, 0xbd, 0x2b, 0xbf, 0x0b, 0xbe, 0xc5, 0x34, 0x92, 0xbe,
  0xd9, 0x87, 0xc1, 0x3d, 0x44, 0x2f, 0xb2, 0x3d, 0x8c, 0xed, 0x85, 0x3d,
  0xf8, 0xdb, 0x6f, 0xbe, 0xed, 0x69, 0x00, 0xbe, 0xe5, 0x5b, 0x9a, 0xbe,
  0xa6, 0xd4, 0x02, 0xbe, 0xc7, 0x02, 0x93, 0xbe, 0x85, 0x6d, 0x6c, 0xbe,
  0x6a, 0xbe, 0xef, 0x3d, 0x41, 0xb9, 0xa9, 0xbd, 0x83, 0x3b, 0x9d, 0x3d,
  0xbc, 0x9f, 0x22, 0xbe, 0xc3, 0x3e, 0x50, 0xbd, 0x98, 0xc0, 0x97, 0xbe,
  0x86, 0xcc, 0xf9, 0xbd, 0xd2, 0x6b, 0x6c, 0xbd, 0x24, 0xed, 0x28, 0xbe,
  0x0b, 0x93, 0x87, 0xbd, 0xeb, 0x6e, 0x01, 0xbe, 0xbb, 0x80, 0x68, 0xbe,
  0x02, 0xc7, 0x3f, 0xbc, 0x82, 0xfd, 0xa5, 0x3c, 0x9a, 0x39, 0x26, 0x3d,
  0x6a, 0x56, 0x29, 0xbd, 0xcf, 0xb6, 0x49, 0x3e, 0xbf, 0x1b, 0x43, 0x3d,
  0xc4, 0x2a, 0x39, 0xbe, 0xd3, 0x57, 0x67, 0xbe, 0xbd, 0x5e, 0x04, 0xbe,
  0x11, 0x18, 0x86, 0xbe, 0xed, 0x98, 0x78, 0xbe, 0x8e, 0xf3, 0x40, 0xbe,
  0xd1, 0x5d, 0xd1, 0x3d, 0x88, 0xcf, 0x00, 0x3e, 0xdc, 0x7f, 0x8f, 0xbd,
  0xee, 0x58, 0x60, 0xbe, 0x1b, 0x0c, 0x10, 0xbe, 0x7e, 0xa9, 0xc0, 0x3d,
  0xee, 0x68, 0xb6, 0xbd, 0x7e, 0x7e, 0x8d, 0xbc, 0x7a, 0x61, 0x13, 0xbe,
  0xc4, 0x91, 0x16, 0xbe, 0x6d, 0xa9, 0xea, 0x3c, 0x7b, 0x2b, 0x28, 0xbe,
  0x1e, 0x3f, 0x93, 0xbe, 0x8c, 0x2b, 0xc4, 0xbd, 0x36, 0x30, 0x59, 0xbe,
  0xd0, 0x3f, 0xac, 0xbd, 0x44, 0x44, 0x84, 0xbe, 0x7a, 0x72, 0xa7, 0xbd,
  0xd2, 0x10, 0x15, 0xbe, 0xad, 0x3d, 0x55, 0xbd, 0x91, 0x31, 0x4f, 0xbe,
  0xc3, 0x52, 0x00, 0xbe, 0xa6, 0x4e, 0x57, 0xbe, 0x47, 0x57, 0x35, 0xbe,
  0xc7, 0x49, 0x0c, 0xbe, 0xcd, 0x92, 0x83, 0xbe, 0x30, 0x98, 0x2c, 0xbc,
  0xc1, 0x60, 0x17, 0xbd, 0xd9, 0x7b, 0xec, 0x3d, 0x27, 0xe4, 0xf6, 0x3c,
  0xb7, 0xf0, 0x5c, 0xbe, 0xf0, 0xb1, 0x49, 0xbe, 0x40, 0xb4, 0x64, 0x3d,
  0x60, 0xe6, 0x20, 0x3d, 0x06, 0xf6, 0x8f, 0xbe, 0xb5, 0x16, 0x24, 0xbe,
  0x8b, 0xdf, 0xe1, 0xbd, 0x96, 0xeb, 0xa0, 0xbd, 0x77, 0xdc, 0x45, 0xbe,
  0xbd, 0x26, 0x21, 0xbe, 0x60, 0x9c, 0x61, 0xbd, 0xa4, 0x47, 0x63, 0x3d,
  0xd2, 0xd3, 0x50, 0xbe, 0xe7, 0x23, 0x07, 0xbe, 0xfb, 0x16, 0x18, 0xbe,
  0xa5, 0xc8, 0x85, 0xbe, 0xbd, 0xc0, 0x6f, 0xbd, 0x98, 0x62, 0xb1, 0x3d,
  0xff, 0x94, 0x88, 0x3d, 0xbd, 0x37, 0xb3, 0x3d, 0xab, 0x09, 0x31, 0xbe,
  0x80, 0x84, 0xc8, 0x3d, 0x37, 0xf8, 0xeb, 0x3d, 0x1b, 0x3d, 0xa4, 0xbd,
  0x26, 0x83, 0x28, 0xbe, 0xf6, 0xae, 0xe7, 0xbd, 0x3a, 0x94, 0xca, 0xbd,
  0x9a, 0xfa, 0x4a, 0xbe, 0xf9, 0x66, 0x83, 0xbd, 0x82, 0xd2, 0x3b, 0xbe,
  0xa8, 0xe5, 0x53, 0xbe, 0x68, 0x10, 0xb6, 0xbe, 0x3c, 0xfe, 0x66, 0xbe,
  0x16, 0x18, 0x18, 0xbe, 0xc5, 0xbc, 0x29, 0xbe, 0x06, 0xf1, 0x2a, 0xbd,
  0xbf, 0xc4, 0x2f, 0xbe, 0x1b, 0xba, 0x29, 0xbe, 0xcf, 0xc2, 0x17, 0xbe,
  0x00, 0x44, 0x3c, 0xbe, 0xc2, 0x36, 0xec, 0xbc, 0x9c, 0x56, 0x0d, 0x3e,
  0x13, 0x10, 0x59, 0xbe, 0x1a, 0xea, 0xea, 0x3d, 0x5d, 0x88, 0x51, 0xbe,
  0x33, 0xe4, 0x2f, 0xbe, 0x84, 0x81, 0x6d, 0xbd, 0xe3, 0x84, 0x32, 0xbe,
  0x8d, 0x3a, 0x96, 0x3d, 0x4e, 0x06, 0xce, 0xbb, 0x38, 0x41, 0xa2, 0x3c,
  0x81, 0x41, 0xd5, 0x3d, 0xed, 0x2a, 0xdd, 0x3d, 0x97, 0x99, 0x3a, 0xbe,
  0x1a, 0xd0, 0x84, 0xbe, 0xdd, 0xe7, 0x5e, 0x3d, 0x37, 0xde, 0x84, 0xbe,
  0x54, 0xb1, 0xf5, 0x3c, 0x40, 0x16, 0x18, 0x3c, 0x99, 0x8f, 0xe1, 0xbd,
  0x9e, 0xf6, 0x87, 0x3c, 0x3b, 0xc3, 0x5e, 0xbe, 0xfa, 0xfa, 0x32, 0xbd,
  0x8c, 0xef, 0x78, 0x3d, 0xa2, 0x6f, 0x56, 0x3d, 0x99, 0xb6, 0x0c, 0xbe,
  0x4b, 0xb9, 0x04, 0x3e, 0x7b, 0xda, 0x08, 0x3d, 0xec, 0x2c, 0x80, 0xbe,
  0xb6, 0x5e, 0x31, 0xbe, 0xfe, 0xc9, 0xbf, 0x3d, 0x95, 0xd3, 0x43, 0xbd,
  0x32, 0x02, 0x99, 0xbd, 0x3e, 0xc0, 0x64, 0xbe, 0x8a, 0xc3, 0x92, 0x3d,
  0x6a, 0x58, 0xf7, 0x3d, 0x55, 0x03, 0x6d, 0xbe, 0x29, 0x1f, 0x1b, 0x3c,
  0xea, 0xde, 0x29, 0xbe, 0xca, 0xb1, 0xa7, 0xbd, 0x9d, 0x69, 0xe9, 0xbd,
  0xee, 0x33, 0x4b, 0xbe, 0xde, 0x80, 0x68, 0xbe, 0x33, 0xe6, 0x91, 0xbd,
  0x49, 0x74, 0x49, 0xbd, 0x0c, 0xf8, 0x30, 0x3d, 0x3a, 0xdc, 0x90, 0x3d,
  0x4f, 0x08, 0x01, 0x3b, 0x54, 0xdd, 0xa5, 0xbe, 0x86, 0xd4, 0x66, 0xbe,
  0xf4, 0xd4, 0x15, 0x3d, 0xf4, 0x41, 0x09, 0x3d, 0x5b, 0xfc, 0x17, 0xbe,
  0x0c, 0x38, 0xbf, 0xbd, 0x6a, 0xc2, 0x00, 0x3e, 0x38, 0xcd, 0x45, 0xbe,
  0xbd, 0xf9, 0x93, 0x3c, 0x76, 0x8f, 0xde, 0x3d, 0xa4, 0x8c, 0xc6, 0xbd,
  0x88, 0xd3, 0x65, 0x3d, 0x2d, 0x9b, 0x0e, 0xbe, 0x7a, 0x24, 0x05, 0xbe,
  0x05, 0x4a, 0x0a, 0xbe, 0x52, 0xdb, 0x20, 0x3d, 0x22, 0xd8, 0x58, 0xbe,
  0xda, 0x89, 0x92, 0x3d, 0x1f, 0x74, 0xfd, 0x3d, 0x8e, 0x03, 0x09, 0x3e,
  0x86, 0x0a, 0x3c, 0xbe, 0xf0, 0x2b, 0x1c, 0x3e, 0x33, 0x76, 0x59, 0x3e,
  0xc6, 0x59, 0x28, 0xbd, 0x5d, 0xda, 0x5e, 0xbe, 0x10, 0xa4, 0x18, 0x3e,
  0xcb, 0x1f, 0x33, 0xbd, 0x00, 0x6b, 0xbf, 0x3e, 0x4e, 0x5e, 0x8f, 0x3e,
  0xba, 0x5d, 0x22, 0xbe, 0xd1, 0xeb, 0x73, 0x3e, 0xf3, 0xb1, 0xa7, 0x3e,
  0x49, 0xe3, 0xf0, 0x3c, 0xd9, 0x6a, 0x1b, 0x3e, 0xd1, 0x8f, 0x92, 0x3c,
  0x2e, 0xd4, 0xa9, 0x3e, 0xae, 0x19, 0x6c, 0xbd, 0xca, 0xb8, 0x52, 0xbe,
  0x09, 0x0c, 0x64, 0x3b, 0x5f, 0xe6, 0xff, 0x3d, 0x43, 0x03, 0xde, 0xbd,
  0x7d, 0x74, 0xa0, 0xbd, 0xd2, 0xcf, 0x63, 0x3d, 0x4e, 0xc9, 0x38, 0xbd,
  0xde, 0x1b, 0xc6, 0x3d, 0x67, 0x92, 0x4d, 0x3e, 0x8a, 0xc2, 0x3c, 0xbe,
  0x15, 0xa1, 0x79, 0xbd, 0x88, 0x88, 0x42, 0x3d, 0x4c, 0xcd, 0xea, 0xbd,
  0x6b, 0xd6, 0x3c, 0xbe, 0xab, 0xea, 0x30, 0x3d, 0x69, 0x83, 0x5e, 0x3c,
  0x69, 0x05, 0x3e, 0x3d, 0x77, 0xfe, 0x5e, 0xbe, 0x02, 0x57, 0xc4, 0xbd,
  0xd8, 0xf5, 0x04, 0x3c, 0xb6, 0x58, 0x96, 0xbb, 0xba, 0x4b, 0x23, 0xbe,
  0x6a, 0xbf, 0x02, 0xbd, 0x57, 0xf9, 0x8a, 0xbe, 0xf2, 0x86, 0x05, 0xbc,
  0xc1, 0x1b, 0xa8, 0xbe, 0x69, 0x54, 0x35, 0x3e, 0xac, 0xc8, 0x83, 0xbd,
  0x99, 0xa7, 0xb3, 0xbd, 0x34, 0x55, 0xb5, 0x3d, 0x9e, 0x39, 0xb4, 0xbe,
  0x7a, 0x38, 0x3c, 0xbe, 0xc4, 0xe9, 0xc2, 0xba, 0xa1, 0xf9, 0x79, 0xbe,
  0x86, 0xcc, 0x4e, 0xbe, 0xee, 0x92, 0x01, 0xbe, 0x93, 0x8b, 0xdf, 0xba,
  0x9c, 0x8c, 0x0f, 0xbe, 0x99, 0xdf, 0x1a, 0xbc, 0xde, 0x12, 0x06, 0x3e,
  0x1f, 0x3f, 0xa3, 0xbd, 0x83, 0xd2, 0x70, 0xbd, 0x67, 0x5c, 0xdf, 0xbd,
  0xa9, 0xca, 0xac, 0x3d, 0xca, 0x86, 0x81, 0x3d, 0x45, 0xdb, 0x29, 0x3d,
  0x4d, 0x6f, 0x60, 0xbd, 0x51, 0x3d, 0x34, 0xbe, 0x95, 0xf5, 0xb2, 0xbd,
  0xd9, 0xa2, 0x8d, 0xbe, 0xb6, 0xcb, 0xe0, 0xbd, 0x9d, 0x5a, 0xc7, 0xbd,
  0x7e, 0x97, 0x83, 0x3d, 0x0f, 0xcf, 0x3f, 0xbd, 0xf5, 0x5b, 0x1c, 0xbe,
  0xcf, 0x32, 0x1c, 0x3e, 0x03, 0x2d, 0xbc, 0xbb, 0x40, 0x45, 0x1f, 0xbe,
  0x91, 0x02, 0xa1, 0xbe, 0xb9, 0x93, 0x82, 0xbc, 0x52, 0x28, 0x28, 0x3d,
  0xe3, 0x9c, 0xdc, 0xbc, 0x50, 0x68, 0x51, 0xbb, 0x2e, 0xe4, 0x3c, 0x3c,
  0x4e, 0x5c, 0x30, 0xbe, 0x5f, 0xd2, 0x40, 0xbc, 0x41, 0xe5, 0xc0, 0xbc,
  0xd0, 0x40, 0x3d, 0x3d, 0x99, 0xca, 0xa4, 0xbd, 0x33, 0x16, 0xe2, 0xbd,
  0xe1, 0xa6, 0x2b, 0xbe, 0xee, 0x68, 0xc9, 0x3c, 0x24, 0x8e, 0xb1, 0x3d,
  0x89, 0x9a, 0x6d, 0xbe, 0x3f, 0xff, 0xb6, 0xbd, 0x96, 0xe1, 0x19, 0xbe,
  0xd5, 0x89, 0x1a, 0xbd, 0x3a, 0xf7, 0x02, 0xbe, 0xa3, 0x03, 0x66, 0xbe,
  0x05, 0x4f, 0xd7, 0xbd, 0x45, 0x7b, 0x39, 0xbe, 0x32, 0xa8, 0x89, 0x3d,
  0xa7, 0x81, 0xfc, 0xbd, 0xa6, 0x02, 0xf5, 0x3c, 0xdf, 0xe1, 0x62, 0x3d,
  0x03, 0xee, 0xad, 0xbc, 0x9b, 0x14, 0xa6, 0x3c, 0x40, 0x3c, 0x7a, 0xbe,
  0x68, 0xcc, 0xd0, 0x3c, 0xff, 0x9b, 0x16, 0x3e, 0x1a, 0x35, 0x66, 0xbe,
  0x54, 0xfb, 0xad, 0xbd, 0x0c, 0x6b, 0xfa, 0xbd, 0x27, 0x4e, 0x88, 0x3d,
  0xec, 0x86, 0x50, 0xbe, 0x19, 0x37, 0x04, 0xbe, 0xc4, 0x4a, 0xe9, 0x3c,
  0x44, 0x32, 0x05, 0xbe, 0x19, 0x5e, 0x11, 0xbe, 0x05, 0x4f, 0x11, 0xbe,
  0x64, 0x50, 0x05, 0xbe, 0xba, 0xbf, 0x10, 0x3c, 0xfb, 0x77, 0x7f, 0xbe,
  0xe8, 0x7f, 0xe4, 0xbd, 0xb4, 0x68, 0x9f, 0xbe, 0xe2, 0x76, 0xd0, 0xbe,
  0xe2, 0x63, 0x86, 0xbe, 0x8f, 0xb5, 0xda, 0xbd, 0x49, 0x60, 0xa8, 0xbe,
  0x6f, 0x4c, 0x31, 0xbd, 0x4a, 0xc5, 0x7b, 0xbe, 0xa8, 0x7f, 0x85, 0xbd,
  0x1f, 0xbd, 0x8b, 0xbe, 0xde, 0xfd, 0x76, 0xbd, 0x56, 0x1e, 0xe1, 0xbd,
  0xf7, 0x97, 0x28, 0xbd, 0xe0, 0x3d, 0x6d, 0x3c, 0xfc, 0xdb, 0x50, 0xbe,
  0x61, 0x1a, 0xc5, 0xbc, 0x38, 0xf8, 0x3c, 0x3d, 0x9a, 0x38, 0x8a, 0xbe,
  0x6e, 0x6a, 0x9c, 0xbe, 0x79, 0x39, 0x06, 0xbe, 0x36, 0x37, 0x2e, 0xbe,
  0x86, 0x5d, 0xf3, 0x3d, 0xac, 0x98, 0xeb, 0x3d, 0xc8, 0x06, 0xbc, 0xbd,
  0x38, 0x72, 0xaf, 0xbe, 0xcf, 0xaf, 0x9a, 0xbe, 0x83, 0xa2, 0x29, 0xbe,
  0xbe, 0x67, 0x7d, 0xbd, 0xcb, 0x88, 0x70, 0xbe, 0x3c, 0x00, 0x82, 0xbe,
  0x40, 0xad, 0xbf, 0xbe, 0x56, 0xb4, 0xd1, 0xbd, 0x1e, 0xbc, 0x6c, 0xbe,
  0x5f, 0xbd, 0xf8, 0xbe, 0x3b, 0xd4, 0xd8, 0xbe, 0xee, 0x48, 0x4f, 0xbe,
  0x80, 0x48, 0x64, 0xbe, 0xfd, 0xb7, 0x12, 0xbd, 0x83, 0x58, 0x7e, 0x3c,
  0xe0, 0x8c, 0x54, 0xbd, 0xfb, 0x29, 0x86, 0xbe, 0x8c, 0x8c, 0x40, 0xbe,
  0x91, 0x36, 0x52, 0xbe, 0xdb, 0xe9, 0x17, 0xbe, 0xae, 0xc4, 0xb4, 0xbd,
  0x7b, 0xef, 0x14, 0xbe, 0x74, 0x19, 0x98, 0xbe, 0x4e, 0x13, 0x44, 0xbe,
  0xea, 0x02, 0xa1, 0xbe, 0x6f, 0x81, 0xe2, 0xbe, 0x2f, 0x0a, 0xdc, 0xbe,
  0x0e, 0xc8, 0x6d, 0x3d, 0x2f, 0xa4, 0x64, 0xbe, 0xaa, 0xc3, 0x3b, 0xbe,
  0x15, 0xba, 0x20, 0xbe, 0x6e, 0x95, 0x0d, 0xbe, 0xfe, 0xd5, 0x37, 0xbe,
  0xa7, 0xb0, 0x85, 0x3d, 0x11, 0xe8, 0x24, 0x3e, 0x23, 0x8f, 0x44, 0xbd,
  0x73, 0xcd, 0x0f, 0xbc, 0xb5, 0xb4, 0xb0, 0xbd, 0x52, 0x72, 0x7e, 0xbd,
  0x38, 0xf4, 0x1a, 0x3f, 0xd1, 0x84, 0xd4, 0x3e, 0xa3, 0xef, 0xba, 0xbe,
  0x93, 0x6e, 0x1d, 0xbc, 0x81, 0x35, 0x89, 0x3e, 0xaf, 0x57, 0xde, 0xbb,
  0xb4, 0x70, 0xc0, 0x3e, 0x28, 0x8d, 0x46, 0xbe, 0xdc, 0xe3, 0x44, 0xbe,
  0xcc, 0x8c, 0xbc, 0xba, 0x5a, 0xef, 0x91, 0x3e, 0x45, 0xd4, 0xf8, 0x3d,
  0x3b, 0xc7, 0xeb, 0xbc, 0xa8, 0x92, 0x8d, 0x3c, 0x1b, 0x5f, 0x07, 0xbe,
  0xa7, 0xe7, 0xec, 0xbc, 0x83, 0xbf, 0x14, 0x3f, 0x73, 0x6b, 0x76, 0x3e,
  0x75, 0xd3, 0x99, 0xbe, 0x85, 0x23, 0x60, 0x3e, 0xbd, 0xbc, 0x26, 0x3e,
  0x6b, 0x40, 0x82, 0x3d, 0x5e, 0x16, 0x7f, 0x3e, 0x3f, 0xdd, 0xa8, 0xba,
  0xfe, 0x2c, 0xc7, 0xbd, 0x8a, 0x69, 0x52, 0xbd, 0x2e, 0xe0, 0x08, 0xbd,
  0x1c, 0xf5, 0x48, 0xbc, 0x4a, 0xdd, 0xb2, 0x3d, 0x87, 0x29, 0xb2, 0x3d,
  0xc2, 0xb2, 0x9e, 0x3d, 0xe3, 0xc8, 0x3c, 0x3d, 0x54, 0xb8, 0xbd, 0x3d,
  0x55, 0x00, 0xb2, 0x3e, 0x7a, 0x23, 0x0e, 0xbe, 0x53, 0x01, 0x29, 0x3d,
  0xbb, 0x63, 0x78, 0x3e, 0xba, 0xe5, 0x60, 0x3e, 0xd5, 0x02, 0xea, 0x3d,
  0x21, 0x30, 0x42, 0xbe, 0xf3, 0xf8, 0xc2, 0x3e, 0x11, 0xc0, 0x70, 0x3c,
  0xa1, 0xda, 0x90, 0xbc, 0x84, 0x23, 0xda, 0xbc, 0xe8, 0xaa, 0xa0, 0xbe,
  0x17, 0xa0, 0x01, 0xbe, 0x36, 0x9e, 0x4a, 0x3e, 0x89, 0xe8, 0x54, 0xbd,
  0x31, 0xb9, 0xe6, 0x3d, 0xf4, 0x4d, 0x8d, 0xbb, 0x0d, 0x0d, 0x51, 0xbe,
  0xf5, 0xd3, 0x2d, 0xbe, 0x13, 0xd1, 0x22, 0xbd, 0x9f, 0xc5, 0x17, 0xbb,
  0x0c, 0x3b, 0x87, 0x3d, 0xe9, 0xc1, 0xb0, 0x3f, 0x24, 0x72, 0x2e, 0x3f,
  0xf1, 0xae, 0x4e, 0xbe, 0xf6, 0x6c, 0x86, 0x3e, 0x4b, 0x2a, 0x67, 0xbe,
  0x71, 0x40, 0x10, 0xbe, 0xfc, 0x20, 0x4e, 0x3d, 0x03, 0x09, 0x51, 0xbd,
  0x65, 0x52, 0x9c, 0xbd, 0xdb, 0x43, 0x6f, 0x3e, 0x97, 0x93, 0xa1, 0x3d,
  0x21, 0x7a, 0xbb, 0x3c, 0xf1, 0xc0, 0xa2, 0xbe, 0xe0, 0xaa, 0xec, 0xbd,
  0x89, 0x44, 0xfe, 0xbd, 0x80, 0xc8, 0x89, 0x3c, 0xe5, 0xe8, 0xc0, 0x3f,
  0xc1, 0x6f, 0x10, 0x3f, 0x89, 0x8f, 0x5a, 0xbe, 0x43, 0xc2, 0x5f, 0x3e,
  0x2d, 0x52, 0xcc, 0x3d, 0x3b, 0x9f, 0xe6, 0xbe, 0x9f, 0xa6, 0x19, 0x3d,
  0x3b, 0xed, 0xf3, 0x3d, 0x37, 0x14, 0x12, 0xbe, 0x23, 0xc3, 0xa7, 0x3d,
  0xb4, 0x9f, 0x78, 0x3d, 0xf7, 0x21, 0x87, 0xbc, 0xa8, 0xf8, 0x28, 0x3c,
  0xe7, 0xef, 0x7a, 0xbe, 0x61, 0x74, 0xc4, 0xba, 0x29, 0x25, 0x2f, 0xbd,
  0x4a, 0xc8, 0xb5, 0x3f, 0x0e, 0xb6, 0x4f, 0x3f, 0xc7, 0xfd, 0xa3, 0xbd,
  0xd5, 0x06, 0xba, 0x3e, 0x0e, 0xf1, 0x83, 0x3d, 0x6a, 0x83, 0xb8, 0xbe,
  0x0d, 0x37, 0xe6, 0x3c, 0xb3, 0x01, 0xaf, 0xbd, 0xb4, 0xaa, 0xbf, 0xbd,
  0x9f, 0x50, 0x99, 0xbd, 0x81, 0xda, 0xbd, 0x3d, 0xb0, 0xf2, 0x81, 0xbc,
  0x4f, 0x46, 0x3b, 0xbe, 0xa5, 0xc0, 0x33, 0x3d, 0xd0, 0x56, 0xf2, 0xbd,
  0x2c, 0xed, 0xb9, 0xbd, 0xcc, 0x04, 0xc1, 0x3f, 0x62, 0xcf, 0x9f, 0x3e,
  0x3b, 0xa5, 0x3e, 0xbe, 0xd2, 0x58, 0x99, 0x3d, 0x72, 0xe9, 0xc8, 0x3d,
  0x1a, 0xb8, 0xe9, 0xbe, 0x1c, 0x7d, 0xcc, 0xbd, 0x96, 0xbd, 0x5e, 0x3e,
  0x5f, 0xb3, 0xb7, 0xbd, 0x12, 0x60, 0x8d, 0xbd, 0x8e, 0x7c, 0x82, 0x3e,
  0x25, 0x9a, 0x56, 0xbe, 0x5f, 0xfa, 0x89, 0x3d, 0xcc, 0x44, 0x8e, 0xbe,
  0x51, 0xb1, 0x64, 0xb9, 0xe2, 0x7c, 0x29, 0xbe, 0x7c, 0xb6, 0x9f, 0x3f,
  0xa8, 0xc2, 0x78, 0x3f, 0x80, 0xcc, 0x52, 0x3a, 0x75, 0xd4, 0xc4, 0x3d,
  0xa0, 0xaf, 0x46, 0xbd, 0x39, 0xbf, 0xa7, 0xbe, 0xde, 0x1c, 0x14, 0x3e,
  0x85, 0x5d, 0xa1, 0x3d, 0xef, 0xe0, 0x34, 0xbc, 0x74, 0xc7, 0x2f, 0x3c,
  0x99, 0xce, 0xf6, 0xbd, 0x4a, 0xf4, 0x2b, 0x3d, 0x46, 0x6f, 0x80, 0xbe,
  0x99, 0x73, 0xf5, 0x3c, 0xfe, 0x92, 0x94, 0xbe, 0x81, 0x30, 0xbd, 0xbd,
  0x07, 0xac, 0xa0, 0x3f, 0x8e, 0x49, 0xea, 0x3e, 0xec, 0xc4, 0x14, 0xbe,
  0x82, 0xc0, 0x4f, 0xbe, 0xc4, 0x81, 0x26, 0xbd, 0xfc, 0x59, 0x7a, 0xbe,
  0x80, 0xe2, 0x82, 0xbe, 0x4c, 0x00, 0x82, 0x3c, 0x37, 0xdc, 0x57, 0xbe,
  0x6e, 0xe6, 0xf5, 0xbd, 0x7b, 0xad, 0xa2, 0xbd, 0x9c, 0x85, 0xb7, 0x3c,
  0xd5, 0xc0, 0x72, 0xbe, 0xeb, 0x4a, 0x20, 0xbd, 0x73, 0x04, 0x80, 0x3c,
  0x81, 0xc6, 0xba, 0x3d, 0x17, 0xcc, 0xd0, 0x3e, 0x9f, 0x06, 0xb3, 0xbd,
  0xa6, 0xc9, 0xdf, 0xbd, 0x7d, 0xba, 0x21, 0xbb, 0x88, 0x3b, 0x66, 0xbf,
  0xa0, 0x58, 0x94, 0xbc, 0x49, 0x3b, 0x78, 0x3e, 0xdf, 0xcb, 0x6a, 0xbe,
  0x28, 0x0a, 0xc8, 0xbe, 0xb9, 0x70, 0x2d, 0xbe, 0xa8, 0x38, 0x92, 0x3e,
  0xaa, 0x1c, 0x15, 0xbd, 0xb9, 0x3b, 0x75, 0x3d, 0xa7, 0x18, 0xf8, 0xbb,
  0x5a, 0x6e, 0x0d, 0x3e, 0xc5, 0x29, 0x16, 0x3e, 0xc3, 0xa3, 0x4f, 0x3d,
  0x63, 0x0c, 0x13, 0x3f, 0xea, 0xeb, 0x42, 0xbf, 0xe7, 0xb2, 0x67, 0x3e,
  0xe3, 0xf3, 0xfa, 0x3d, 0xb5, 0xad, 0xf2, 0x3d, 0xe7, 0xf0, 0x8d, 0x3e,
  0xd5, 0x5b, 0x62, 0x3e, 0xa7, 0x76, 0x01, 0xbf, 0xc3, 0x7e, 0x0b, 0xbe,
  0x32, 0x64, 0x0e, 0xbe, 0xec, 0x5c, 0x02, 0x3e, 0x7b, 0xa6, 0x14, 0xbd,
  0xe9, 0x50, 0x5d, 0xbc, 0x5a, 0x74, 0xdd, 0x3d, 0x23, 0x2b, 0x01, 0x3d,
  0xd4, 0x3d, 0xa6, 0x3c, 0x16, 0xc1, 0x25, 0x3e, 0x81, 0xe9, 0x91, 0xbf,
  0x8f, 0xdd, 0x1f, 0x3e, 0xba, 0xd5, 0x40, 0x3e, 0x3a, 0xa3, 0x72, 0x3d,
  0x56, 0xd0, 0x9f, 0x3e, 0x53, 0x6c, 0xed, 0x3d, 0x77, 0x03, 0xab, 0xbe,
  0xd7, 0x99, 0x94, 0xbd, 0x02, 0x60, 0xb4, 0xbd, 0xe5, 0xca, 0x5f, 0x3d,
  0xc3, 0x44, 0xfd, 0x3c, 0x64, 0xea, 0x34, 0x3e, 0x23, 0x9b, 0x56, 0x3d,
  0xef, 0x80, 0x6a, 0x3c, 0x2d, 0x51, 0x16, 0x3e, 0x30, 0xa7, 0x12, 0x3f,
  0xca, 0x14, 0x97, 0xbf, 0xe5, 0x54, 0x41, 0x3e, 0xe3, 0x6d, 0x8a, 0x3e,
  0xd9, 0x89, 0xc3, 0x3d, 0x0b, 0x0e, 0x38, 0x3e, 0x5e, 0xe5, 0xf0, 0x3d,
  0x87, 0x24, 0x32, 0xbe, 0x3c, 0x40, 0x1c, 0x3b, 0xdf, 0xaf, 0x18, 0xbd,
  0xce, 0x33, 0xa0, 0x3d, 0x11, 0x02, 0x44, 0x3b, 0x2c, 0x0b, 0xa7, 0xbc,
  0xf6, 0x27, 0x49, 0x3d, 0x61, 0x08, 0x18, 0x3e, 0xeb, 0xac, 0x05, 0xbe,
  0x63, 0xa6, 0xf2, 0x3e, 0x54, 0x63, 0xcc, 0xbe, 0xbc, 0x48, 0x23, 0x3e,
  0xc2, 0x62, 0x1a, 0x3d, 0x41, 0x1d, 0x9d, 0x3d, 0xc2, 0x71, 0x85, 0x3e,
  0x3c, 0x4f, 0x95, 0x3d, 0xe7, 0xea, 0x90, 0xbe, 0x7e, 0x27, 0x4c, 0x3d,
  0x86, 0xfb, 0x9c, 0x3d, 0x35, 0xf1, 0x56, 0x3d, 0xb6, 0x0d, 0xb3, 0xbd,
  0x41, 0xbc, 0x0c, 0xbd, 0xe1, 0x27, 0x2a, 0x3d, 0xf8, 0x72, 0xf2, 0x3d,
  0xbf, 0xa1, 0xce, 0x3c, 0x07, 0x18, 0xe5, 0x3e, 0x4b, 0x56, 0x4a, 0xbf,
  0x3d, 0x51, 0x87, 0x3e, 0x3e, 0xe5, 0xfc, 0xbc, 0xa2, 0xe9, 0x30, 0x3d,
  0x16, 0x42, 0xa7, 0x3e, 0xbb, 0x13, 0x0d, 0x3e, 0xc0, 0x4e, 0x36, 0xbf,
  0x22, 0xf2, 0xd7, 0x3d, 0x10, 0xd2, 0x04, 0xbe, 0x56, 0xe4, 0x71, 0xbd,
  0x49, 0x1a, 0x3d, 0x3d, 0x75, 0xf5, 0x36, 0xbd, 0xd0, 0x32, 0x90, 0xbd,
  0x5f, 0xcc, 0xba, 0x3d, 0x06, 0x04, 0x48, 0x3d, 0x90, 0x00, 0x02, 0x3f,
  0xa0, 0x13, 0x88, 0xbf, 0x1c, 0x33, 0x0b, 0xbd, 0x7d, 0x37, 0xfd, 0x3c,
  0x30, 0x7c, 0xb1, 0xbd, 0xf7, 0xc2, 0x09, 0x3d, 0x7d, 0x37, 0x42, 0xbe,
  0xf6, 0x9b, 0x35, 0xbe, 0x95, 0x11, 0x35, 0x3e, 0xb9, 0x37, 0x89, 0x3c,
  0x3d, 0xab, 0x9f, 0xbd, 0x05, 0xab, 0x1a, 0xbd, 0x8d, 0x84, 0x9d, 0xbd,
  0xa8, 0x14, 0x2f, 0x3b, 0x5e, 0x03, 0x9f, 0x3d, 0x3d, 0x31, 0xb8, 0x3e,
  0xce, 0xdd, 0x33, 0x3e, 0xd3, 0xa0, 0x85, 0xbe, 0x58, 0x60, 0xca, 0x3b,
  0x65, 0x4e, 0x74, 0x3b, 0x74, 0x89, 0x67, 0xbe, 0x40, 0xf9, 0x2f, 0xbd,
  0x68, 0x2a, 0x8c, 0x3c, 0x27, 0xe8, 0x8c, 0xbe, 0xc8, 0xac, 0xc6, 0x3d,
  0x41, 0xf9, 0xc5, 0xbd, 0x7f, 0x32, 0xa3, 0xbe, 0x0b, 0x64, 0x88, 0xbe,
  0xd0, 0xd7, 0xe1, 0x3c, 0xd7, 0x95, 0xc1, 0xbe, 0x88, 0x4f, 0x72, 0xbe,
  0x04, 0x03, 0x97, 0x3f, 0x58, 0xcf, 0x13, 0x3e, 0x34, 0x0b, 0x27, 0x3d,
  0x02, 0xc1, 0x91, 0xbd, 0x9e, 0xbc, 0xf1, 0x3d, 0x5a, 0x02, 0x1b, 0xbe,
  0x99, 0xf1, 0x31, 0x3d, 0xea, 0x2b, 0xb8, 0xbd, 0xe7, 0x8e, 0xa7, 0xbe,
  0x36, 0x87, 0x8c, 0x3d, 0xd1, 0x23, 0xaf, 0xbd, 0x66, 0xf1, 0xf2, 0xbe,
  0xcf, 0x4d, 0xef, 0xbe, 0xc1, 0xa7, 0xe4, 0xbd, 0x4f, 0xcf, 0x23, 0xbe,
  0x81, 0xcb, 0x1b, 0xbe, 0xd9, 0x4e, 0x8e, 0x3f, 0x8b, 0xb0, 0xce, 0x3d,
  0xf2, 0x72, 0x1b, 0xbd, 0x24, 0x02, 0xcf, 0xbd, 0x24, 0xe1, 0xa6, 0xbc,
  0x27, 0x68, 0x17, 0xbe, 0x56, 0x13, 0xf7, 0x3d, 0xa0, 0xf5, 0xff, 0xbd,
  0xf7, 0x1c, 0xd2, 0xbd, 0xf3, 0x11, 0x60, 0x3e, 0x34, 0x74, 0x6c, 0x3d,
  0xae, 0x75, 0xcf, 0xbe, 0xaa, 0x7c, 0xfc, 0xbe, 0xdc, 0xa5, 0x03, 0xbd,
  0x3a, 0xd8, 0x37, 0xbe, 0x39, 0x9e, 0xb2, 0xbd, 0xed, 0x72, 0x4f, 0x3f,
  0x01, 0x55, 0x4d, 0x3d, 0xfc, 0xde, 0x65, 0xbd, 0x98, 0x67, 0x9c, 0xbe,
  0xeb, 0x3a, 0xeb, 0xbd, 0xb7, 0xeb, 0x15, 0xbe, 0xf7, 0x03, 0x08, 0xbd,
  0xed, 0xcf, 0xb7, 0x3d, 0xbd, 0x90, 0xc4, 0xbd, 0xa3, 0x4b, 0x63, 0xbe,
  0x15, 0x72, 0x3f, 0xbe, 0x73, 0x47, 0xe7, 0xbe, 0x5c, 0x06, 0xa9, 0xbe,
  0x6e, 0x00, 0x18, 0xbe, 0xa5, 0x8d, 0x86, 0xbe, 0x01, 0xc1, 0xf9, 0xbd,
  0x67, 0x7b, 0x7c, 0x3f, 0x26, 0xd8, 0xd9, 0x3d, 0x73, 0xe1, 0xc8, 0xbd,
  0xc7, 0x9f, 0xf7, 0x3d, 0xef, 0x10, 0x86, 0x3d, 0x84, 0x6f, 0xa2, 0xbd,
  0x88, 0x2c, 0x4e, 0x3d, 0x44, 0xd2, 0x90, 0xbd, 0x2f, 0x43, 0x0c, 0x3d,
  0x13, 0xf9, 0xa8, 0x3e, 0xe9, 0x44, 0xab, 0x3d, 0xfc, 0x56, 0xa5, 0xbe,
  0x37, 0xf0, 0xb3, 0x3d, 0xf5, 0xc3, 0xa2, 0x3e, 0x3d, 0x21, 0x67, 0xbd,
  0xe8, 0x69, 0x80, 0x3d, 0x11, 0xc2, 0x10, 0x3f, 0xce, 0xe9, 0xa1, 0x3e,
  0x82, 0xa9, 0x03, 0x3d, 0x42, 0xb0, 0x3c, 0x3e, 0x89, 0xcd, 0x2f, 0x3e,
  0xdf, 0xe3, 0x50, 0x3d, 0xe4, 0x40, 0x24, 0x3d, 0x97, 0x70, 0xe2, 0x3d,
  0xcf, 0x6b, 0x2b, 0xbd, 0xec, 0xe6, 0xc2, 0x3e, 0x99, 0x93, 0xc4, 0x3e,
  0xc5, 0x61, 0x96, 0xbe, 0xe7, 0xde, 0xb9, 0x3d, 0xaf, 0x99, 0x50, 0x3e,
  0x49, 0x54, 0x74, 0x3d, 0xad, 0x5c, 0xbf, 0x3e, 0xaf, 0xe5, 0x38, 0x3f,
  0x1f, 0x34, 0x04, 0x3f, 0x0c, 0xed, 0x82, 0xbd, 0xad, 0x47, 0x65, 0x3d,
  0x43, 0x29, 0x62, 0x3d, 0xb3, 0x45, 0x11, 0x3c, 0xa8, 0xc7, 0xb1, 0x3d,
  0x44, 0xfc, 0xaa, 0x3d, 0xee, 0x63, 0xa0, 0x3c, 0x4f, 0xcc, 0x42, 0x3d,
  0xd9, 0x21, 0x86, 0x3e, 0x16, 0xf7, 0xcb, 0xbd, 0x1c, 0x82, 0x2a, 0x3e,
  0x9f, 0x2b, 0xa9, 0x3e, 0x97, 0x2e, 0x21, 0x3e, 0x2e, 0x60, 0xec, 0x3c,
  0x0a, 0xbf, 0x12, 0x3e, 0x03, 0x5b, 0x80, 0x3e, 0x41, 0xcc, 0x71, 0x3d,
  0x3f, 0x9e, 0x81, 0xbe, 0x1f, 0x3a, 0x0c, 0xbe, 0xe1, 0x57, 0xe2, 0xbd,
  0xd3, 0xe8, 0xd5, 0x3d, 0x44, 0xce, 0x0c, 0xbe, 0x9c, 0x03, 0x55, 0xbe,
  0x2f, 0x71, 0xc6, 0xbd, 0xa8, 0x9c, 0x65, 0xbe, 0x18, 0x59, 0xe1, 0xbd,
  0x31, 0xb0, 0x87, 0x3d, 0x0b, 0xb6, 0x82, 0xbe, 0xb8, 0xaf, 0x7b, 0xbd,
  0xd2, 0x3a, 0x7d, 0xbc, 0x5e, 0xe1, 0x42, 0xbe, 0xf8, 0xe6, 0x00, 0xbe,
  0x99, 0x28, 0x7e, 0xbe, 0x90, 0x54, 0x8e, 0xbe, 0x9f, 0x14, 0xe5, 0x3d,
  0x12, 0x87, 0x77, 0xbe, 0xfb, 0x30, 0x62, 0xbe, 0xc8, 0xe9, 0x44, 0xbe,
  0xb8, 0x67, 0x6e, 0x3d, 0x57, 0x9c, 0x2c, 0xbd, 0xa6, 0x00, 0x28, 0x3d,
  0x88, 0xa9, 0x8e, 0x3d, 0xc9, 0xa6, 0xef, 0x3d, 0x40, 0x17, 0x0b, 0x3e,
  0x09, 0x7d, 0x81, 0xbd, 0xbc, 0x56, 0xd9, 0x3c, 0x85, 0xdd, 0x44, 0x3e,
  0xa6, 0xce, 0xd4, 0xbd, 0x3b, 0xee, 0x5d, 0xbe, 0x55, 0x77, 0x06, 0x3e,
  0xeb, 0xae, 0x10, 0x3c, 0xec, 0x92, 0x0a, 0xbd, 0x17, 0xbb, 0xac, 0xbc,
  0x4c, 0x5f, 0x54, 0xbd, 0x1d, 0x6a, 0x70, 0xbc, 0x01, 0x3e, 0xbf, 0x3d,
  0x81, 0x42, 0x50, 0x3d, 0x4d, 0xa8, 0x1c, 0xbe, 0xe9, 0xd4, 0x8a, 0xbd,
  0x6d, 0xb8, 0x69, 0xbe, 0x0a, 0x23, 0x0c, 0xbe, 0x2e, 0xdf, 0x25, 0x3e,
  0x20, 0xfe, 0x6d, 0xbd, 0xad, 0x7c, 0xd4, 0x3d, 0xa0, 0x69, 0xeb, 0xbd,
  0x09, 0x58, 0x50, 0xbd, 0xa8, 0xd4, 0xd4, 0xbd, 0xb1, 0xae, 0x65, 0xbd,
  0x76, 0xae, 0x14, 0x3d, 0x04, 0xdc, 0x3c, 0xbe, 0x7f, 0x4e, 0x3c, 0xbe,
  0xa8, 0xe0, 0x98, 0x3c, 0x19, 0xdc, 0x4a, 0x3d, 0x78, 0xa9, 0x62, 0xbe,
  0x16, 0x63, 0x65, 0xbe, 0x07, 0x63, 0x8d, 0xbe, 0x3d, 0x1f, 0x23, 0xbe,
  0x37, 0x37, 0x00, 0xbe, 0xa0, 0x53, 0x1f, 0x3c, 0x52, 0x7e, 0xac, 0x3d,
  0xc7, 0x0e, 0x2c, 0x3d, 0x52, 0x00, 0x85, 0xbe, 0x54, 0x8c, 0x52, 0xbc,
  0xd2, 0x60, 0x6d, 0xbe, 0x3b, 0xfd, 0xc9, 0x3c, 0x14, 0xa0, 0x5b, 0xbe,
  0x65, 0xe4, 0x1d, 0xbe, 0x74, 0xa5, 0x3c, 0xbd, 0x22, 0x96, 0xd1, 0xbd,
  0x43, 0x0d, 0xaf, 0x3b, 0x97, 0xfa, 0x7c, 0xbe, 0xca, 0xba, 0xa6, 0x3c,
  0x95, 0x05, 0xc4, 0x3d, 0x4c, 0x35, 0x82, 0xbe, 0xd0, 0xd4, 0x90, 0x3c,
  0x2c, 0x93, 0x06, 0x3e, 0x6e, 0x4e, 0x0d, 0xbe, 0xc8, 0xb6, 0x11, 0xbd,
  0x20, 0xe3, 0x2d, 0x3d, 0x6a, 0x44, 0xf7, 0xbd, 0x6c, 0x99, 0x8e, 0x3c,
  0x8c, 0x28, 0xb0, 0x3d, 0x5a, 0x27, 0xf9, 0xbc, 0xbc, 0x81, 0x18, 0xbe,
  0xf7, 0x8d, 0x83, 0xbe, 0x70, 0x96, 0xc7, 0xbd, 0x5e, 0xcc, 0x40, 0xbe,
  0x1b, 0xbb, 0x8d, 0x3d, 0x58, 0x7e, 0x0a, 0xbe, 0xd4, 0x59, 0xbe, 0xbd,
  0x70, 0x1f, 0x87, 0xbc, 0x6c, 0xa1, 0x64, 0xbd, 0xd6, 0xbe, 0x56, 0xbe,
  0x3c, 0xbf, 0x75, 0x3c, 0xd6, 0x26, 0xff, 0x3d, 0xcb, 0x33, 0x9f, 0x3d,
  0x9c, 0x5d, 0x80, 0xbe, 0x3b, 0xdb, 0xa2, 0x3d, 0x15, 0x12, 0x97, 0xbd,
  0xf1, 0x75, 0xac, 0x3d, 0x28, 0xa5, 0xdc, 0xbd, 0xb7, 0x8b, 0x2d, 0xbe,
  0xdb, 0xaa, 0x37, 0xbe, 0x13, 0x07, 0xa8, 0x3d, 0x7f, 0x1d, 0x76, 0xbe,
  0xf7, 0xfa, 0x5f, 0xbe, 0xfd, 0x2f, 0xdc, 0xbc, 0xa8, 0x83, 0x40, 0xbe,
  0x85, 0x95, 0xc8, 0xbd, 0xd3, 0x43, 0x1a, 0x3e, 0x06, 0x03, 0xd3, 0x3d,
  0xca, 0x9f, 0xa5, 0x3b, 0x16, 0xf2, 0x87, 0xbd, 0xeb, 0xa1, 0x8b, 0xbc,
  0x94, 0x5d, 0xc7, 0x3c, 0xc2, 0x01, 0xb6, 0x3e, 0x79, 0x71, 0x1b, 0x3e,
  0x61, 0xd1, 0x1e, 0x3c, 0x8d, 0xec, 0x8b, 0x3d, 0x78, 0x14, 0x1c, 0x3e,
  0x65, 0x22, 0x35, 0xbd, 0x8d, 0x10, 0x1f, 0x3e, 0x15, 0xf8, 0x4e, 0xbe,
  0xd2, 0x0d, 0xae, 0x3c, 0xdf, 0x05, 0x42, 0x3d, 0xcc, 0x92, 0x51, 0xbe,
  0x74, 0xc1, 0xf6, 0xbd, 0x1d, 0x7c, 0xef, 0xbc, 0x1c, 0x8e, 0x44, 0xbd,
  0x1c, 0xf2, 0xdc, 0xbe, 0xb0, 0x67, 0xf3, 0x3c, 0x5d, 0x28, 0xa5, 0x3d,
  0x79, 0xe5, 0x05, 0x3e, 0x14, 0xdb, 0x75, 0xbc, 0x46, 0xc4, 0x3a, 0x3c,
  0x13, 0x56, 0xb9, 0xbd, 0x19, 0x9d, 0xff, 0xbc, 0xe5, 0xa0, 0x02, 0x3e,
  0xb0, 0x15, 0x34, 0xbd, 0xae, 0xf4, 0x8f, 0xbc, 0xa3, 0x17, 0x83, 0x3d,
  0x19, 0xdf, 0x8d, 0xbe, 0xda, 0xcb, 0x38, 0xbe, 0x26, 0xba, 0x1d, 0x3c,
  0x1c, 0xac, 0x0f, 0xbe, 0xa4, 0x98, 0xfe, 0xbe, 0xea, 0x70, 0x26, 0x3c,
  0xe0, 0x3b, 0x10, 0x3d, 0x2a, 0x33, 0xb5, 0xbb, 0x15, 0x7b, 0x06, 0x3d,
  0x27, 0x18, 0xee, 0x3c, 0x39, 0xd6, 0xab, 0xbd, 0x9d, 0xb0, 0x83, 0x3b,
  0xf8, 0xd6, 0xbb, 0xbd, 0x83, 0xed, 0x3c, 0xbe, 0x8c, 0xd8, 0xa1, 0x3d,
  0x7b, 0x85, 0x2b, 0xbc, 0xca, 0x41, 0x90, 0xbe, 0xba, 0x22, 0x42, 0xbe,
  0x92, 0x4b, 0x30, 0x3c, 0x49, 0x7b, 0x1e, 0xbe, 0xb0, 0x4a, 0xc3, 0xbe,
  0xb8, 0x9a, 0x89, 0x3c, 0x78, 0x88, 0x12, 0xbe, 0x9a, 0x76, 0x2c, 0x3e,
  0x62, 0xab, 0x02, 0x3b, 0x24, 0x3b, 0xa3, 0x3d, 0x90, 0x75, 0xbe, 0xbd,
  0xbe, 0x2c, 0x1f, 0x3c, 0x7b, 0xe0, 0x80, 0xbe, 0x1a, 0x6a, 0x5c, 0x3c,
  0xd4, 0x11, 0x22, 0xbd, 0x80, 0x48, 0xee, 0x3b, 0x0c, 0x59, 0x3e, 0xbd,
  0x6c, 0xb2, 0x6d, 0xbe, 0xfd, 0xc8, 0x63, 0x3b, 0x39, 0xf0, 0x9e, 0xbd,
  0xa3, 0x90, 0xb5, 0xbe, 0x8e, 0x60, 0x7e, 0x3c, 0x78, 0x08, 0xcd, 0xbc,
  0x2d, 0xe7, 0x01, 0x3e, 0x06, 0x8b, 0x04, 0xbc, 0x9e, 0xad, 0x40, 0x3d,
  0x97, 0x50, 0xe3, 0x3e, 0x9e, 0x82, 0x06, 0xbb, 0xdd, 0xa0, 0x3b, 0x3e,
  0x35, 0x95, 0x49, 0xbe, 0x16, 0x4b, 0x2c, 0x3e, 0xb9, 0xef, 0xa4, 0x3c,
  0xc3, 0xe9, 0x03, 0x3e, 0xdb, 0x84, 0xac, 0xbd, 0xbe, 0x25, 0x38, 0x3c,
  0xaf, 0x36, 0x1f, 0xbe, 0xa4, 0xec, 0x90, 0xbe, 0x7f, 0x71, 0x46, 0x3d,
  0xad, 0x01, 0x9b, 0x3e, 0xe7, 0x70, 0xcf, 0x3e, 0x87, 0xfa, 0xf3, 0x3c,
  0x15, 0x21, 0xf6, 0x3d, 0x68, 0x78, 0xc4, 0x3e, 0xdd, 0x1d, 0xbd, 0x3b,
  0xd0, 0x58, 0x3a, 0x3e, 0x4b, 0x65, 0x70, 0x3b, 0x02, 0x96, 0xb3, 0x3e,
  0xda, 0x7e, 0xe3, 0x3c, 0x13, 0x84, 0x00, 0x3d, 0x7c, 0xe8, 0xe7, 0xbc,
  0x54, 0x48, 0xc4, 0x3c, 0x10, 0x3d, 0x20, 0x3b, 0x50, 0x4e, 0x95, 0xbd,
  0x6e, 0xdd, 0xeb, 0x3c, 0x85, 0x9a, 0x50, 0x3d, 0x2e, 0x29, 0xc8, 0x3b,
  0x4f, 0x39, 0x58, 0xbd, 0xe5, 0x13, 0xd3, 0xbc, 0x65, 0x0d, 0x20, 0x3e,
  0x5b, 0x3e, 0xe8, 0xbb, 0x36, 0xcf, 0x9d, 0xbd, 0xbf, 0x13, 0x17, 0x3c,
  0x5f, 0x52, 0x7c, 0x3c, 0x68, 0x1a, 0x09, 0x3d, 0xd6, 0x40, 0xba, 0xbd,
  0x96, 0x67, 0x42, 0xbe, 0xe6, 0x0c, 0xcf, 0xbe, 0x08, 0x1c, 0x38, 0x3d,
  0xac, 0x0f, 0xb8, 0x3a, 0x90, 0xb6, 0x59, 0xbe, 0x06, 0x6e, 0xd2, 0x3d,
  0x90, 0x34, 0x92, 0xbd, 0xc9, 0xfe, 0xd2, 0xbe, 0x5e, 0xd6, 0xee, 0xbe,
  0xe2, 0x0f, 0x7b, 0xbc, 0xf4, 0xa9, 0xff, 0xbe, 0xef, 0x42, 0x30, 0xbe,
  0x5a, 0x3b, 0x20, 0x40, 0x8c, 0x40, 0xac, 0x3f, 0xd9, 0xb7, 0x01, 0xbe,
  0xb8, 0x86, 0x91, 0xbe, 0xd0, 0xce, 0xc7, 0xbe, 0xc3, 0x12, 0x6f, 0xbe,
  0xc4, 0x78, 0x2c, 0xbe, 0x79, 0x3b, 0x95, 0xbe, 0x86, 0x6a, 0x93, 0xbd,
  0x77, 0xe2, 0xd8, 0x3e, 0x6a, 0x60, 0x95, 0xbe, 0x19, 0x25, 0xcf, 0xbe,
  0xbf, 0xea, 0xbd, 0xbd, 0x53, 0x7b, 0x33, 0xbe, 0x94, 0x57, 0xe8, 0xbe,
  0x12, 0x3c, 0x85, 0xbe, 0xe7, 0x88, 0x17, 0x40, 0xda, 0xed, 0x43, 0x3f,
  0xfd, 0xb6, 0x26, 0x3d, 0x39, 0x57, 0xbb, 0x3c, 0x47, 0x20, 0xb2, 0xbc,
  0xfd, 0xb6, 0xcb, 0xbe, 0xd4, 0x5d, 0x53, 0x3c, 0xd7, 0xfc, 0x00, 0xbe,
  0x68, 0xf2, 0xc7, 0xbd, 0x55, 0x08, 0xbb, 0x3f, 0xdd, 0x6e, 0x1a, 0xbd,
  0x0c, 0x46, 0x92, 0xbe, 0x1f, 0xf5, 0x8c, 0xbe, 0xe0, 0xb9, 0x50, 0xbe,
  0xd4, 0x2e, 0xce, 0xbe, 0x38, 0x7d, 0x30, 0xbe, 0x80, 0x5c, 0x22, 0x40,
  0x38, 0x46, 0x92, 0x3f, 0x35, 0x0f, 0xa9, 0x3d, 0x4d, 0x62, 0x76, 0x3d,
  0x54, 0x9a, 0x9b, 0xbe, 0x2e, 0xf9, 0xf4, 0xbe, 0x19, 0xf4, 0x1f, 0x3e,
  0x19, 0xfd, 0x90, 0xbd, 0xbf, 0xae, 0xbe, 0xbe, 0xd6, 0xe0, 0xb6, 0x3f,
  0x59, 0xd4, 0x7a, 0x38, 0xb8, 0xc0, 0xcf, 0xbe, 0x33, 0x11, 0xeb, 0xbe,
  0xba, 0x28, 0x0a, 0xbe, 0xe0, 0xbd, 0x71, 0xbe, 0x35, 0xb9, 0x7d, 0xbe,
  0x8c, 0x4d, 0x27, 0x40, 0xa6, 0x20, 0x80, 0x3f, 0xea, 0x84, 0x42, 0x3e,
  0xe9, 0x0d, 0xf6, 0xbd, 0xa2, 0x07, 0x83, 0x3d, 0x73, 0x81, 0xea, 0xbe,
  0x54, 0x03, 0xa9, 0xbe, 0x36, 0x33, 0x70, 0xbe, 0xa7, 0x0e, 0x89, 0xbe,
  0xcf, 0xce, 0xaa, 0x3f, 0xd9, 0xc6, 0x75, 0xbe, 0xab, 0x9f, 0x78, 0xbe,
  0xde, 0x9a, 0xe8, 0xbe, 0xc4, 0x44, 0xb3, 0xbe, 0x6d, 0x0e, 0x92, 0xbe,
  0x9e, 0x54, 0x19, 0xbe, 0x15, 0xa6, 0x4b, 0x3f, 0x93, 0xb0, 0x92, 0x3f,
  0x7f, 0x02, 0x6a, 0xbd, 0xd2, 0x18, 0x3b, 0x3e, 0xae, 0x3e, 0x80, 0xbe,
  0x69, 0xcf, 0x9d, 0xbe, 0xdd, 0x25, 0xbb, 0xbe, 0xb8, 0x25, 0xcd, 0xbd,
  0x44, 0xd0, 0x8c, 0xbe, 0x71, 0x20, 0xb1, 0x3e, 0x8c, 0x62, 0x7d, 0xbe,
  0x73, 0xed, 0x4f, 0xbe, 0xa1, 0x0c, 0x7e, 0xbe, 0xaf, 0xad, 0x3b, 0xbe,
  0xc8, 0x01, 0x06, 0xbf, 0x10, 0xfb, 0xd8, 0xbc, 0x87, 0xfb, 0x4e, 0x3f,
  0x38, 0x74, 0x81, 0x3f, 0xe1, 0x4c, 0x03, 0x3e, 0xbf, 0x6b, 0x08, 0x3e,
  0x12, 0xd5, 0x84, 0xbd, 0x48, 0xfd, 0x9b, 0xbe, 0x50, 0xb7, 0x06, 0xbd,
  0xfe, 0xcb, 0xcb, 0xbe, 0xdb, 0x44, 0x70, 0xbe, 0xc7, 0xfc, 0xff, 0x3d,
  0x3e, 0xf5, 0xf0, 0x3d, 0xd6, 0x54, 0x48, 0xbe, 0x8a, 0xfc, 0xbb, 0xbe,
  0x22, 0x93, 0xf2, 0xbd, 0x21, 0x6c, 0xbe, 0xbe, 0x0f, 0x82, 0xe3, 0xbe,
  0x5e, 0x51, 0xa8, 0x3e, 0x93, 0x6c, 0x09, 0x3f, 0xcf, 0x16, 0x1b, 0x3c,
  0x07, 0xaa, 0x42, 0xbd, 0xc4, 0xba, 0x5a, 0xbc, 0xb5, 0xa2, 0x47, 0xbe,
  0x3d, 0xad, 0x1d, 0xbe, 0x24, 0x4f, 0x51, 0xbd, 0x68, 0xb1, 0x57, 0x3d,
  0x2d, 0x97, 0xc6, 0xbd, 0x53, 0xb1, 0x6f, 0xbe, 0x66, 0x37, 0x6e, 0x3c,
  0xc8, 0x8d, 0xd7, 0x3d, 0xc3, 0x47, 0x38, 0xbe, 0x2f, 0x78, 0x1b, 0xbe,
  0xc5, 0xa5, 0x24, 0xbe, 0x99, 0xca, 0xa4, 0x3d, 0x73, 0x16, 0xac, 0xbc,
  0x6c, 0x50, 0xb9, 0xbc, 0xf8, 0x70, 0xcc, 0x3c, 0xe0, 0xcb, 0x44, 0xbe,
  0x9f, 0x1a, 0x80, 0xbe, 0xfd, 0x6d, 0x45, 0xbc, 0x74, 0xbc, 0xd1, 0x3d,
  0x42, 0x4d, 0x12, 0x3d, 0xbd, 0x34, 0xda, 0xbd, 0x79, 0x04, 0xe0, 0x3d,
  0xac, 0xf6, 0xed, 0xbd, 0xa6, 0x5d, 0x99, 0x3d, 0x61, 0xae, 0xe0, 0x3d,
  0x13, 0x49, 0xd7, 0xbd, 0xb6, 0xaf, 0x7f, 0xbd, 0x6d, 0x6d, 0xe4, 0xbc,
  0x92, 0x93, 0x5b, 0xbd, 0xf6, 0xb3, 0x14, 0xbe, 0x16, 0xf9, 0x34, 0xbe,
  0xb1, 0x3f, 0xe8, 0x3d, 0x30, 0xec, 0x6e, 0xbe, 0x89, 0xb5, 0xe2, 0x3c,
  0x8e, 0x12, 0x34, 0x3e, 0x52, 0x10, 0x7b, 0x3c, 0xce, 0x03, 0x9d, 0xbd,
  0x4a, 0xe8, 0x18, 0x3d, 0x81, 0xb2, 0xd3, 0x3c, 0xe4, 0x5e, 0xe4, 0x3d,
  0x5d, 0x0a, 0x0b, 0xbe, 0x44, 0xea, 0x59, 0xbe, 0xa4, 0x7c, 0x79, 0x3c,
  0x77, 0xc8, 0x2f, 0x3e, 0x68, 0xad, 0x48, 0x3e, 0x90, 0xcc, 0xf4, 0x3b,
  0x6d, 0x43, 0x84, 0x3a, 0x9d, 0xf0, 0xca, 0xbd, 0xed, 0xa5, 0x6a, 0xbe,
  0xfa, 0xd4, 0x09, 0x3e, 0x6f, 0x82, 0x3a, 0xbd, 0x7f, 0x8b, 0x4d, 0xbe,
  0x8b, 0x45, 0x86, 0xbd, 0x21, 0xae, 0xaa, 0xbc, 0x86, 0x89, 0xa6, 0xba,
  0x9a, 0x1b, 0x4a, 0x3d, 0x36, 0xad, 0x6b, 0xbe, 0xf5, 0x26, 0x15, 0xbe,
  0x26, 0xdf, 0x0c, 0x3e, 0x19, 0xcf, 0x38, 0x3c, 0xd6, 0x7d, 0xae, 0x3c,
  0x25, 0xf5, 0x88, 0xbe, 0x20, 0x0c, 0x0d, 0x3d, 0xed, 0x97, 0x86, 0x3d,
  0x78, 0xc2, 0x7d, 0xbe, 0xce, 0x7d, 0xd3, 0x3d, 0x3e, 0x8f, 0x3c, 0x3d,
  0xec, 0x79, 0x27, 0xbd, 0xf6, 0x8f, 0x8a, 0xbd, 0x0b, 0x55, 0x33, 0x3e,
  0x75, 0x8c, 0xe5, 0xbd, 0xae, 0x97, 0x18, 0xbe, 0xf6, 0x34, 0x41, 0x3d,
  0x6f, 0x09, 0x8c, 0xbe, 0x97, 0x33, 0x09, 0xbe, 0x9b, 0x79, 0x42, 0x3e,
  0x07, 0xe0, 0xd6, 0xbd, 0xc2, 0xeb, 0x13, 0xbe, 0xac, 0x1f, 0x2e, 0xbe,
  0xf5, 0x7a, 0x7e, 0x3d, 0x73, 0x33, 0x83, 0xbd, 0x11, 0x4c, 0x3c, 0x3e,
  0x9a, 0x09, 0xdc, 0x3c, 0x7e, 0x19, 0x9b, 0x3d, 0x7b, 0x31, 0x79, 0x3d,
  0xaa, 0x62, 0x53, 0xbe, 0xd6, 0xd2, 0xbd, 0xbd, 0x58, 0xc1, 0x6c, 0xbe,
  0xaf, 0xc2, 0xd3, 0x3c, 0xe5, 0x82, 0x40, 0xbb, 0x42, 0x18, 0x4b, 0xbd,
  0x46, 0xdd, 0x44, 0xbe, 0x4a, 0xc6, 0x25, 0x3e, 0xf3, 0xdc, 0xb0, 0xbd,
  0xa2, 0x65, 0x5e, 0x3d, 0xda, 0x9f, 0x34, 0xbd, 0x22, 0x9f, 0xad, 0xbd,
  0x39, 0x25, 0x7b, 0xbd, 0xe6, 0x64, 0xac, 0xbb, 0x23, 0xb1, 0xe1, 0xbb,
  0xe8, 0x0f, 0xb2, 0x3d, 0x1f, 0xc2, 0x4b, 0x3d, 0x4b, 0xec, 0x6f, 0xbe,
  0xe7, 0x0f, 0x90, 0xbe, 0x58, 0x12, 0x5c, 0xbd, 0x0f, 0x0a, 0x59, 0xbe,
  0xf6, 0x24, 0x5d, 0x3d, 0x74, 0xe8, 0xd3, 0xbd, 0xef, 0x6f, 0x20, 0x3d,
  0xff, 0xd9, 0x4d, 0xbc, 0xea, 0x65, 0xd2, 0x3d, 0x13, 0x7c, 0x50, 0xbe,
  0x71, 0xea, 0x9d, 0x3b, 0xaf, 0x29, 0x0a, 0xbd, 0xfe, 0xed, 0x15, 0xbe,
  0xa7, 0xa7, 0xb9, 0x3d, 0x2d, 0xed, 0x56, 0xbe, 0xa3, 0xf5, 0x59, 0x3c,
  0xeb, 0x91, 0xad, 0x3d, 0x61, 0x69, 0xc4, 0xbd, 0x43, 0x6a, 0x94, 0x3b,
  0xec, 0x5e, 0x72, 0xbe, 0x1b, 0x81, 0x63, 0xbc, 0x01, 0xf7, 0x0e, 0xbe,
  0xe5, 0x7f, 0x03, 0x3e, 0xd7, 0xed, 0x28, 0xbd, 0x7a, 0x9e, 0x37, 0xbd,
  0xeb, 0xc8, 0x3d, 0xbe, 0x77, 0x5c, 0x70, 0xbe, 0x4b, 0x1b, 0x36, 0xbd,
  0xa8, 0xfb, 0x08, 0x3e, 0xa1, 0x38, 0x54, 0xbd, 0x02, 0x66, 0x64, 0xbe,
  0x58, 0xbb, 0xe0, 0xbd, 0x5b, 0xc6, 0x31, 0xbd, 0x3d, 0xa9, 0x27, 0xbc,
  0x5b, 0xb1, 0x2f, 0xbe, 0xc2, 0x2c, 0xa3, 0xbc, 0x42, 0xb1, 0x6b, 0xbd,
  0xe6, 0xbd, 0x46, 0x3e, 0x77, 0x26, 0x02, 0x3e, 0x45, 0x75, 0x88, 0xbe,
  0xcc, 0x10, 0x5f, 0xbe, 0x01, 0xf8, 0xe8, 0x3d, 0xdc, 0xb3, 0xb8, 0xbe,
  0x51, 0xaf, 0xc5, 0xbc, 0xb3, 0x4f, 0x7a, 0xbe, 0x39, 0x69, 0x89, 0x3d,
  0xdb, 0x03, 0x4b, 0xbe, 0xc7, 0x64, 0x83, 0x3d, 0x8e, 0xd7, 0x3f, 0xbe,
  0x46, 0xbb, 0x16, 0xbd, 0x5f, 0x1b, 0xc3, 0xbc, 0xc4, 0x75, 0x60, 0xbd,
  0xe1, 0x62, 0x05, 0xbe, 0x0e, 0x94, 0x4c, 0x3c, 0xd2, 0xf1, 0x5f, 0xbe,
  0x97, 0xdf, 0x1f, 0x3d, 0x18, 0xc6, 0x30, 0xbd, 0x63, 0xed, 0x1a, 0x3e,
  0xc2, 0xdf, 0x72, 0xbe, 0x06, 0x07, 0x1e, 0xbe, 0xd0, 0xbb, 0x12, 0xbe,
  0xce, 0x31, 0x25, 0xbe, 0x5a, 0xe9, 0xa4, 0xbd, 0x17, 0x3e, 0xac, 0xbd,
  0x3b, 0x01, 0x5a, 0xbc, 0x1e, 0x86, 0x6e, 0xbe, 0x65, 0xf9, 0x82, 0x3a,
  0xca, 0xe9, 0x6c, 0xbe, 0x59, 0xea, 0xdf, 0x3b, 0x06, 0x75, 0x1e, 0xbb,
  0x40, 0xff, 0xae, 0xbd, 0xcf, 0x52, 0x74, 0xbc, 0x72, 0x04, 0xce, 0xbc,
  0xb8, 0x4b, 0xfb, 0xbd, 0x4d, 0x72, 0x95, 0xbe, 0x25, 0xeb, 0x04, 0x3e,
  0x6e, 0x3e, 0x9e, 0x3d, 0x72, 0x20, 0x6e, 0xbe, 0x54, 0xfe, 0x2e, 0x3e,
  0x7b, 0x4d, 0xec, 0x3d, 0xae, 0x8d, 0xb2, 0x3c, 0xc4, 0x6c, 0x66, 0xbe,
  0xd7, 0xc2, 0x74, 0xbc, 0xe1, 0xe3, 0x03, 0xbe, 0xa5, 0x9b, 0xd3, 0x3c,
  0x0c, 0xa3, 0x74, 0xbc, 0xc7, 0x4c, 0x08, 0x3e, 0x42, 0x3b, 0x9b, 0xbc,
  0x98, 0x14, 0x3b, 0xbc, 0x06, 0xc6, 0x0b, 0x3e, 0x89, 0xb4, 0xe3, 0xbd,
  0x01, 0x77, 0x3c, 0xbe, 0x73, 0xbc, 0x81, 0xbe, 0xab, 0xfb, 0x37, 0xbe,
  0x11, 0x8f, 0x1d, 0x3d, 0x7d, 0x2c, 0xed, 0x3b, 0x02, 0xc7, 0x0b, 0x3d,
  0xdf, 0x1d, 0x30, 0x3d, 0xd0, 0x21, 0x36, 0xbe, 0x2f, 0x86, 0x87, 0x3d,
  0x9f, 0xd3, 0xd6, 0xbd, 0x93, 0x44, 0x01, 0x3e, 0x37, 0x3f, 0x00, 0xbe,
  0x14, 0x9f, 0xd1, 0x3d, 0x05, 0x5c, 0x72, 0x3d, 0xe0, 0xac, 0x80, 0x3c,
  0x0a, 0xc6, 0x80, 0xbe, 0x64, 0x58, 0xb3, 0xbd, 0x8c, 0xfa, 0x35, 0x3d,
  0x23, 0xa0, 0x5a, 0xbe, 0x57, 0x74, 0xc5, 0xbd, 0xd2, 0xc4, 0x70, 0xbe,
  0xf5, 0xf1, 0x56, 0xbe, 0xd6, 0xe2, 0x32, 0xbe, 0xb0, 0x6f, 0x34, 0xbe,
  0xaf, 0x91, 0x68, 0xbe, 0x77, 0x3f, 0x5b, 0x3d, 0x8c, 0x80, 0x0d, 0x3e,
  0x97, 0xe6, 0x53, 0x3d, 0xa3, 0x97, 0x01, 0xbd, 0x17, 0xfe, 0xd3, 0x3e,
  0xcd, 0xd2, 0xf0, 0xbd, 0x31, 0x54, 0xf9, 0xbb, 0x0a, 0x42, 0xb1, 0x3d,
  0x39, 0x03, 0xf7, 0x3d, 0x74, 0x27, 0xc2, 0xbd, 0x89, 0xf0, 0x1b, 0x3f,
  0x91, 0xd3, 0x86, 0x3e, 0xec, 0x2d, 0x2d, 0xbe, 0x57, 0x8c, 0x54, 0x3d,
  0xd6, 0xc2, 0xca, 0x3e, 0x9e, 0x9c, 0x80, 0x3d, 0x77, 0xf6, 0x9f, 0x3e,
  0x50, 0xa7, 0x72, 0xbe, 0xa0, 0xf7, 0x92, 0x3e, 0x9e, 0x1b, 0x03, 0xbe,
  0x8a, 0x91, 0xcf, 0x3d, 0xcb, 0xe0, 0xfb, 0x3c, 0xaf, 0x2f, 0x4e, 0x3d,
  0xee, 0xf4, 0x83, 0x3d, 0xad, 0xc9, 0x6b, 0xbe, 0x3a, 0x43, 0xf3, 0xbd,
  0x00, 0x41, 0x75, 0xbe, 0x91, 0xf8, 0x75, 0xbd, 0x2f, 0xa0, 0x24, 0x3d,
  0xd4, 0xd3, 0x94, 0xbd, 0xa2, 0xed, 0x27, 0xbd, 0x93, 0xc4, 0xd2, 0x3c,
  0x86, 0x52, 0x83, 0xbe, 0x77, 0x9b, 0x63, 0xbe, 0x28, 0x8b, 0x83, 0x3e,
  0x3a, 0x82, 0x3d, 0xbe, 0x3f, 0xdc, 0x50, 0xbd, 0x7b, 0x8b, 0x83, 0xbe,
  0x20, 0xc4, 0x41, 0xbb, 0x2c, 0xf9, 0x6e, 0x3d, 0x6c, 0xd4, 0x4e, 0x3d,
  0xb4, 0x13, 0xe4, 0xbe, 0xa3, 0x0c, 0x13, 0xbe, 0x20, 0xb5, 0x95, 0xbe,
  0xe7, 0xda, 0x9f, 0x3d, 0xd1, 0x55, 0xd4, 0xbb, 0x34, 0x51, 0x52, 0xbe,
  0x46, 0x62, 0xde, 0x3c, 0x15, 0x80, 0xbf, 0xbe, 0xc8, 0x48, 0x99, 0xbe,
  0xe2, 0xc8, 0x56, 0x3e, 0x29, 0xb4, 0xe7, 0xbe, 0x46, 0x3b, 0x43, 0xbd,
  0xa4, 0x5d, 0x85, 0xbe, 0xb6, 0x2e, 0x06, 0x3d, 0x46, 0xd8, 0x8e, 0x3c,
  0x02, 0x40, 0x95, 0x3c, 0xd6, 0xe5, 0xae, 0xbe, 0x7f, 0x9d, 0xdc, 0xbd,
  0xad, 0xf5, 0x90, 0xbe, 0x72, 0x9f, 0x51, 0x3d, 0x2d, 0x7c, 0x06, 0xbd,
  0xd8, 0x75, 0x85, 0xbe, 0xd2, 0x93, 0x18, 0x3c, 0xf6, 0x2f, 0xf5, 0xbc,
  0x1e, 0xf6, 0xd9, 0xbe, 0x01, 0x61, 0xb2, 0x3d, 0x12, 0x39, 0xb9, 0xbe,
  0xb5, 0x9e, 0xb6, 0xbd, 0xea, 0xbd, 0xec, 0xbc, 0xf0, 0x7c, 0x52, 0x3d,
  0x38, 0x3e, 0xa9, 0x3d, 0xaf, 0xcc, 0x8e, 0xbd, 0x08, 0xae, 0x83, 0xbe,
  0x09, 0xc5, 0x35, 0xbe, 0x2b, 0xa2, 0x2a, 0x3d, 0xd2, 0xaf, 0x97, 0x3b,
  0x45, 0xcd, 0x69, 0xbc, 0x46, 0xd0, 0x7a, 0xbe, 0xcd, 0x3f, 0x9d, 0x3c,
  0x1c, 0xeb, 0xa2, 0xbd, 0xf3, 0x35, 0x05, 0xbe, 0x60, 0x43, 0x98, 0x3d,
  0x97, 0x2e, 0x7e, 0xbe, 0x03, 0x4b, 0x0f, 0xbe, 0xb1, 0x10, 0x86, 0xbe,
  0x20, 0x47, 0xf3, 0x3c, 0xe4, 0xc9, 0x8e, 0x3d, 0xff, 0x8c, 0xd8, 0xbd,
  0x1d, 0x27, 0xa5, 0xbe, 0x06, 0xc5, 0x65, 0xbe, 0xab, 0x6c, 0x96, 0xbe,
  0x5a, 0xb6, 0x85, 0xbd, 0xb7, 0x3c, 0xf4, 0xbc, 0x87, 0xec, 0xaa, 0x3c,
  0x7e, 0x70, 0x97, 0x3b, 0xe4, 0x51, 0x6b, 0xbc, 0xc3, 0xbc, 0x1c, 0xbe,
  0xef, 0x1d, 0x2e, 0x3e, 0xdc, 0xf9, 0x53, 0xbe, 0x03, 0x29, 0x18, 0x3d,
  0x17, 0x50, 0x3a, 0x3d, 0xc2, 0x69, 0x56, 0xbb, 0x8f, 0xbc, 0xbb, 0x3c,
  0xf7, 0x03, 0x0e, 0x3e, 0x9f, 0xfb, 0x12, 0xbd, 0xf3, 0x6f, 0xec, 0x3d,
  0x1d, 0xbe, 0x46, 0x3e, 0x56, 0x9a, 0x97, 0xbd, 0x32, 0xe3, 0xde, 0x3d,
  0x7f, 0xe8, 0x4f, 0x3e, 0x40, 0xbf, 0xde, 0x3c, 0x03, 0x1e, 0xb1, 0x3d,
  0xba, 0xd6, 0x12, 0x3e, 0xa9, 0x38, 0x09, 0x3e, 0x27, 0x60, 0xdf, 0xbd,
  0x39, 0x9d, 0xb2, 0xbc, 0x64, 0x35, 0x17, 0xbc, 0x24, 0x51, 0x0f, 0xbe,
  0x9f, 0x96, 0xa5, 0x3e, 0xd3, 0x4c, 0x75, 0x3e, 0x48, 0xf2, 0x42, 0x3d,
  0x85, 0xc4, 0x07, 0xbe, 0xa4, 0x34, 0x31, 0xbd, 0x68, 0x7f, 0x98, 0xbe,
  0x0b, 0x5d, 0x37, 0xbe, 0x27, 0x34, 0x2d, 0x3e, 0xa4, 0x3e, 0x33, 0xbe,
  0x91, 0x9a, 0xcb, 0x3d, 0xb5, 0x14, 0x6b, 0xbe, 0x17, 0xd0, 0x19, 0x3e,
  0x80, 0x17, 0x89, 0x3d, 0xf7, 0x1d, 0xb1, 0x3b, 0x47, 0x9f, 0x7f, 0x3e,
  0x34, 0xa4, 0x38, 0xbc, 0x08, 0x2b, 0x9b, 0x3e, 0xcf, 0x54, 0xbf, 0x3e,
  0x4f, 0x65, 0xb5, 0x3d, 0x02, 0xfa, 0x37, 0xbe, 0x28, 0x62, 0xfc, 0x3c,
  0xd9, 0x15, 0xaf, 0xbe, 0x0c, 0xed, 0xa6, 0xbd, 0x3b, 0x58, 0x23, 0xbe,
  0xa8, 0xc0, 0xa3, 0xbe, 0xad, 0xfe, 0x8c, 0xbd, 0x09, 0x27, 0x10, 0x3e,
  0x6c, 0xa5, 0x0a, 0xbe, 0xed, 0xd9, 0x68, 0x3e, 0xf9, 0x42, 0xb5, 0x3d,
  0x2b, 0xfb, 0x99, 0x3e, 0xb6, 0xad, 0xca, 0xbd, 0xaf, 0xe0, 0xd9, 0x3d,
  0x2f, 0x24, 0x17, 0x3f, 0xe2, 0x94, 0x5d, 0x3d, 0xe4, 0xf8, 0x7d, 0x3e,
  0xa2, 0xb0, 0x34, 0x3d, 0xb3, 0xca, 0xc4, 0xbe, 0x31, 0x39, 0x75, 0xbe,
  0xef, 0x9f, 0x3c, 0x3e, 0x18, 0x25, 0x87, 0xbe, 0x27, 0x6e, 0x6b, 0x3e,
  0x7c, 0x12, 0x38, 0x3d, 0x12, 0x45, 0x0d, 0x3e, 0x43, 0xfd, 0x46, 0x3e,
  0x80, 0xc0, 0x2f, 0x3e, 0xa3, 0x1c, 0x5a, 0x3e, 0x8c, 0xad, 0x23, 0xbd,
  0x3f, 0x3a, 0x89, 0x3e, 0x34, 0x09, 0x13, 0x3f, 0xb7, 0xfe, 0xf2, 0xbc,
  0xfe, 0xd7, 0x10, 0x3e, 0xdd, 0xd0, 0xb9, 0x3d, 0x32, 0x22, 0xa2, 0xbe,
  0x7f, 0x49, 0x35, 0xbe, 0xb9, 0x4f, 0xdc, 0x3e, 0x76, 0xe4, 0x47, 0xbe,
  0x25, 0xdf, 0x7c, 0xbd, 0x8a, 0x9b, 0x2c, 0x3e, 0x30, 0xb0, 0x8a, 0x3e,
  0xf7, 0x66, 0xe8, 0x3d, 0x31, 0xcf, 0x6e, 0xbd, 0xb8, 0x19, 0xc6, 0x3e,
  0x62, 0xc1, 0xf0, 0xbd, 0x92, 0xde, 0x81, 0x3e, 0xd0, 0x4c, 0x07, 0x3f,
  0x08, 0x2e, 0xb7, 0x3d, 0x89, 0x4a, 0xbf, 0xbc, 0xff, 0x01, 0x01, 0x3d,
  0x4c, 0x43, 0xcc, 0xbe, 0x5f, 0x31, 0xb7, 0xbe, 0x45, 0x68, 0x03, 0xbf,
  0x17, 0xca, 0xd6, 0xbe, 0x7a, 0xbe, 0x8c, 0x3e, 0xd9, 0x40, 0x0a, 0x3e,
  0x61, 0x03, 0x20, 0x3e, 0x16, 0xcf, 0x26, 0x3e, 0x0a, 0xe4, 0x4b, 0xbd,
  0x3e, 0x58, 0x8f, 0x3e, 0xe4, 0xb0, 0xf4, 0xbd, 0xeb, 0x95, 0xd6, 0x3e,
  0x2e, 0x95, 0x04, 0x3f, 0xd6, 0xe8, 0x72, 0x3d, 0xa9, 0x7b, 0x8a, 0x3d,
  0xbf, 0xcf, 0x3c, 0x3d, 0xd2, 0x07, 0xf2, 0xbe, 0x72, 0xbf, 0xc1, 0xbe,
  0xac, 0x11, 0xc9, 0xbe, 0x26, 0x97, 0xe3, 0xbe, 0x87, 0x37, 0x11, 0xbe,
  0x01, 0x6a, 0x43, 0xbe, 0x59, 0xa6, 0x38, 0x3e, 0x7c, 0xba, 0x9b, 0x3d,
  0xd0, 0x0c, 0x6f, 0x3c, 0xd8, 0xee, 0x04, 0x3e, 0x2e, 0x67, 0x09, 0xbe,
  0x46, 0x55, 0x12, 0xbf, 0xf0, 0x1b, 0xd6, 0x3d, 0x93, 0x35, 0x0d, 0x3d,
  0x12, 0x2c, 0x9b, 0x3e, 0x56, 0xe5, 0x7f, 0xbd, 0xef, 0x06, 0x01, 0xbf,
  0x10, 0xfd, 0x38, 0xbf, 0x18, 0x16, 0x93, 0xbe, 0xb8, 0xc6, 0x26, 0xbf,
  0x64, 0x58, 0x54, 0x3e, 0xa0, 0x17, 0x85, 0x3d, 0xe8, 0x46, 0xa8, 0xbe,
  0xb0, 0x34, 0xd6, 0x3d, 0x2b, 0xa2, 0x36, 0x3c, 0xca, 0x1c, 0x19, 0xbe,
  0x7e, 0x76, 0x3d, 0xbe, 0xc7, 0x8f, 0x11, 0x3e, 0xb5, 0xfa, 0x2c, 0x3e,
  0x58, 0x6b, 0xd7, 0x3c, 0x70, 0xd8, 0x21, 0xbc, 0x00, 0x53, 0xc2, 0xbd,
  0x7f, 0xb9, 0xed, 0x3c, 0x56, 0xf3, 0x02, 0x3d, 0x7f, 0xeb, 0x92, 0xbe,
  0xfc, 0x55, 0xf3, 0xbc, 0xa3, 0x1a, 0x9c, 0x3d, 0x5d, 0x13, 0x01, 0x40,
  0xcf, 0x22, 0x2a, 0x3f, 0x7d, 0x9a, 0x8a, 0xbe, 0x49, 0x25, 0x1c, 0x3e,
  0x32, 0x18, 0x0c, 0xbe, 0x3e, 0x17, 0xb5, 0xbe, 0x57, 0x73, 0x63, 0x3e,
  0x8e, 0x03, 0xfa, 0x3c, 0xd2, 0x68, 0x1a, 0xbe, 0xcf, 0x86, 0xa5, 0x3e,
  0x5c, 0xdb, 0xac, 0xbd, 0x18, 0x2e, 0x44, 0xbd, 0x83, 0x40, 0x81, 0xbb,
  0x22, 0x62, 0xe5, 0xbd, 0x4f, 0x66, 0x69, 0xbe, 0xbf, 0x57, 0x1b, 0x3e,
  0xb9, 0xeb, 0xce, 0x3f, 0xfc, 0x32, 0x6b, 0x3e, 0xbc, 0x3e, 0x09, 0x3e,
  0x28, 0x41, 0xc3, 0x3d, 0x7a, 0x36, 0xe9, 0xbd, 0x22, 0x68, 0xc8, 0xbe,
  0x77, 0x97, 0xb4, 0x3e, 0x42, 0xb4, 0x0f, 0xbd, 0xd0, 0xd3, 0x76, 0x3c,
  0xd9, 0x90, 0x1f, 0x3e, 0x99, 0x58, 0x94, 0x3d, 0xb0, 0x36, 0x94, 0xbc,
  0xfe, 0x00, 0x6e, 0xbd, 0x7c, 0x71, 0xac, 0xbd, 0xec, 0x5e, 0x22, 0xbe,
  0x0f, 0x60, 0x8d, 0xbd, 0x03, 0x6e, 0x76, 0x3f, 0x16, 0x06, 0x28, 0x3f,
  0x21, 0x75, 0x74, 0xbc, 0xd3, 0x39, 0xb7, 0x3e, 0x97, 0xf2, 0x12, 0xbe,
  0x6d, 0xe5, 0xc8, 0xbe, 0xa3, 0xcd, 0x4c, 0xbc, 0xac, 0xf4, 0xf1, 0x3d,
  0x4c, 0x3a, 0x9f, 0xbe, 0xc5, 0x5c, 0x87, 0x3d, 0x44, 0xfd, 0x9b, 0x3e,
  0xa9, 0x04, 0x70, 0xbe, 0xbc, 0x8e, 0x19, 0xba, 0xd5, 0x05, 0xfe, 0xbd,
  0xbc, 0xec, 0x96, 0xbd, 0xf2, 0x54, 0xda, 0x3d, 0x79, 0x58, 0xe2, 0x3f,
  0xb3, 0x6a, 0x59, 0x3f, 0xc8, 0x26, 0x94, 0x3e, 0x18, 0x48, 0x1c, 0x3e,
  0x81, 0x65, 0x6d, 0xbe, 0x9c, 0xa9, 0x6c, 0xbe, 0x16, 0x21, 0xe7, 0xbd,
  0xc0, 0xe3, 0x46, 0xbe, 0xd2, 0x21, 0xd4, 0xbc, 0xb5, 0x44, 0x52, 0x3e,
  0x3f, 0xec, 0x71, 0x3e, 0x5c, 0x81, 0x74, 0xbc, 0x1e, 0x4c, 0x98, 0x3d,
  0x57, 0xbd, 0x65, 0xbe, 0x36, 0x69, 0x98, 0xbe, 0xb2, 0x14, 0x0d, 0x3e,
  0x1f, 0x10, 0xe2, 0x3f, 0x7c, 0x77, 0x06, 0x3f, 0xae, 0xc3, 0x29, 0xba,
  0x07, 0x35, 0xd0, 0x3e, 0xe4, 0xaf, 0x93, 0xbe, 0x0e, 0x32, 0xd7, 0xbe,
  0x70, 0x4f, 0x7d, 0x3d, 0x79, 0xc6, 0xf1, 0x3c, 0xf8, 0x61, 0x61, 0xbe,
  0xe9, 0xf1, 0x36, 0x3e, 0xc4, 0x35, 0xca, 0x3d, 0x13, 0x34, 0xd8, 0xbd,
  0xb1, 0xbe, 0x2d, 0xbe, 0x5c, 0x8f, 0x94, 0xbd, 0xa0, 0x5b, 0x3e, 0xbe,
  0xe9, 0x58, 0x39, 0xbd, 0xa7, 0xba, 0xcc, 0x3f, 0xa2, 0xb7, 0xb6, 0x3e,
  0x70, 0x39, 0xd3, 0xbd, 0x61, 0xbf, 0x73, 0xbe, 0xee, 0x41, 0x71, 0x3c,
  0xe7, 0xa9, 0xab, 0xbe, 0x94, 0x4a, 0xcc, 0xbd, 0x05, 0x6b, 0xe3, 0x3d,
  0x73, 0x50, 0x20, 0xbd, 0xae, 0xe0, 0x9f, 0x3d, 0x2e, 0x8b, 0xd4, 0x3c,
  0x0a, 0x0a, 0xac, 0xbd, 0xb5, 0x9d, 0x99, 0xbe, 0x2b, 0x11, 0x8e, 0xbe,
  0xed, 0x35, 0x13, 0xbe, 0x04, 0x11, 0xbd, 0x3d, 0xb8, 0x22, 0x2d, 0x3f,
  0xe2, 0x33, 0x7a, 0xbe, 0xf7, 0xb2, 0x0b, 0xbe, 0x4a, 0xfe, 0xff, 0xff,
  0x10, 0x00, 0x00, 0x00, 0x05, 0x00, 0x00, 0x00, 0x14, 0x00, 0x00, 0x00,
  0x2c, 0x00, 0x00, 0x00, 0x02, 0x00, 0x00, 0x00, 0x10, 0x00, 0x00, 0x00,
  0x70, 0x00, 0x00, 0x00, 0x17, 0x00, 0x00, 0x00, 0x73, 0x65, 0x71, 0x75,
  0x65, 0x6e, 0x74, 0x69, 0x61, 0x6c, 0x2f, 0x64, 0x65, 0x6e, 0x73, 0x65,
  0x2f, 0x4d, 0x61, 0x74, 0x4d, 0x75, 0x6c, 0x00, 0x38, 0xfe, 0xff, 0xff,
  0x2e, 0xff, 0xff, 0xff, 0x04, 0x00, 0x00, 0x00, 0x08, 0x00, 0x00, 0x00,
  0xff, 0xff, 0xff, 0xff, 0x70, 0x00, 0x00, 0x00, 0x00, 0x00, 0x0e, 0x00,
  0x18, 0x00, 0x08, 0x00, 0x07, 0x00, 0x0c, 0x00, 0x10, 0x00, 0x14, 0x00,
  0x0e, 0x00, 0x00, 0x00, 0x00, 0x00, 0x00, 0x02, 0x10, 0x00, 0x00, 0x00,
  0x04, 0x00, 0x00, 0x00, 0x10, 0x00, 0x00, 0x00, 0x2c, 0x00, 0x00, 0x00,
  0x01, 0x00, 0x00, 0x00, 0x02, 0x00, 0x00, 0x00, 0x18, 0x00, 0x00, 0x00,
  0x73, 0x65, 0x71, 0x75, 0x65, 0x6e, 0x74, 0x69, 0x61, 0x6c, 0x2f, 0x66,
  0x6c, 0x61, 0x74, 0x74, 0x65, 0x6e, 0x2f, 0x43, 0x6f, 0x6e, 0x73, 0x74,
  0x00, 0x00, 0x00, 0x00, 0xa0, 0xfe, 0xff, 0xff, 0x96, 0xff, 0xff, 0xff,
  0x04, 0x00, 0x00, 0x00, 0x0c, 0x00, 0x00, 0x00, 0xa5, 0xb4, 0xa1, 0x3f,
  0x3b, 0x13, 0xac, 0xc0, 0xb2, 0xe2, 0x29, 0x3f, 0x0a, 0xff, 0xff, 0xff,
  0x10, 0x00, 0x00, 0x00, 0x03, 0x00, 0x00, 0x00, 0x10, 0x00, 0x00, 0x00,
  0x3c, 0x00, 0x00, 0x00, 0x01, 0x00, 0x00, 0x00, 0x03, 0x00, 0x00, 0x00,
  0x29, 0x00, 0x00, 0x00, 0x73, 0x65, 0x71, 0x75, 0x65, 0x6e, 0x74, 0x69,
  0x61, 0x6c, 0x2f, 0x64, 0x65, 0x6e, 0x73, 0x65, 0x5f, 0x31, 0x2f, 0x42,
  0x69, 0x61, 0x73, 0x41, 0x64, 0x64, 0x2f, 0x52, 0x65, 0x61, 0x64, 0x56,
  0x61, 0x72, 0x69, 0x61, 0x62, 0x6c, 0x65, 0x4f, 0x70, 0x00, 0x00, 0x00,
  0x60, 0xff, 0xff, 0xff, 0x00, 0x00, 0x06, 0x00, 0x08, 0x00, 0x04, 0x00,
  0x06, 0x00, 0x00, 0x00, 0x04, 0x00, 0x00, 0x00, 0x40, 0x00, 0x00, 0x00,
  0x90, 0x1e, 0x09, 0x3d, 0x17, 0xa4, 0xb2, 0xbe, 0x69, 0x3f, 0x11, 0xbe,
  0x61, 0xa1, 0xca, 0xbe, 0xa9, 0x5d, 0x16, 0xbf, 0xc2, 0xfb, 0xd7, 0x3e,
  0x69, 0x2b, 0x7d, 0x40, 0x37, 0x5e, 0xef, 0xbd, 0x42, 0x2b, 0x9e, 0xbd,
  0x69, 0x06, 0x59, 0xbf, 0x18, 0xe2, 0xf2, 0x3f, 0xa3, 0xe5, 0xe7, 0xbd,
  0x7b, 0x65, 0x21, 0xbe, 0x5b, 0xb4, 0x0e, 0x40, 0x8c, 0x09, 0xae, 0x3e,
  0x2f, 0x83, 0x82, 0x3f, 0xae, 0xff, 0xff, 0xff, 0x10, 0x00, 0x00, 0x00,
  0x02, 0x00, 0x00, 0x00, 0x10, 0x00, 0x00, 0x00, 0x3c, 0x00, 0x00, 0x00,
  0x01, 0x00, 0x00, 0x00, 0x10, 0x00, 0x00, 0x00, 0x27, 0x00, 0x00, 0x00,
  0x73, 0x65, 0x71, 0x75, 0x65, 0x6e, 0x74, 0x69, 0x61, 0x6c, 0x2f, 0x64,
  0x65, 0x6e, 0x73, 0x65, 0x2f, 0x42, 0x69, 0x61, 0x73, 0x41, 0x64, 0x64,
  0x2f, 0x52, 0x65, 0x61, 0x64, 0x56, 0x61, 0x72, 0x69, 0x61, 0x62, 0x6c,
  0x65, 0x4f, 0x70, 0x00, 0x04, 0x00, 0x06, 0x00, 0x04, 0x00, 0x00, 0x00,
  0x00, 0x00, 0x0e, 0x00, 0x14, 0x00, 0x04, 0x00, 0x00, 0x00, 0x08, 0x00,
  0x0c, 0x00, 0x10, 0x00, 0x0e, 0x00, 0x00, 0x00, 0x10, 0x00, 0x00, 0x00,
  0x01, 0x00, 0x00, 0x00, 0x1c, 0x00, 0x00, 0x00, 0x2c, 0x00, 0x00, 0x00,
  0x04, 0x00, 0x00, 0x00, 0x01, 0x00, 0x00, 0x00, 0x40, 0x00, 0x00, 0x00,
  0x03, 0x00, 0x00, 0x00, 0x01, 0x00, 0x00, 0x00, 0x0c, 0x00, 0x00, 0x00,
  0x63, 0x6f, 0x6e, 0x76, 0x32, 0x64, 0x5f, 0x69, 0x6e, 0x70, 0x75, 0x74,
  0x00, 0x00, 0x00, 0x00, 0xfc, 0xff, 0xff, 0xff, 0x04, 0x00, 0x04, 0x00,
  0x04, 0x00, 0x00, 0x00
};

unsigned int model_tflite_len = 12316;// Fill the int in `src/model.cc` here