unsigned char _home_ee2405_ee2405_mbed07_model_model_tflite[] = {
  0x1c, 0x00, 0x00, 0x00, 0x54, 0x46, 0x4c, 0x33, 0x00, 0x00, 0x12, 0x00,
  0x1c, 0x00, 0x04, 0x00, 0x08, 0x00, 0x0c, 0x00, 0x10, 0x00, 0x14, 0x00,
  0x00, 0x00, 0x18, 0x00, 0x12, 0x00, 0x00, 0x00, 0x03, 0x00, 0x00, 0x00,
  0xe0, 0x2f, 0x00, 0x00, 0x10, 0x00, 0x00, 0x00, 0x1c, 0x00, 0x00, 0x00,
  0x2c, 0x00, 0x00, 0x00, 0x0c, 0x00, 0x00, 0x00, 0x01, 0x00, 0x00, 0x00,
  0x14, 0x01, 0x00, 0x00, 0x01, 0x00, 0x00, 0x00, 0xdc, 0x00, 0x00, 0x00,
  0x0f, 0x00, 0x00, 0x00, 0x54, 0x4f, 0x43, 0x4f, 0x20, 0x43, 0x6f, 0x6e,
  0x76, 0x65, 0x72, 0x74, 0x65, 0x64, 0x2e, 0x00, 0x12, 0x00, 0x00, 0x00,
  0xb0, 0x00, 0x00, 0x00, 0xa4, 0x00, 0x00, 0x00, 0x98, 0x00, 0x00, 0x00,
  0x8c, 0x00, 0x00, 0x00, 0x80, 0x00, 0x00, 0x00, 0x74, 0x00, 0x00, 0x00,
  0x68, 0x00, 0x00, 0x00, 0x60, 0x00, 0x00, 0x00, 0x58, 0x00, 0x00, 0x00,
  0x50, 0x00, 0x00, 0x00, 0x48, 0x00, 0x00, 0x00, 0x40, 0x00, 0x00, 0x00,
  0x38, 0x00, 0x00, 0x00, 0x2c, 0x00, 0x00, 0x00, 0x20, 0x00, 0x00, 0x00,
  0x18, 0x00, 0x00, 0x00, 0x10, 0x00, 0x00, 0x00, 0x04, 0x00, 0x00, 0x00,
  0xb2, 0xd2, 0xff, 0xff, 0x68, 0x00, 0x00, 0x00, 0x74, 0xd2, 0xff, 0xff,
  0x78, 0xd2, 0xff, 0xff, 0xc2, 0xd2, 0xff, 0xff, 0xf0, 0x01, 0x00, 0x00,
  0xca, 0xd2, 0xff, 0xff, 0xc8, 0x03, 0x00, 0x00, 0x8c, 0xd2, 0xff, 0xff,
  0x90, 0xd2, 0xff, 0xff, 0x94, 0xd2, 0xff, 0xff, 0x98, 0xd2, 0xff, 0xff,
  0x9c, 0xd2, 0xff, 0xff, 0xa0, 0xd2, 0xff, 0xff, 0xea, 0xd2, 0xff, 0xff,
  0xc0, 0x0d, 0x00, 0x00, 0xf2, 0xd2, 0xff, 0xff, 0x00, 0x2a, 0x00, 0x00,
  0xfa, 0xd2, 0xff, 0xff, 0x60, 0x2a, 0x00, 0x00, 0x02, 0xd3, 0xff, 0xff,
  0xe0, 0x2a, 0x00, 0x00, 0x0a, 0xd3, 0xff, 0xff, 0x44, 0x2b, 0x00, 0x00,
  0x12, 0xd3, 0xff, 0xff, 0x54, 0x2c, 0x00, 0x00, 0xd4, 0xd2, 0xff, 0xff,
  0x05, 0x00, 0x00, 0x00, 0x31, 0x2e, 0x35, 0x2e, 0x30, 0x00, 0x00, 0x00,
  0x54, 0xf4, 0xff, 0xff, 0x08, 0x00, 0x00, 0x00, 0x11, 0x00, 0x00, 0x00,
  0x13, 0x00, 0x00, 0x00, 0x6d, 0x69, 0x6e, 0x5f, 0x72, 0x75, 0x6e, 0x74,
  0x69, 0x6d, 0x65, 0x5f, 0x76, 0x65, 0x72, 0x73, 0x69, 0x6f, 0x6e, 0x00,
  0x0c, 0x00, 0x14, 0x00, 0x04, 0x00, 0x08, 0x00, 0x0c, 0x00, 0x10, 0x00,
  0x0c, 0x00, 0x00, 0x00, 0x20, 0x00, 0x00, 0x00, 0x14, 0x00, 0x00, 0x00,
  0x08, 0x00, 0x00, 0x00, 0x44, 0x2c, 0x00, 0x00, 0x01, 0x00, 0x00, 0x00,
  0x00, 0x00, 0x00, 0x00, 0x01, 0x00, 0x00, 0x00, 0x01, 0x00, 0x00, 0x00,
  0x10, 0x00, 0x00, 0x00, 0x9c, 0x0c, 0x00, 0x00, 0x14, 0x0b, 0x00, 0x00,
  0xd4, 0x00, 0x00, 0x00, 0x24, 0x29, 0x00, 0x00, 0x84, 0x00, 0x00, 0x00,
  0xa4, 0x02, 0x00, 0x00, 0x80, 0x29, 0x00, 0x00, 0x5c, 0x0b, 0x00, 0x00,
  0xb0, 0x0c, 0x00, 0x00, 0x80, 0x2b, 0x00, 0x00, 0xf0, 0x0b, 0x00, 0x00,
  0x2c, 0x0c, 0x00, 0x00, 0x44, 0x2a, 0x00, 0x00, 0xec, 0x29, 0x00, 0x00,
  0x08, 0x00, 0x00, 0x00, 0x88, 0x0b, 0x00, 0x00, 0xaa, 0xd4, 0xff, 0xff,
  0x10, 0x00, 0x00, 0x00, 0x10, 0x00, 0x00, 0x00, 0x1c, 0x00, 0x00, 0x00,
  0x40, 0x00, 0x00, 0x00, 0x04, 0x00, 0x00, 0x00, 0x01, 0x00, 0x00, 0x00,
  0x15, 0x00, 0x00, 0x00, 0x01, 0x00, 0x00, 0x00, 0x08, 0x00, 0x00, 0x00,
  0x20, 0x00, 0x00, 0x00, 0x73, 0x65, 0x71, 0x75, 0x65, 0x6e, 0x74, 0x69,
  0x61, 0x6c, 0x2f, 0x6d, 0x61, 0x78, 0x5f, 0x70, 0x6f, 0x6f, 0x6c, 0x69,
  0x6e, 0x67, 0x32, 0x64, 0x2f, 0x4d, 0x61, 0x78, 0x50, 0x6f, 0x6f, 0x6c,
  0x00, 0x00, 0x00, 0x00, 0xcc, 0xd3, 0xff, 0xff, 0xfe, 0xd4, 0xff, 0xff,
  0x10, 0x00, 0x00, 0x00, 0x0f, 0x00, 0x00, 0x00, 0x1c, 0x00, 0x00, 0x00,
  0x34, 0x00, 0x00, 0x00, 0x04, 0x00, 0x00, 0x00, 0x01, 0x00, 0x00, 0x00,
  0x40, 0x00, 0x00, 0x00, 0x03, 0x00, 0x00, 0x00, 0x08, 0x00, 0x00, 0x00,
  0x16, 0x00, 0x00, 0x00, 0x73, 0x65, 0x71, 0x75, 0x65, 0x6e, 0x74, 0x69,
  0x61, 0x6c, 0x2f, 0x63, 0x6f, 0x6e, 0x76, 0x32, 0x64, 0x2f, 0x52, 0x65,
  0x6c, 0x75, 0x00, 0x00, 0x14, 0xd4, 0xff, 0xff, 0x46, 0xd5, 0xff, 0xff,
  0x10, 0x00, 0x00, 0x00, 0x0e, 0x00, 0x00, 0x00, 0x1c, 0x00, 0x00, 0x00,
  0x44, 0x00, 0x00, 0x00, 0x04, 0x00, 0x00, 0x00, 0x01, 0x00, 0x00, 0x00,
  0x04, 0x00, 0x00, 0x00, 0x03, 0x00, 0x00, 0x00, 0x08, 0x00, 0x00, 0x00,
  0x27, 0x00, 0x00, 0x00, 0x73, 0x65, 0x71, 0x75, 0x65, 0x6e, 0x74, 0x69,
  0x61, 0x6c, 0x2f, 0x63, 0x6f, 0x6e, 0x76, 0x32, 0x64, 0x2f, 0x43, 0x6f,
  0x6e, 0x76, 0x32, 0x44, 0x2f, 0x52, 0x65, 0x61, 0x64, 0x56, 0x61, 0x72,
  0x69, 0x61, 0x62, 0x6c, 0x65, 0x4f, 0x70, 0x00, 0x6c, 0xd4, 0xff, 0xff,
  0x80, 0x01, 0x00, 0x00, 0xeb, 0x31, 0x94, 0xbc, 0xc4, 0x11, 0x1c, 0xbd,
  0x4f, 0xfa, 0xb6, 0x3e, 0xfb, 0xe2, 0x16, 0x3d, 0xaf, 0xe6, 0x9b, 0x3d,
  0x7b, 0x16, 0x8e, 0xbe, 0x81, 0x24, 0xe0, 0xbd, 0x8e, 0x1d, 0xe8, 0x3e,
  0xf0, 0x1b, 0x93, 0x3c, 0xba, 0x1b, 0xa6, 0x3e, 0xf0, 0x58, 0x71, 0xbe,
  0xfb, 0x69, 0x07, 0xbd, 0x37, 0xd3, 0x12, 0xbe, 0xa5, 0x2f, 0x7b, 0x3e,
  0x9c, 0x84, 0xfa, 0xbd, 0x69, 0xba, 0xdd, 0x3d, 0x46, 0xb7, 0xb3, 0x3c,
  0xeb, 0x86, 0x40, 0x3d, 0x68, 0xf8, 0x3a, 0x3d, 0xc3, 0x62, 0x75, 0xbd,
  0x0c, 0x7a, 0x39, 0xbe, 0x6a, 0xc8, 0xb2, 0xbe, 0xae, 0xa8, 0x9f, 0x3d,
  0xdb, 0x02, 0xb3, 0xbd, 0x1c, 0xc3, 0x45, 0x3d, 0x44, 0x84, 0x7a, 0x3e,
  0x96, 0xb8, 0x16, 0x3d, 0x22, 0x9a, 0xe0, 0x3e, 0x88, 0xd1, 0x84, 0xbe,
  0xb2, 0xb7, 0xe5, 0xbc, 0xb9, 0x87, 0x83, 0xbd, 0x3b, 0xc8, 0x3d, 0x3e,
  0x50, 0xd1, 0x25, 0x3e, 0xcb, 0xb0, 0x48, 0xbe, 0xfb, 0x6b, 0x48, 0x3d,
  0xbc, 0x63, 0xa2, 0x3d, 0xc1, 0xa5, 0x42, 0xbe, 0x95, 0x8d, 0xcc, 0x3d,
  0x29, 0xc7, 0x9e, 0xbd, 0x78, 0x8f, 0xa6, 0x3c, 0x9c, 0xbe, 0xc2, 0x3e,
  0x03, 0xb4, 0xa9, 0x3e, 0x2c, 0x3d, 0x21, 0x3e, 0xe8, 0x7f, 0x60, 0xbe,
  0xd1, 0x09, 0xcf, 0xbe, 0x58, 0x54, 0x8b, 0x3d, 0x6e, 0xf4, 0xd3, 0x3d,
  0x1a, 0xd5, 0x9f, 0x3c, 0x06, 0x03, 0xa2, 0xbe, 0x8d, 0xc7, 0x89, 0xbe,
  0x0b, 0x8f, 0x75, 0xbe, 0xfb, 0xfc, 0xfb, 0xbd, 0xe6, 0x3f, 0x71, 0x3e,
  0xde, 0xfa, 0x20, 0x3e, 0x04, 0x23, 0x8b, 0xbc, 0xa9, 0xb1, 0xda, 0x3c,
  0x6c, 0x5b, 0xb5, 0xbd, 0xc3, 0x02, 0x37, 0x3c, 0xfd, 0xed, 0x33, 0x3d,
  0x00, 0x0c, 0x02, 0x3e, 0x99, 0x29, 0x67, 0x3e, 0xd0, 0x63, 0x92, 0xbd,
  0xd8, 0xdc, 0x72, 0xbd, 0x19, 0x53, 0x4d, 0x3d, 0xac, 0x85, 0xe3, 0x3c,
  0x68, 0x3b, 0xdf, 0x3c, 0x98, 0xce, 0x07, 0xbc, 0xc6, 0x66, 0x96, 0x3e,
  0x38, 0xe4, 0xba, 0x3e, 0x62, 0x1b, 0xe6, 0xbd, 0x28, 0x68, 0x97, 0x3d,
  0xe0, 0x3f, 0x81, 0xbd, 0x90, 0x7b, 0x88, 0x3e, 0x70, 0x9c, 0x56, 0x3e,
  0x4f, 0x3f, 0x11, 0xbe, 0x0e, 0x99, 0xb6, 0xbe, 0x22, 0xdb, 0x4c, 0x3e,
  0x52, 0x57, 0x6b, 0x3e, 0x57, 0x5b, 0x96, 0xbc, 0x29, 0x63, 0xfb, 0xbd,
  0xed, 0x76, 0xe6, 0xbd, 0x46, 0x37, 0x3c, 0x3c, 0xca, 0x89, 0xe7, 0x3d,
  0x9d, 0xa0, 0x2c, 0xbe, 0x81, 0xbb, 0x4f, 0x3e, 0xa4, 0xb3, 0x7a, 0xbe,
  0xb1, 0xff, 0x44, 0xbd, 0x76, 0x00, 0x00, 0x3e, 0x26, 0x6b, 0xe0, 0xbe,
  0xb5, 0xdf, 0x8b, 0xbe, 0xf1, 0x33, 0x05, 0xbd, 0x2b, 0xb0, 0xc8, 0xbc,
  0x6d, 0xc7, 0x5a, 0x3e, 0xaf, 0x27, 0xc4, 0x3e, 0xed, 0x1a, 0x9b, 0x3d,
  0x2f, 0x46, 0x42, 0xbb, 0x22, 0xd7, 0xff, 0xff, 0x10, 0x00, 0x00, 0x00,
  0x0d, 0x00, 0x00, 0x00, 0x1c, 0x00, 0x00, 0x00, 0x48, 0x00, 0x00, 0x00,
  0x04, 0x00, 0x00, 0x00, 0x10, 0x00, 0x00, 0x00, 0x04, 0x00, 0x00, 0x00,
  0x01, 0x00, 0x00, 0x00, 0x08, 0x00, 0x00, 0x00, 0x29, 0x00, 0x00, 0x00,
  0x73, 0x65, 0x71, 0x75, 0x65, 0x6e, 0x74, 0x69, 0x61, 0x6c, 0x2f, 0x63,
  0x6f, 0x6e, 0x76, 0x32, 0x64, 0x5f, 0x31, 0x2f, 0x43, 0x6f, 0x6e, 0x76,
  0x32, 0x44, 0x2f, 0x52, 0x65, 0x61, 0x64, 0x56, 0x61, 0x72, 0x69, 0x61,
  0x62, 0x6c, 0x65, 0x4f, 0x70, 0x00, 0x00, 0x00, 0x4c, 0xd6, 0xff, 0xff,
  0x00, 0x08, 0x00, 0x00, 0x5c, 0x7b, 0xf2, 0x3d, 0x4f, 0x0b, 0x03, 0xbe,
  0xd6, 0x9d, 0x1c, 0xbe, 0xd2, 0x31, 0x7c, 0xbe, 0x22, 0x68, 0xd5, 0xbd,
  0xbd, 0xa8, 0xa1, 0x3d, 0x65, 0x71, 0x10, 0x3d, 0x50, 0xf2, 0x1f, 0xbd,
  0x1f, 0xd6, 0xa9, 0xbd, 0xf7, 0x29, 0xc7, 0x3a, 0x38, 0x57, 0x83, 0xbc,
  0x24, 0xb1, 0x84, 0x3e, 0xad, 0x66, 0x40, 0xbe, 0x23, 0x7b, 0xa2, 0x3c,
  0xe9, 0xcf, 0x3b, 0xbd, 0xe3, 0x82, 0x3c, 0x3d, 0xa0, 0xf0, 0x64, 0xbe,
  0xe0, 0xa8, 0x55, 0xbd, 0x95, 0x26, 0x44, 0x3d, 0x9f, 0x08, 0xbf, 0xbd,
  0x2d, 0x2c, 0xdd, 0x3e, 0x28, 0xd4, 0x56, 0xbc, 0x09, 0x0c, 0x61, 0xbe,
  0x99, 0xb2, 0x81, 0x3d, 0x4a, 0xd4, 0xc0, 0xbd, 0x72, 0xc1, 0x6d, 0xbe,
  0xbd, 0xd2, 0x59, 0xbe, 0x44, 0x63, 0x81, 0xbd, 0x94, 0xfa, 0xab, 0xbe,
  0xe5, 0x00, 0x3c, 0xbe, 0xde, 0x35, 0x8a, 0xbe, 0xee, 0xf8, 0xe0, 0xbe,
  0x44, 0x44, 0x11, 0xbd, 0xe8, 0x05, 0xb0, 0xbe, 0xf5, 0xf4, 0x3e, 0xbe,
  0x5d, 0x90, 0xcc, 0x3c, 0x2a, 0x96, 0x2a, 0xbe, 0xe3, 0xdd, 0xea, 0xbe,
  0x1c, 0xe6, 0x87, 0xbd, 0x92, 0xc9, 0x34, 0xbe, 0xf4, 0xb6, 0xf3, 0x3d,
  0x21, 0xb4, 0xd8, 0xbe, 0xb5, 0x62, 0xe2, 0xbc, 0xc1, 0xf9, 0xb7, 0x3e,
  0x18, 0xc8, 0xfe, 0xbe, 0xf4, 0x27, 0x1b, 0x3e, 0xa4, 0x94, 0xf8, 0xbc,
  0x54, 0x9a, 0x90, 0xbe, 0xf7, 0x96, 0x6e, 0xbd, 0x67, 0xb1, 0xb4, 0xbe,
  0xca, 0xa0, 0xb2, 0x3e, 0x7e, 0xab, 0x80, 0x3e, 0xe5, 0x28, 0xc1, 0x3d,
  0x0b, 0x28, 0x3a, 0x3e, 0xbe, 0x76, 0xac, 0xbc, 0xc8, 0x81, 0x23, 0xbf,
  0x18, 0xbd, 0xd6, 0xbd, 0x7d, 0xff, 0xfc, 0x3d, 0x10, 0xde, 0x2b, 0xbc,
  0xdd, 0xbd, 0xdd, 0xbe, 0x38, 0x81, 0x7b, 0xbb, 0x3d, 0xbc, 0x74, 0x3e,
  0xd6, 0xcc, 0x6e, 0xbd, 0x8c, 0x9c, 0x05, 0xbf, 0x0a, 0x79, 0x8b, 0x3e,
  0xda, 0x54, 0x16, 0x3d, 0x37, 0xe2, 0xe6, 0xbc, 0x2d, 0xf3, 0x21, 0x3e,
  0x0e, 0xd0, 0xbf, 0x3c, 0x31, 0x0d, 0x06, 0x3e, 0x08, 0x42, 0xdd, 0xbe,
  0xda, 0xfd, 0x4d, 0xbe, 0xb8, 0xd6, 0x9c, 0xbd, 0x63, 0xb7, 0xca, 0x3e,
  0xa1, 0x9c, 0x5f, 0xbc, 0x8f, 0xd0, 0x9e, 0x3e, 0x43, 0x08, 0xfa, 0xbd,
  0x59, 0x50, 0x98, 0x3d, 0x97, 0x6c, 0xaf, 0xbe, 0x68, 0x65, 0x57, 0xbd,
  0xf8, 0x59, 0x9c, 0x3d, 0x77, 0xdf, 0x4c, 0xbe, 0xcd, 0x8a, 0x2b, 0x3e,
  0xf5, 0x83, 0x81, 0x3d, 0x5c, 0x98, 0x9a, 0x3d, 0xf0, 0xec, 0x1f, 0x3c,
  0x6f, 0x1c, 0x89, 0xbe, 0x67, 0xb4, 0x4b, 0xbe, 0x20, 0x97, 0x0e, 0x3f,
  0xb6, 0xc5, 0x65, 0x3e, 0xac, 0xa2, 0x01, 0x3c, 0xbd, 0xd4, 0xd7, 0x3d,
  0x83, 0x99, 0xad, 0xbd, 0x09, 0x8f, 0x39, 0x3d, 0x12, 0xab, 0x86, 0xbe,
  0x5f, 0x48, 0x35, 0xbe, 0x1a, 0x5c, 0x0b, 0x3e, 0x84, 0xe4, 0xf6, 0xbb,
  0x9f, 0x79, 0x2c, 0xbd, 0x4b, 0x89, 0x06, 0x3e, 0xb8, 0x80, 0x8d, 0xbe,
  0x03, 0x4d, 0xab, 0xbd, 0xa9, 0x4d, 0x90, 0xbe, 0x74, 0x75, 0x3b, 0xbe,
  0xb2, 0xb4, 0x35, 0x3e, 0xa5, 0x7b, 0x3c, 0xbe, 0xfa, 0xd7, 0x87, 0xbe,
  0x03, 0xba, 0xc3, 0x3e, 0xc3, 0x2f, 0xca, 0x3e, 0x75, 0x18, 0x9e, 0xbb,
  0x5b, 0x68, 0xc6, 0xbe, 0x2d, 0x7d, 0x8f, 0xbd, 0x1c, 0x2d, 0x87, 0xbd,
  0xd8, 0xf1, 0x37, 0x3e, 0x46, 0xcd, 0xe2, 0x3c, 0xe0, 0x15, 0xf0, 0x3c,
  0x00, 0x44, 0x0b, 0xbe, 0x11, 0xea, 0x2a, 0x3e, 0x3f, 0xe2, 0x91, 0xbe,
  0xb6, 0xe9, 0xe4, 0xbd, 0xb2, 0xc3, 0x96, 0x3e, 0xc2, 0x79, 0x9c, 0x3d,
  0x2d, 0x22, 0x05, 0x3e, 0xe9, 0x3a, 0x8e, 0x3d, 0x25, 0x92, 0x93, 0x3d,
  0x87, 0xcc, 0x39, 0x3d, 0x36, 0x47, 0x71, 0xbe, 0x82, 0x6d, 0x80, 0xbd,
  0xa7, 0xa0, 0xa6, 0xbe, 0x2a, 0xab, 0xe0, 0xbd, 0x78, 0xa5, 0xa7, 0xbe,
  0x82, 0x6e, 0xe3, 0xbe, 0x70, 0x20, 0x2e, 0xbe, 0x99, 0xeb, 0x65, 0x3e,
  0x44, 0xcb, 0x8e, 0xbd, 0xa7, 0x3a, 0x17, 0xbe, 0xcc, 0xa2, 0x79, 0x3d,
  0x31, 0x0e, 0x00, 0xbd, 0xae, 0xfd, 0x95, 0xbe, 0xa7, 0xeb, 0x94, 0x3d,
  0xa7, 0x52, 0x63, 0x3d, 0xed, 0x20, 0x75, 0xbd, 0x7e, 0x6a, 0x8f, 0xbd,
  0x73, 0x6a, 0x73, 0xbd, 0x37, 0xb4, 0x2a, 0x3e, 0xed, 0xf5, 0xd1, 0x3c,
  0x84, 0x12, 0x0f, 0x3e, 0x56, 0xc4, 0xd2, 0x3d, 0x99, 0x4e, 0x5c, 0x3d,
  0x6b, 0xdb, 0xce, 0xbd, 0xea, 0x1c, 0x46, 0xbd, 0xff, 0xea, 0x4d, 0x3d,
  0x21, 0xd1, 0x61, 0x3d, 0x41, 0x11, 0x28, 0xbd, 0x96, 0xb0, 0xa9, 0x3e,
  0xa7, 0x62, 0xbd, 0x3e, 0x26, 0x78, 0x68, 0xbe, 0xa2, 0x3c, 0x38, 0xbb,
  0x8b, 0x3b, 0x6c, 0x3d, 0xe4, 0x07, 0xaf, 0xbd, 0x18, 0x62, 0xe2, 0xbd,
  0x64, 0xb3, 0x44, 0xbe, 0x57, 0x70, 0x0c, 0xbe, 0x36, 0x2d, 0x72, 0x3d,
  0xbb, 0xe2, 0x94, 0x3d, 0x08, 0x4f, 0xe8, 0xbd, 0xea, 0x27, 0xcd, 0xbc,
  0x45, 0x3b, 0x70, 0x3e, 0x65, 0x9c, 0x60, 0x3e, 0xe6, 0xb4, 0xa8, 0x3d,
  0x80, 0x97, 0x1f, 0x3e, 0x9b, 0xa2, 0x13, 0x3e, 0xb3, 0xbe, 0x8d, 0xbc,
  0xbb, 0x90, 0x9d, 0x3c, 0x78, 0xb1, 0x29, 0x3e, 0x47, 0x41, 0x4c, 0x3d,
  0xf5, 0xb0, 0x32, 0xbd, 0x19, 0xe0, 0x1f, 0xbd, 0xb0, 0x9c, 0x85, 0x3c,
  0xc9, 0x34, 0xad, 0xbc, 0x0b, 0x54, 0xeb, 0x3d, 0xd5, 0x18, 0x07, 0xbe,
  0x1f, 0xc3, 0x7d, 0xbd, 0x99, 0x89, 0x1f, 0x3d, 0xd9, 0xe6, 0x1d, 0xbe,
  0x32, 0xb0, 0xd5, 0x39, 0x37, 0x19, 0x73, 0x3c, 0x8d, 0x7c, 0x5f, 0xbe,
  0x47, 0xcc, 0x9d, 0x3d, 0x37, 0x98, 0xdf, 0xbd, 0x9f, 0xe9, 0xc2, 0x3e,
  0xd7, 0xd5, 0x99, 0xbc, 0x58, 0x4d, 0x8c, 0x3e, 0x29, 0x3d, 0xef, 0x3e,
  0x2f, 0x7c, 0x07, 0xbd, 0xff, 0xde, 0x39, 0x3e, 0x09, 0x0f, 0x94, 0xbd,
  0x34, 0xf7, 0x48, 0xbe, 0xf3, 0x2e, 0xf3, 0xbc, 0x89, 0xd8, 0xac, 0x3e,
  0x89, 0x4b, 0x6d, 0xbe, 0x70, 0x2a, 0xb2, 0xbe, 0x9b, 0x57, 0x09, 0xbe,
  0x62, 0xfd, 0x89, 0xbe, 0x52, 0x05, 0x6d, 0xbe, 0xff, 0x99, 0x50, 0xbe,
  0x53, 0x01, 0xb4, 0xbc, 0x1c, 0xba, 0x76, 0xbe, 0xf8, 0xd4, 0xc4, 0xbe,
  0x67, 0x4d, 0xdc, 0xbe, 0xc0, 0x0b, 0x43, 0xbe, 0x60, 0x4b, 0x6a, 0xbd,
  0x8b, 0xc1, 0xdc, 0xbc, 0xd7, 0x9e, 0xf2, 0x3d, 0x3c, 0x10, 0x0e, 0x3b,
  0xb2, 0x47, 0xb0, 0xbe, 0x0b, 0x47, 0x70, 0x3e, 0xbe, 0xe0, 0x4d, 0xbe,
  0x11, 0x07, 0xb3, 0x3e, 0xe4, 0x59, 0x8b, 0x3e, 0x50, 0xec, 0x09, 0xbe,
  0x49, 0xe8, 0x71, 0x3e, 0xe9, 0xfc, 0xb7, 0x3c, 0x44, 0xbc, 0x97, 0xbe,
  0xd2, 0x1f, 0x10, 0x3e, 0xdf, 0x77, 0xf6, 0xbe, 0x49, 0x66, 0xdc, 0xbd,
  0xfd, 0xd5, 0xea, 0xbd, 0x71, 0x76, 0x50, 0xbe, 0x92, 0x53, 0xcf, 0xbe,
  0x19, 0xcf, 0xa7, 0xbe, 0xdd, 0xb6, 0x09, 0xbf, 0x93, 0x5c, 0x4c, 0xbe,
  0x0c, 0x88, 0x84, 0xbd, 0x13, 0x4e, 0x55, 0xbe, 0x54, 0x74, 0x5b, 0xbe,
  0x78, 0x56, 0x1d, 0xbd, 0xa8, 0x43, 0x65, 0x3d, 0xa6, 0x66, 0xa0, 0xbd,
  0x52, 0x3c, 0xe0, 0x3e, 0xe3, 0xa0, 0x0d, 0xbe, 0xa9, 0x22, 0xc5, 0x3c,
  0x9c, 0x7f, 0xe3, 0xbd, 0xe9, 0x29, 0x65, 0xbe, 0x16, 0x94, 0x37, 0x3d,
  0x24, 0x6d, 0x47, 0xbe, 0xda, 0x27, 0xaa, 0xbd, 0xec, 0x07, 0x03, 0xbd,
  0xd9, 0x97, 0x8f, 0x3d, 0x23, 0xca, 0x2b, 0xbd, 0x0e, 0x5a, 0x45, 0xbd,
  0x41, 0x51, 0x82, 0x3d, 0x31, 0x42, 0x28, 0x3c, 0x25, 0x87, 0xba, 0x3d,
  0x8e, 0x08, 0xae, 0x3c, 0x9e, 0x53, 0xdc, 0xbc, 0x92, 0x0c, 0x0c, 0x3c,
  0xa9, 0x57, 0xb9, 0xbe, 0x99, 0x09, 0xcd, 0xbe, 0xe8, 0x1d, 0x14, 0xbe,
  0x18, 0x2b, 0xd8, 0x3e, 0xa8, 0xc8, 0x2b, 0x3d, 0x11, 0x2e, 0x8e, 0xbe,
  0xc5, 0xb6, 0xf0, 0xbd, 0x63, 0x33, 0x30, 0xbb, 0x1f, 0x82, 0x08, 0xbe,
  0x3a, 0xda, 0x57, 0xbe, 0x1d, 0x4b, 0x68, 0x3e, 0xcd, 0xef, 0x1d, 0x3f,
  0x17, 0x66, 0x93, 0xbd, 0x4e, 0x15, 0xbc, 0xbe, 0x6b, 0x5a, 0xcc, 0xbc,
  0xd4, 0xf3, 0xc1, 0x3d, 0xf0, 0x4b, 0xb9, 0xbc, 0xfc, 0x3b, 0xef, 0x3d,
  0x69, 0x20, 0x2d, 0x3e, 0x2c, 0x82, 0xe6, 0xbd, 0xb7, 0xad, 0x8e, 0xbe,
  0x74, 0xee, 0x90, 0xbd, 0xb7, 0xb9, 0x21, 0xbd, 0xe3, 0xc8, 0xdd, 0xbd,
  0x5d, 0x4b, 0x29, 0xbe, 0xef, 0xe0, 0x50, 0xbd, 0x51, 0x48, 0x47, 0xbd,
  0x55, 0x28, 0x2b, 0xbe, 0x64, 0xa8, 0xc6, 0xbe, 0xe6, 0xc0, 0xea, 0x3c,
  0xfd, 0x68, 0x40, 0xbd, 0x7c, 0x24, 0xa9, 0xbe, 0xd1, 0x4a, 0x51, 0x3b,
  0x03, 0x7c, 0x0f, 0xbc, 0x8e, 0x11, 0x36, 0xbc, 0x37, 0xcf, 0x14, 0xbe,
  0x99, 0x4f, 0xe1, 0x3d, 0x0a, 0xd3, 0xb6, 0xbd, 0x8e, 0x11, 0x12, 0xbe,
  0x07, 0x61, 0xfe, 0xbd, 0x01, 0xf4, 0x08, 0xbe, 0xb6, 0xd5, 0x97, 0x3b,
  0x6d, 0x2c, 0x1c, 0x3c, 0xf5, 0x1e, 0x80, 0xbd, 0x98, 0x28, 0x43, 0x3c,
  0x86, 0x8e, 0x05, 0x3e, 0x76, 0xd5, 0x07, 0xbe, 0x06, 0xfa, 0xd5, 0xbd,
  0xe0, 0xc4, 0x9a, 0xbd, 0x7b, 0xfb, 0x50, 0x3e, 0xf7, 0xfc, 0x97, 0xbd,
  0xc7, 0xfd, 0x10, 0x3e, 0x48, 0xe4, 0x17, 0x3c, 0x93, 0xb7, 0x89, 0x3e,
  0xaf, 0xef, 0xd0, 0xbd, 0x82, 0x53, 0x03, 0xbe, 0x9b, 0x1d, 0x24, 0xbe,
  0xac, 0x52, 0x65, 0x3e, 0x24, 0x4e, 0x1a, 0x3c, 0xc1, 0x77, 0xab, 0xbe,
  0xfe, 0x27, 0x6d, 0xbe, 0x7a, 0xda, 0xe9, 0x3d, 0x0c, 0xbc, 0xb1, 0x3d,
  0x24, 0x46, 0x87, 0x3e, 0x3d, 0x31, 0xc8, 0x3d, 0xae, 0x82, 0x32, 0x3d,
  0x68, 0xb7, 0x0c, 0x3e, 0x1a, 0x99, 0x52, 0xbe, 0xe9, 0x4f, 0x81, 0xbe,
  0xec, 0x08, 0x27, 0xbe, 0xd7, 0xa2, 0xd9, 0x3d, 0x09, 0x55, 0x12, 0x3e,
  0x74, 0xee, 0x88, 0xbe, 0xc4, 0x92, 0x92, 0xbc, 0xc8, 0x69, 0xa9, 0xbc,
  0xca, 0xc9, 0x66, 0xbe, 0x76, 0x69, 0xb1, 0xbe, 0xba, 0x9d, 0x0a, 0xbd,
  0xb2, 0xfc, 0xa4, 0xbd, 0x7a, 0xe4, 0xeb, 0xbd, 0x4c, 0x2d, 0xc0, 0xbe,
  0xa7, 0x52, 0x0b, 0xbf, 0xf4, 0xfd, 0xdc, 0xbe, 0xd6, 0x9d, 0xfc, 0xbd,
  0x3d, 0xbf, 0x22, 0xbd, 0x77, 0xd6, 0x7e, 0xbc, 0x1b, 0x5e, 0x95, 0xbd,
  0x89, 0x99, 0xd9, 0xbd, 0x34, 0xe0, 0x46, 0xbd, 0x66, 0x50, 0x0a, 0xbd,
  0x88, 0xdd, 0x9b, 0x3d, 0xad, 0x73, 0x49, 0x3f, 0x37, 0x13, 0xd8, 0x3d,
  0x9d, 0x59, 0x12, 0xbe, 0xce, 0xcb, 0x45, 0xbb, 0xe4, 0xd1, 0xf4, 0x3d,
  0x43, 0x6c, 0x2d, 0x3e, 0x40, 0x01, 0x54, 0xbd, 0x02, 0x10, 0xcd, 0x3e,
  0xd9, 0xc1, 0x59, 0x3d, 0x83, 0xd7, 0x06, 0x3e, 0x7b, 0x5d, 0x0e, 0xbf,
  0xdf, 0xa4, 0x8e, 0x3d, 0x3f, 0x68, 0xe5, 0x3d, 0xb6, 0x66, 0x6d, 0x3e,
  0x53, 0x51, 0x97, 0x3c, 0xf5, 0xe9, 0x57, 0x3e, 0x86, 0xc5, 0x4e, 0xbc,
  0x1a, 0xdb, 0xa7, 0xbe, 0x39, 0x06, 0x61, 0xbe, 0x26, 0xdc, 0xee, 0xbb,
  0x2a, 0x18, 0x02, 0x3e, 0xaa, 0x7b, 0xc8, 0x3d, 0xf5, 0x1a, 0x0d, 0x3e,
  0xca, 0x88, 0x0b, 0xbd, 0xb3, 0xd5, 0x86, 0xbe, 0xfd, 0xc9, 0x69, 0xbe,
  0xee, 0x02, 0x22, 0xbe, 0x07, 0x05, 0x2b, 0xbe, 0xe8, 0x66, 0x49, 0xbe,
  0x2a, 0x56, 0xab, 0xbe, 0xb9, 0x15, 0x93, 0xbe, 0x7d, 0xb1, 0x35, 0x3e,
  0x69, 0x2d, 0x29, 0x3e, 0xd4, 0x81, 0xb0, 0x3d, 0x8b, 0xfe, 0x85, 0xbc,
  0xa1, 0x25, 0xb3, 0xbe, 0xfe, 0x09, 0xc2, 0xbe, 0x64, 0xfe, 0x1c, 0xbe,
  0x11, 0x53, 0x00, 0xbf, 0x3c, 0x48, 0x07, 0xbf, 0x95, 0x20, 0x53, 0xbe,
  0xf3, 0x66, 0x5a, 0xbd, 0x5c, 0xff, 0x8f, 0xbd, 0xac, 0x7e, 0xf0, 0xbe,
  0xff, 0xf7, 0xb2, 0x3d, 0x11, 0xfe, 0xa6, 0xbe, 0xd9, 0x5b, 0x3c, 0xbc,
  0x4f, 0x84, 0xbf, 0x3d, 0xe8, 0x07, 0xe1, 0xbc, 0xbe, 0xc9, 0x26, 0x3d,
  0x61, 0x17, 0xc1, 0x3c, 0x97, 0xc3, 0xb9, 0xbe, 0x29, 0x2c, 0x4e, 0x3c,
  0xca, 0x42, 0x12, 0xbe, 0x6d, 0x6b, 0xba, 0x3e, 0x75, 0x87, 0x29, 0x3e,
  0xec, 0x64, 0xbf, 0x3d, 0xfb, 0xf1, 0x9e, 0x3e, 0x82, 0x12, 0xfb, 0xbc,
  0xe0, 0xe9, 0xaa, 0xbe, 0x7a, 0x60, 0x91, 0xbb, 0x6d, 0xac, 0x4d, 0x3c,
  0x32, 0x92, 0xf5, 0x3c, 0x33, 0xc6, 0xc0, 0x3d, 0x06, 0x65, 0x1b, 0x3e,
  0x46, 0xac, 0xeb, 0x3e, 0x84, 0x09, 0x56, 0xbd, 0xba, 0x99, 0x4c, 0xbe,
  0xa4, 0x6f, 0xe0, 0xbd, 0x5e, 0x3f, 0x5d, 0xbc, 0x77, 0x86, 0x82, 0xbd,
  0xe0, 0x8a, 0xa9, 0xbd, 0x01, 0x25, 0xaa, 0xbd, 0xda, 0xe5, 0x31, 0x3d,
  0x90, 0xe5, 0x5c, 0xbd, 0x1b, 0x73, 0x97, 0xbd, 0x66, 0x68, 0xc1, 0x3e,
  0x8b, 0xc7, 0xff, 0xbd, 0x81, 0xd3, 0x49, 0xbd, 0xdc, 0x6e, 0xb5, 0x3e,
  0x89, 0xe3, 0x90, 0xbd, 0x88, 0xa0, 0x53, 0xbd, 0x17, 0x0d, 0x6e, 0xbd,
  0x08, 0xfc, 0x6a, 0xbd, 0xf1, 0xe3, 0x16, 0x3e, 0x5d, 0x70, 0x20, 0x3d,
  0x67, 0x87, 0x74, 0x3d, 0x52, 0x8c, 0x6a, 0x3e, 0x81, 0x83, 0x97, 0x3c,
  0x8d, 0x9a, 0xcf, 0x3e, 0xef, 0x90, 0x43, 0xbd, 0xb2, 0x46, 0x2a, 0xbd,
  0x28, 0x50, 0x91, 0xbd, 0xe4, 0x7b, 0x86, 0x3d, 0xdd, 0x86, 0x76, 0x3d,
  0x2b, 0x39, 0x56, 0xbe, 0x97, 0xf6, 0x12, 0xbd, 0x17, 0x88, 0xa1, 0x3e,
  0xa5, 0xbd, 0x15, 0xbd, 0x20, 0xc7, 0xed, 0xbc, 0x34, 0x46, 0x0a, 0x3e,
  0xc3, 0x07, 0x79, 0xbe, 0x40, 0x7e, 0x8e, 0xbe, 0x2c, 0x2c, 0x2a, 0x3c,
  0x1f, 0x6a, 0xfe, 0xbe, 0x46, 0xfc, 0xc3, 0xbe, 0xe0, 0xae, 0xa3, 0xbd,
  0xa5, 0x56, 0x45, 0x3d, 0x61, 0x07, 0x17, 0xbe, 0x62, 0x90, 0x25, 0xbe,
  0x45, 0x0c, 0xe3, 0xbc, 0xf1, 0xfd, 0x86, 0xbe, 0x29, 0x11, 0xc9, 0xbb,
  0xfc, 0xfa, 0x9c, 0xbe, 0xaa, 0xec, 0xae, 0x3c, 0x23, 0xba, 0x04, 0x3e,
  0xea, 0xb5, 0xfd, 0x3d, 0x79, 0x23, 0x90, 0x3d, 0x16, 0x03, 0x3f, 0xbe,
  0x35, 0x53, 0x3c, 0x3d, 0xa9, 0xad, 0x85, 0xbd, 0xf0, 0x29, 0x53, 0xbe,
  0x80, 0x89, 0x9a, 0xbd, 0xc3, 0xda, 0xd1, 0xbc, 0xcc, 0x40, 0xbd, 0x3d,
  0x19, 0x17, 0x25, 0x3e, 0xd6, 0x85, 0x95, 0xbd, 0x8d, 0x83, 0x11, 0x3e,
  0x10, 0xdc, 0xbe, 0xbe, 0x3c, 0x4c, 0x75, 0xbe, 0x1d, 0x7d, 0x91, 0xbe,
  0x37, 0x85, 0x7b, 0x3d, 0x0a, 0xcc, 0x6f, 0xbb, 0x4e, 0x4e, 0x91, 0xbe,
  0xec, 0xe0, 0xf7, 0xbd, 0xd7, 0xbd, 0x58, 0xbd, 0x71, 0x04, 0x24, 0xbe,
  0x0e, 0x31, 0xf9, 0xbd, 0x60, 0x9c, 0x1b, 0xbd, 0x39, 0x41, 0x24, 0x3c,
  0x5e, 0x79, 0x06, 0x3c, 0xb0, 0xa1, 0x1a, 0xbd, 0xaa, 0x37, 0x8d, 0xbe,
  0x3a, 0xdd, 0x86, 0x3d, 0xe6, 0x86, 0xac, 0x3d, 0xaf, 0xf4, 0x0f, 0xbe,
  0x29, 0x01, 0xf6, 0xbb, 0x25, 0xa6, 0xff, 0xbd, 0x30, 0xca, 0x42, 0xbd,
  0x33, 0x5b, 0xf5, 0xbd, 0x5b, 0x4f, 0x16, 0xbe, 0xca, 0xab, 0x42, 0xbe,
  0xe2, 0xc4, 0x64, 0xbd, 0xb0, 0xf3, 0xa8, 0xbe, 0xc0, 0x2d, 0xe0, 0x3c,
  0x0b, 0x7c, 0xa2, 0x3c, 0x53, 0x24, 0x5c, 0xbd, 0xfc, 0x79, 0x97, 0xbe,
  0xf8, 0xe7, 0xba, 0xbd, 0x3d, 0x33, 0x79, 0xbe, 0x91, 0xb6, 0xe1, 0xbd,
  0x1a, 0x2e, 0xe5, 0x3e, 0x76, 0xfe, 0x38, 0xbc, 0x63, 0x2a, 0x70, 0xbd,
  0x82, 0xdf, 0xff, 0xff, 0x10, 0x00, 0x00, 0x00, 0x0c, 0x00, 0x00, 0x00,
  0x1c, 0x00, 0x00, 0x00, 0x34, 0x00, 0x00, 0x00, 0x04, 0x00, 0x00, 0x00,
  0x01, 0x00, 0x00, 0x00, 0x40, 0x00, 0x00, 0x00, 0x03, 0x00, 0x00, 0x00,
  0x01, 0x00, 0x00, 0x00, 0x0c, 0x00, 0x00, 0x00, 0x63, 0x6f, 0x6e, 0x76,
  0x32, 0x64, 0x5f, 0x69, 0x6e, 0x70, 0x75, 0x74, 0x00, 0x00, 0x00, 0x00,
  0x08, 0x00, 0x0c, 0x00, 0x04, 0x00, 0x08, 0x00, 0x08, 0x00, 0x00, 0x00,
  0x10, 0x00, 0x00, 0x00, 0x04, 0x00, 0x00, 0x00, 0x01, 0x00, 0x00, 0x00,
  0x00, 0x00, 0x7f, 0x43, 0x01, 0x00, 0x00, 0x00, 0x00, 0x00, 0x00, 0x00,
  0xe2, 0xdf, 0xff, 0xff, 0x10, 0x00, 0x00, 0x00, 0x0b, 0x00, 0x00, 0x00,
  0x1c, 0x00, 0x00, 0x00, 0x38, 0x00, 0x00, 0x00, 0x04, 0x00, 0x00, 0x00,
  0x01, 0x00, 0x00, 0x00, 0x15, 0x00, 0x00, 0x00, 0x01, 0x00, 0x00, 0x00,
  0x10, 0x00, 0x00, 0x00, 0x18, 0x00, 0x00, 0x00, 0x73, 0x65, 0x71, 0x75,
  0x65, 0x6e, 0x74, 0x69, 0x61, 0x6c, 0x2f, 0x63, 0x6f, 0x6e, 0x76, 0x32,
  0x64, 0x5f, 0x31, 0x2f, 0x52, 0x65, 0x6c, 0x75, 0x00, 0x00, 0x00, 0x00,
  0xfc, 0xde, 0xff, 0xff, 0x2e, 0xe0, 0xff, 0xff, 0x10, 0x00, 0x00, 0x00,
  0x0a, 0x00, 0x00, 0x00, 0x1c, 0x00, 0x00, 0x00, 0x40, 0x00, 0x00, 0x00,
  0x04, 0x00, 0x00, 0x00, 0x01, 0x00, 0x00, 0x00, 0x07, 0x00, 0x00, 0x00,
  0x01, 0x00, 0x00, 0x00, 0x10, 0x00, 0x00, 0x00, 0x22, 0x00, 0x00, 0x00,
  0x73, 0x65, 0x71, 0x75, 0x65, 0x6e, 0x74, 0x69, 0x61, 0x6c, 0x2f, 0x6d,
  0x61, 0x78, 0x5f, 0x70, 0x6f, 0x6f, 0x6c, 0x69, 0x6e, 0x67, 0x32, 0x64,
  0x5f, 0x31, 0x2f, 0x4d, 0x61, 0x78, 0x50, 0x6f, 0x6f, 0x6c, 0x00, 0x00,
  0x50, 0xdf, 0xff, 0xff, 0x82, 0xe0, 0xff, 0xff, 0x10, 0x00, 0x00, 0x00,
  0x09, 0x00, 0x00, 0x00, 0x14, 0x00, 0x00, 0x00, 0x2c, 0x00, 0x00, 0x00,
  0x02, 0x00, 0x00, 0x00, 0x01, 0x00, 0x00, 0x00, 0x10, 0x00, 0x00, 0x00,
  0x15, 0x00, 0x00, 0x00, 0x73, 0x65, 0x71, 0x75, 0x65, 0x6e, 0x74, 0x69,
  0x61, 0x6c, 0x2f, 0x64, 0x65, 0x6e, 0x73, 0x65, 0x2f, 0x52, 0x65, 0x6c,
  0x75, 0x00, 0x00, 0x00, 0x90, 0xdf, 0xff, 0xff, 0xc2, 0xe0, 0xff, 0xff,
  0x10, 0x00, 0x00, 0x00, 0x08, 0x00, 0x00, 0x00, 0x14, 0x00, 0x00, 0x00,
  0x30, 0x00, 0x00, 0x00, 0x02, 0x00, 0x00, 0x00, 0x01, 0x00, 0x00, 0x00,
  0x03, 0x00, 0x00, 0x00, 0x1a, 0x00, 0x00, 0x00, 0x73, 0x65, 0x71, 0x75,
  0x65, 0x6e, 0x74, 0x69, 0x61, 0x6c, 0x2f, 0x64, 0x65, 0x6e, 0x73, 0x65,
  0x5f, 0x31, 0x2f, 0x42, 0x69, 0x61, 0x73, 0x41, 0x64, 0x64, 0x00, 0x00,
  0xd4, 0xdf, 0xff, 0xff, 0x06, 0xe1, 0xff, 0xff, 0x10, 0x00, 0x00, 0x00,
  0x07, 0x00, 0x00, 0x00, 0x14, 0x00, 0x00, 0x00, 0x20, 0x00, 0x00, 0x00,
  0x02, 0x00, 0x00, 0x00, 0x01, 0x00, 0x00, 0x00, 0x03, 0x00, 0x00, 0x00,
  0x08, 0x00, 0x00, 0x00, 0x49, 0x64, 0x65, 0x6e, 0x74, 0x69, 0x74, 0x79,
  0x00, 0x00, 0x00, 0x00, 0x08, 0xe0, 0xff, 0xff, 0x3a, 0xe1, 0xff, 0xff,
  0x10, 0x00, 0x00, 0x00, 0x06, 0x00, 0x00, 0x00, 0x14, 0x00, 0x00, 0x00,
  0x48, 0x00, 0x00, 0x00, 0x02, 0x00, 0x00, 0x00, 0x10, 0x00, 0x00, 0x00,
  0x70, 0x00, 0x00, 0x00, 0x30, 0x00, 0x00, 0x00, 0x73, 0x65, 0x71, 0x75,
  0x65, 0x6e, 0x74, 0x69, 0x61, 0x6c, 0x2f, 0x64, 0x65, 0x6e, 0x73, 0x65,
  0x2f, 0x4d, 0x61, 0x74, 0x4d, 0x75, 0x6c, 0x2f, 0x52, 0x65, 0x61, 0x64,
  0x56, 0x61, 0x72, 0x69, 0x61, 0x62, 0x6c, 0x65, 0x4f, 0x70, 0x2f, 0x74,
  0x72, 0x61, 0x6e, 0x73, 0x70, 0x6f, 0x73, 0x65, 0x00, 0x00, 0x00, 0x00,
  0x64, 0xe0, 0xff, 0xff, 0x00, 0x1c, 0x00, 0x00, 0x5d, 0x20, 0x00, 0xbe,
  0x3e, 0x6f, 0xbf, 0x3e, 0x6e, 0xef, 0xcb, 0xbe, 0x2c, 0xc8, 0xab, 0xbe,
  0x3f, 0x2e, 0x7c, 0xbd, 0xe8, 0x5c, 0xe1, 0x3a, 0x36, 0x36, 0x25, 0xbe,
  0x7e, 0x82, 0x6a, 0xbf, 0x87, 0x5c, 0xd2, 0xbe, 0xf4, 0xb2, 0x61, 0x3d,
  0x2c, 0xc0, 0x86, 0xbe, 0xc7, 0x04, 0xb9, 0xbe, 0x8e, 0x5e, 0xb8, 0xbd,
  0xa1, 0x3a, 0xaf, 0x3e, 0xeb, 0x13, 0x21, 0x3d, 0x39, 0x7a, 0xf9, 0x3d,
  0x1f, 0x85, 0x0f, 0xbe, 0x1e, 0x9f, 0x7c, 0x3e, 0xa7, 0xea, 0xad, 0xbe,
  0xe3, 0x9e, 0x92, 0xbe, 0x82, 0xe9, 0x19, 0x3f, 0xce, 0x8b, 0x1b, 0xbd,
  0xd2, 0x7a, 0x09, 0xbe, 0x30, 0x0b, 0x86, 0x3e, 0x30, 0x2f, 0xd1, 0xbe,
  0xad, 0x60, 0x9e, 0x3c, 0x9e, 0x87, 0x7b, 0xbe, 0x4d, 0x04, 0xdd, 0xbe,
  0x20, 0x52, 0x41, 0x3b, 0x7f, 0xbc, 0x93, 0x3d, 0x33, 0x8a, 0x3d, 0xbe,
  0x12, 0x7e, 0xe4, 0x3d, 0xe3, 0x39, 0xd8, 0xbd, 0x98, 0x6e, 0xfb, 0x3e,
  0x9f, 0xc0, 0x48, 0xbe, 0x97, 0xad, 0x0d, 0xbe, 0x32, 0x3f, 0x1f, 0x3f,
  0x9b, 0x8d, 0xaf, 0xba, 0xa8, 0x7a, 0x89, 0x3d, 0x0f, 0x51, 0x93, 0x3e,
  0x2f, 0xb9, 0xca, 0xbd, 0x8b, 0x01, 0x8d, 0x3c, 0x8a, 0x74, 0xc1, 0x3d,
  0x46, 0x0c, 0xa6, 0xbb, 0xa2, 0x78, 0x95, 0xbe, 0xf2, 0xd2, 0x91, 0x3e,
  0xf7, 0x03, 0xf3, 0xbd, 0x1c, 0xa5, 0x19, 0x3e, 0x25, 0xb1, 0x23, 0xbe,
  0xf2, 0xf3, 0xe2, 0x3e, 0x8a, 0xf7, 0xf5, 0xbe, 0x06, 0xd0, 0xb7, 0xbd,
  0xd0, 0x30, 0xbc, 0x3e, 0x31, 0x56, 0x7b, 0xbc, 0x0c, 0x5b, 0xa8, 0x3d,
  0x89, 0xa6, 0x22, 0x3e, 0x9b, 0xf3, 0xea, 0xbc, 0x0b, 0x54, 0xb5, 0x3c,
  0x3e, 0x21, 0x00, 0x39, 0x26, 0xd2, 0x8e, 0xbd, 0xfa, 0xd6, 0x82, 0x3d,
  0xb3, 0x19, 0x2d, 0x3c, 0x6c, 0x03, 0xe2, 0xbc, 0x72, 0x5c, 0x6c, 0x3e,
  0xdc, 0xd2, 0x0d, 0xbe, 0x3d, 0x93, 0x9e, 0x3d, 0xa2, 0x16, 0xb1, 0xbe,
  0xfe, 0xe5, 0x0d, 0xbf, 0xe3, 0xb6, 0xaf, 0x3e, 0x7a, 0xbe, 0x81, 0xbc,
  0x28, 0xf3, 0x0e, 0x3e, 0x8a, 0x0b, 0x3b, 0x3c, 0xd4, 0x79, 0x86, 0x3d,
  0x7a, 0x2c, 0x16, 0xbd, 0x4b, 0x8f, 0xe8, 0xbd, 0x2e, 0x90, 0x49, 0xbe,
  0x19, 0xa0, 0xa6, 0x3d, 0x3e, 0xec, 0x31, 0x3e, 0x74, 0xce, 0xa5, 0xbd,
  0x2f, 0xce, 0x64, 0xbd, 0x2d, 0x62, 0xc9, 0xbd, 0xdd, 0xad, 0xa1, 0x3e,
  0x74, 0x80, 0x93, 0xbe, 0x48, 0xfe, 0x95, 0xbe, 0x6d, 0xdf, 0xa0, 0x3e,
  0xf5, 0x30, 0x29, 0xbd, 0x0b, 0x1a, 0x86, 0x3e, 0x35, 0xd0, 0xa5, 0x3d,
  0xa5, 0x9c, 0xfe, 0xbe, 0x1e, 0x34, 0x54, 0xbd, 0x21, 0x2d, 0x79, 0xbd,
  0x7c, 0x0a, 0xdf, 0xbe, 0xb5, 0xb9, 0x84, 0x3e, 0xed, 0x88, 0x5a, 0x3e,
  0xf9, 0x65, 0xcc, 0xbd, 0x19, 0x88, 0x87, 0x3e, 0xd0, 0x26, 0xb9, 0xbc,
  0x66, 0xcd, 0x50, 0x3e, 0xc3, 0xa8, 0xa4, 0x3b, 0xd5, 0xb2, 0xa5, 0xbd,
  0x4c, 0x5f, 0xa5, 0x3e, 0x7f, 0x1f, 0xcd, 0xbb, 0x27, 0x2a, 0xc3, 0xbd,
  0x29, 0x91, 0x9b, 0xbd, 0xf2, 0x35, 0x2f, 0xbe, 0x48, 0x96, 0xd9, 0x3b,
  0xaf, 0x7c, 0x73, 0x3b, 0x14, 0xac, 0xb8, 0xbd, 0xab, 0x79, 0x6e, 0xbb,
  0xe2, 0x91, 0xec, 0x3c, 0x1b, 0xbf, 0x6b, 0xbe, 0xc3, 0x25, 0xe0, 0xbe,
  0x9f, 0x55, 0xb9, 0x3e, 0x38, 0x20, 0x73, 0xbe, 0xfd, 0x05, 0x1f, 0xbd,
  0xd7, 0x8c, 0x21, 0xbd, 0xc7, 0xce, 0xfc, 0xbd, 0x6a, 0xd0, 0x92, 0xbe,
  0x2a, 0xf0, 0x8f, 0xbe, 0x39, 0x9f, 0x1b, 0x3f, 0xc8, 0x2e, 0x4a, 0xbe,
  0xd4, 0x73, 0x55, 0xbe, 0xf6, 0x51, 0xcd, 0x3d, 0x21, 0xce, 0xe7, 0x3a,
  0x9c, 0x47, 0xd1, 0xbc, 0x72, 0x86, 0xd5, 0x3c, 0x43, 0xc7, 0x1f, 0x3e,
  0x46, 0xe6, 0x08, 0x3e, 0x98, 0x13, 0x36, 0x3e, 0x24, 0xfd, 0x16, 0xbe,
  0x97, 0x04, 0x87, 0x3e, 0x13, 0x5f, 0xeb, 0x3e, 0x06, 0x99, 0x86, 0x3e,
  0x5b, 0xc2, 0xa8, 0xbe, 0x37, 0xf5, 0xa8, 0xbc, 0x60, 0x8d, 0xd0, 0x3e,
  0x0b, 0x3a, 0x0f, 0x3e, 0x1f, 0xe2, 0x91, 0xbd, 0x3d, 0xe3, 0xc9, 0xbd,
  0xb1, 0x0f, 0x41, 0x3d, 0x8d, 0xc2, 0x3f, 0xbd, 0x9b, 0x30, 0x81, 0x3e,
  0xc4, 0xc7, 0x7b, 0xbc, 0xf8, 0xda, 0xdc, 0x3d, 0x2a, 0x8d, 0x23, 0x3e,
  0xd1, 0x3e, 0x85, 0xbe, 0xb0, 0x2b, 0x00, 0x3e, 0x49, 0xc1, 0x58, 0x3e,
  0xc0, 0x25, 0xbb, 0x3d, 0xc6, 0xb2, 0x2c, 0xbe, 0x25, 0xf4, 0x03, 0xbd,
  0xcd, 0xb1, 0x14, 0x3e, 0xb9, 0xf6, 0x8d, 0x3e, 0xae, 0x3d, 0x5a, 0xbe,
  0x42, 0xab, 0xe3, 0x3d, 0xb4, 0x83, 0x20, 0x3d, 0x9f, 0x82, 0x13, 0x3e,
  0x17, 0x1d, 0x9e, 0x3e, 0xef, 0x03, 0x4a, 0x3e, 0x06, 0x71, 0xa1, 0xbd,
  0x23, 0xb1, 0xa6, 0x3e, 0x7d, 0xb7, 0xfe, 0xbd, 0x72, 0xb3, 0x61, 0x3e,
  0xa9, 0x06, 0x3c, 0x3d, 0x50, 0x27, 0xf8, 0x3d, 0xf2, 0xf2, 0x26, 0xbe,
  0x4a, 0x0f, 0x43, 0x3e, 0x21, 0x90, 0x16, 0xbc, 0x8a, 0x64, 0x87, 0xbd,
  0x20, 0x7c, 0xd4, 0xbe, 0xc9, 0x3f, 0x0e, 0x3d, 0x35, 0xf0, 0xd0, 0xbc,
  0x1b, 0x0d, 0x15, 0x3d, 0x36, 0xb3, 0xb8, 0x3d, 0x65, 0x63, 0xf6, 0x3d,
  0x6e, 0xe5, 0xe5, 0xbd, 0xb2, 0xed, 0x40, 0x3e, 0x3a, 0x2a, 0x6e, 0xbe,
  0x89, 0x9e, 0x3c, 0x3e, 0x1d, 0xdf, 0x4e, 0x3e, 0x9b, 0xb9, 0xd6, 0xbd,
  0x37, 0xf3, 0x8d, 0xbe, 0x8c, 0xcd, 0xb9, 0xbc, 0xb1, 0xa8, 0x35, 0xbe,
  0xe1, 0x4a, 0x7e, 0x3d, 0xe4, 0x3c, 0x10, 0xbf, 0x58, 0x06, 0xa1, 0x3d,
  0x11, 0x6f, 0x9f, 0xbd, 0xde, 0xe4, 0x3e, 0xbd, 0x68, 0xfa, 0x50, 0x3e,
  0x94, 0x68, 0x60, 0xbe, 0x6f, 0xbe, 0x5b, 0xbe, 0x76, 0x5e, 0x85, 0xbd,
  0x17, 0xe0, 0x03, 0xbe, 0x4d, 0x2b, 0x37, 0x3e, 0x71, 0xfc, 0x29, 0x3e,
  0x90, 0xf8, 0xdc, 0xbd, 0x94, 0xf7, 0x6c, 0xbe, 0x0b, 0x47, 0x94, 0xbd,
  0xf0, 0x1a, 0x95, 0x3c, 0x24, 0xd3, 0x8b, 0xbd, 0x34, 0x2d, 0x93, 0xbe,
  0x34, 0x47, 0xa9, 0xbd, 0xb7, 0x19, 0xe3, 0x3c, 0xa5, 0x50, 0xb0, 0x3d,
  0x78, 0x93, 0x86, 0x3e, 0x9b, 0x29, 0xf9, 0xbd, 0x0e, 0x07, 0x6e, 0xbd,
  0xca, 0x62, 0xb5, 0x3d, 0xb2, 0xc8, 0x90, 0xbe, 0xb0, 0xab, 0xbe, 0x3d,
  0xcf, 0x3c, 0xca, 0x3d, 0x23, 0x7c, 0x8b, 0xbe, 0x50, 0x8e, 0x4d, 0xbe,
  0x59, 0x16, 0x15, 0xbe, 0xdc, 0xbb, 0xa5, 0x3d, 0x73, 0x69, 0x2c, 0x3e,
  0xee, 0xca, 0x45, 0xbd, 0x69, 0xed, 0x20, 0xbe, 0x9e, 0xc2, 0xd9, 0x3d,
  0x91, 0x07, 0x7b, 0xbe, 0xb8, 0xf5, 0xce, 0xbd, 0x49, 0xfa, 0x38, 0xbd,
  0x43, 0xbf, 0x07, 0xbe, 0x84, 0x3a, 0x21, 0xbe, 0xe0, 0x9a, 0x79, 0xbe,
  0xd1, 0x43, 0xe7, 0x3d, 0x03, 0xfd, 0xe8, 0xbc, 0x27, 0x04, 0x90, 0x3c,
  0xb5, 0x60, 0x32, 0xbe, 0x96, 0xcf, 0x35, 0xbc, 0x3e, 0x72, 0x6a, 0xbe,
  0xac, 0x9c, 0xb9, 0xbd, 0x08, 0xc3, 0x47, 0xbe, 0xde, 0x7b, 0xf5, 0xbd,
  0xae, 0x0a, 0xe3, 0x3d, 0xf5, 0xf5, 0x44, 0x3e, 0x89, 0xd9, 0x22, 0x3e,
  0x29, 0xfe, 0x2a, 0xbd, 0xaf, 0x4e, 0x41, 0x3e, 0xdd, 0x00, 0x37, 0x3e,
  0xce, 0x8c, 0x05, 0xbd, 0x33, 0x77, 0x82, 0x3e, 0x63, 0x4b, 0x6c, 0x3e,
  0xe6, 0xc7, 0x74, 0x3d, 0x0a, 0xba, 0x47, 0xbe, 0xa4, 0x5c, 0x2a, 0x3d,
  0x15, 0xbc, 0x71, 0xbc, 0x31, 0x37, 0x3c, 0x3e, 0xc9, 0x79, 0x1d, 0xbc,
  0x8e, 0x5e, 0xb8, 0xbb, 0x93, 0xfb, 0x3c, 0xbc, 0x41, 0x15, 0x3a, 0x3e,
  0x50, 0xd5, 0x17, 0x3e, 0x38, 0x2b, 0x36, 0xbe, 0x2b, 0xfb, 0xcc, 0x3d,
  0xd5, 0x87, 0x4f, 0xbe, 0x54, 0xcd, 0xdb, 0xba, 0x25, 0x1b, 0x81, 0x3e,
  0x69, 0x8e, 0x47, 0x3e, 0xc0, 0x2c, 0x38, 0x3d, 0xb2, 0x0a, 0x96, 0xbe,
  0x77, 0xfb, 0x85, 0x3d, 0xe9, 0xd3, 0xa5, 0x3d, 0xe8, 0x01, 0x32, 0x3e,
  0x45, 0x69, 0x9e, 0xbe, 0x29, 0xac, 0x47, 0x3e, 0x25, 0x27, 0x5e, 0x3d,
  0xe8, 0xa1, 0x48, 0xbd, 0xb6, 0x9b, 0xa3, 0x3e, 0xd4, 0xba, 0xa3, 0xbd,
  0x25, 0x72, 0x25, 0x3e, 0x3e, 0xe9, 0xee, 0x3a, 0xb9, 0x60, 0x87, 0xbe,
  0xf9, 0x9e, 0x4d, 0x3e, 0x05, 0x83, 0x27, 0x3e, 0xe8, 0x8a, 0x82, 0xbd,
  0x7d, 0x9a, 0x94, 0xbe, 0x03, 0xf1, 0x15, 0x3e, 0xd6, 0x81, 0x42, 0x3e,
  0x87, 0xc5, 0x31, 0xbd, 0xf4, 0x80, 0xcb, 0xbe, 0x2f, 0xcd, 0x9e, 0xbc,
  0x5f, 0xc1, 0x22, 0xba, 0xa7, 0x8c, 0x9e, 0xbc, 0x6f, 0xee, 0x89, 0x3e,
  0x50, 0xa2, 0x84, 0x3d, 0x8c, 0x11, 0x93, 0x3e, 0xbd, 0xaf, 0xbf, 0x3d,
  0x16, 0x2d, 0xbd, 0x3c, 0x9d, 0x57, 0xf4, 0x3d, 0x9b, 0x44, 0x7d, 0x3d,
  0xff, 0x31, 0xaa, 0xbd, 0x2c, 0x17, 0xa6, 0xbe, 0xb6, 0xf7, 0x03, 0x3e,
  0xaa, 0x6c, 0x6c, 0xbe, 0x1b, 0x42, 0x3e, 0xbb, 0x31, 0x04, 0xea, 0xbe,
  0x15, 0x07, 0xc6, 0x3d, 0xa6, 0xfd, 0xa8, 0x3d, 0x40, 0x01, 0x84, 0xbd,
  0x46, 0xd7, 0x8a, 0x3e, 0x96, 0x2b, 0x93, 0x3b, 0x00, 0x2f, 0x84, 0xbd,
  0x34, 0x01, 0xae, 0xbd, 0x78, 0xdc, 0x56, 0x3a, 0x19, 0xe0, 0x19, 0x3e,
  0x82, 0x7a, 0x29, 0x3e, 0xb8, 0x20, 0x01, 0x3c, 0x85, 0x53, 0x83, 0xbe,
  0x59, 0xd2, 0x7c, 0x3d, 0xe4, 0xd5, 0x24, 0x3d, 0x10, 0x70, 0x14, 0xbd,
  0x75, 0x6f, 0x40, 0xbe, 0x94, 0x20, 0x8e, 0xbd, 0x0c, 0x13, 0x90, 0x3d,
  0x13, 0xf2, 0xf3, 0x3d, 0x1a, 0xc6, 0x19, 0x3d, 0x77, 0x9b, 0xcd, 0xbd,
  0x12, 0x03, 0x91, 0xbe, 0x98, 0xd4, 0xc0, 0xbd, 0x14, 0x81, 0x97, 0xbe,
  0x23, 0x81, 0x65, 0x3d, 0x58, 0x7c, 0x26, 0x3e, 0x47, 0x8d, 0x1e, 0xbe,
  0x4d, 0xd2, 0x98, 0xbe, 0xd2, 0x0a, 0x01, 0xbe, 0x6d, 0x85, 0x24, 0xbd,
  0x02, 0xfd, 0x74, 0x3e, 0x20, 0x3f, 0x90, 0xbe, 0x3a, 0x79, 0x44, 0xbe,
  0x22, 0x70, 0xe7, 0x3c, 0x18, 0x52, 0x88, 0xbd, 0xab, 0x79, 0xb7, 0xbd,
  0xf1, 0x57, 0x61, 0x3d, 0x3d, 0xc8, 0x3f, 0xbe, 0x1f, 0xed, 0x31, 0x3e,
  0xf9, 0xa4, 0x65, 0xbd, 0x05, 0x25, 0x5c, 0xbe, 0x0f, 0x48, 0xbf, 0xbe,
  0xe0, 0xbc, 0xc4, 0xbe, 0x7c, 0x42, 0x82, 0xbe, 0x0e, 0xa9, 0x84, 0xbc,
  0xb4, 0x3f, 0x19, 0x3d, 0xe0, 0xb2, 0xa3, 0xbd, 0xbc, 0xd0, 0xf7, 0xbe,
  0x14, 0x2c, 0x3a, 0x3d, 0x6d, 0x9d, 0x4d, 0xbe, 0xe4, 0xcd, 0x8f, 0xbe,
  0x52, 0x25, 0x31, 0xbe, 0x49, 0x6c, 0x21, 0xbe, 0x02, 0xff, 0xe7, 0xbd,
  0xb0, 0xa6, 0x79, 0x3e, 0xe8, 0xd4, 0x48, 0x3d, 0xad, 0xfa, 0x9c, 0xbd,
  0xd1, 0x06, 0x16, 0x3e, 0xe3, 0x90, 0x66, 0xbc, 0xbe, 0x4a, 0x67, 0xbe,
  0xe1, 0xf3, 0x44, 0x3e, 0x02, 0x75, 0xa4, 0xbd, 0x9e, 0xa9, 0x8f, 0xbd,
  0x86, 0x60, 0xc1, 0xbe, 0xb6, 0x60, 0x16, 0xbe, 0xdb, 0x44, 0x44, 0xbd,
  0xab, 0xbd, 0x19, 0x3a, 0x0d, 0x9c, 0x05, 0xbd, 0xdc, 0x58, 0xc2, 0x3d,
  0x2f, 0xc3, 0x32, 0x3e, 0x5c, 0x7f, 0xe9, 0x3b, 0xeb, 0x3a, 0x31, 0xbe,
  0x9a, 0x2b, 0x2a, 0x3d, 0x68, 0x5d, 0xc1, 0x3c, 0x8c, 0x43, 0x81, 0xbe,
  0x79, 0x45, 0x0d, 0xbe, 0x0f, 0x05, 0x85, 0x3d, 0x53, 0xfc, 0x55, 0x3e,
  0x34, 0x80, 0x14, 0xbe, 0x10, 0x2d, 0x23, 0xbf, 0x37, 0x2c, 0x8d, 0xbe,
  0x94, 0x62, 0xd2, 0x3c, 0xbf, 0x8e, 0x0f, 0x3d, 0x5d, 0xab, 0x76, 0xbe,
  0xc2, 0xc3, 0xe2, 0x3d, 0xe5, 0x88, 0x20, 0x3e, 0x78, 0x46, 0x4f, 0x3d,
  0x55, 0x6c, 0xe2, 0xbd, 0x22, 0x23, 0x39, 0xbe, 0x21, 0xe9, 0xc0, 0xbe,
  0x91, 0x96, 0x95, 0xbe, 0x9c, 0xad, 0x2e, 0xbe, 0xfe, 0x3b, 0x62, 0xbe,
  0x61, 0x34, 0xea, 0x3d, 0x02, 0xe3, 0xf1, 0xbd, 0x81, 0x2e, 0x83, 0xbe,
  0xa7, 0xca, 0x8d, 0x3e, 0x32, 0xa4, 0xf4, 0xbc, 0x1a, 0x28, 0x7b, 0xbe,
  0x96, 0x82, 0x35, 0xbe, 0x5e, 0x9c, 0xc3, 0x3d, 0x03, 0x7d, 0x25, 0x3d,
  0x20, 0x1a, 0xd9, 0xbd, 0x4a, 0xff, 0xda, 0xbd, 0x03, 0x0a, 0x76, 0x3b,
  0xfa, 0x38, 0xf0, 0x3d, 0xfe, 0x5c, 0x72, 0x3e, 0x11, 0x35, 0xc0, 0xbd,
  0xda, 0xe1, 0x80, 0xbd, 0x5d, 0xad, 0xaa, 0x3c, 0xf0, 0x13, 0xbb, 0x3e,
  0xf2, 0xa1, 0xb7, 0xbe, 0x75, 0xf5, 0xc6, 0x3e, 0x69, 0xe4, 0xfa, 0xbc,
  0xb5, 0xc5, 0x97, 0xbe, 0x1e, 0x50, 0x1e, 0xbd, 0x3e, 0x56, 0x8b, 0xbd,
  0x58, 0x38, 0x9c, 0x3e, 0xaf, 0x25, 0x8b, 0xbe, 0x65, 0xba, 0xd7, 0xbd,
  0x92, 0x49, 0x66, 0x3b, 0x95, 0x1b, 0x45, 0x3e, 0x68, 0xa9, 0x99, 0x3d,
  0xc2, 0xef, 0xb8, 0x3c, 0xf8, 0x29, 0x05, 0x3b, 0xa8, 0xdf, 0x38, 0xbe,
  0x35, 0xa4, 0x86, 0x3e, 0x03, 0xee, 0x0c, 0x3e, 0xd1, 0xf9, 0x59, 0x3e,
  0x22, 0xb7, 0xd7, 0x3b, 0xcb, 0xc8, 0x09, 0xbe, 0x8e, 0xb7, 0x1a, 0x3e,
  0x59, 0x0d, 0xe4, 0x3d, 0xa4, 0x89, 0x11, 0x3e, 0x44, 0x93, 0x06, 0x3e,
  0x64, 0x6f, 0xa1, 0x3d, 0xe0, 0xa6, 0xff, 0xbc, 0xd1, 0x1e, 0x81, 0x3c,
  0x06, 0xf7, 0x55, 0x3e, 0x00, 0x8d, 0xa9, 0x3d, 0x04, 0xe7, 0x60, 0x3e,
  0xc1, 0x3f, 0xec, 0xbd, 0x71, 0x9d, 0x2c, 0x3e, 0x07, 0xd2, 0xe8, 0x3e,
  0xf0, 0xbe, 0xba, 0x3e, 0x6b, 0xbe, 0x5b, 0x3d, 0xca, 0xc6, 0xbf, 0x3d,
  0x01, 0x8b, 0x92, 0x3d, 0x9e, 0x19, 0x11, 0x3d, 0xbf, 0xa9, 0xaa, 0xbc,
  0x4f, 0xc2, 0x06, 0xbe, 0xf4, 0x84, 0x41, 0x3c, 0xc4, 0x53, 0x86, 0xbe,
  0x09, 0x75, 0x69, 0xbe, 0xd1, 0x4b, 0x7e, 0x3c, 0x5f, 0x23, 0x33, 0x3c,
  0xce, 0xe0, 0x09, 0xbe, 0xcf, 0x54, 0x1a, 0xbf, 0xcc, 0xb9, 0x79, 0xbc,
  0xbd, 0x7b, 0x16, 0x3e, 0xcf, 0xaa, 0x4e, 0xbe, 0xd2, 0x1d, 0x2d, 0xbe,
  0xb8, 0x6d, 0xb0, 0x3e, 0x44, 0xf6, 0x36, 0x3e, 0x8f, 0x5b, 0x8f, 0x3d,
  0x16, 0x39, 0x67, 0x3e, 0x70, 0x68, 0x95, 0xbe, 0x50, 0xa8, 0x28, 0x3e,
  0x08, 0x10, 0xcb, 0xbe, 0x42, 0xa1, 0x97, 0xbe, 0x30, 0x2e, 0x12, 0x3f,
  0xb5, 0x22, 0xa2, 0xbd, 0x73, 0x0e, 0x1a, 0x3c, 0x3d, 0xdf, 0x95, 0x3e,
  0xc3, 0x73, 0x85, 0x3d, 0x1d, 0xa4, 0xbf, 0xbd, 0xde, 0xdc, 0x16, 0xbe,
  0xcc, 0xe6, 0xd0, 0xbe, 0xa0, 0x11, 0xe5, 0xbd, 0xc8, 0x14, 0xa2, 0xbc,
  0x20, 0xa5, 0xee, 0xbd, 0x38, 0x0e, 0x64, 0x3e, 0x04, 0xde, 0x89, 0xbe,
  0x56, 0x54, 0xb8, 0x3e, 0xd2, 0x33, 0xb9, 0xbe, 0xce, 0xe8, 0x59, 0xbe,
  0x0a, 0xf5, 0x4a, 0x3f, 0x67, 0x78, 0x62, 0xbd, 0x6e, 0x33, 0x9a, 0x3e,
  0xcb, 0x08, 0xf5, 0x3d, 0x6e, 0xb5, 0xba, 0x3d, 0x08, 0x0a, 0x83, 0xbd,
  0x2f, 0x5e, 0xa7, 0xbc, 0x61, 0x74, 0xb8, 0xbb, 0xa4, 0xd1, 0xb7, 0xbd,
  0xb6, 0x3e, 0xef, 0x3e, 0x5f, 0x81, 0x0f, 0x3d, 0x60, 0xc1, 0x0b, 0x3b,
  0xc6, 0x6c, 0xa7, 0xbd, 0x5c, 0x53, 0x9e, 0x3e, 0xb0, 0x6a, 0x99, 0xbe,
  0xc4, 0xf4, 0xc7, 0xbe, 0x91, 0x75, 0x06, 0x3f, 0x0c, 0x58, 0x7a, 0x3c,
  0xf6, 0x8b, 0x13, 0x3e, 0x8c, 0xf9, 0xb7, 0x3d, 0x8a, 0x41, 0x0a, 0x3e,
  0x74, 0x73, 0xdf, 0x3b, 0x0b, 0xb3, 0x5b, 0xbb, 0x25, 0x95, 0xa2, 0xbe,
  0xee, 0x22, 0x9f, 0x3d, 0xf1, 0xb7, 0x9d, 0x3e, 0x91, 0x89, 0xf9, 0x3b,
  0x57, 0x05, 0x30, 0x3e, 0xfd, 0x43, 0xa1, 0x3c, 0x86, 0xa5, 0x56, 0x3e,
  0x58, 0x89, 0xd5, 0xbe, 0xad, 0xc3, 0x0f, 0xbf, 0xda, 0x0f, 0xba, 0x3e,
  0x46, 0xbe, 0x3e, 0x3d, 0x9c, 0xd0, 0x93, 0x3e, 0xca, 0xf5, 0xb5, 0x3d,
  0x7c, 0x66, 0x3d, 0xbe, 0x7c, 0xc8, 0xff, 0x3c, 0xae, 0x9c, 0x47, 0xbc,
  0x5f, 0x87, 0x85, 0xbe, 0x98, 0xa2, 0x8b, 0x3e, 0xb6, 0x59, 0x2b, 0x3e,
  0x42, 0x2c, 0xd7, 0x3c, 0x4c, 0xdd, 0xf2, 0xbc, 0x47, 0x5b, 0x69, 0xbe,
  0x7f, 0x25, 0xd7, 0x3e, 0x1b, 0xc0, 0x1d, 0xbe, 0xc1, 0xfe, 0x04, 0xbe,
  0xc0, 0x54, 0xb4, 0x3d, 0x66, 0x19, 0x38, 0xbd, 0x95, 0x20, 0x93, 0xbd,
  0xf0, 0xe7, 0xcd, 0x3d, 0x74, 0xe7, 0x2a, 0xbd, 0x79, 0xb4, 0xfc, 0xbd,
  0x59, 0x8b, 0x02, 0x3d, 0xdd, 0x5e, 0x60, 0xbe, 0x7b, 0x53, 0x9f, 0x3e,
  0x87, 0xb5, 0x11, 0x3e, 0x1f, 0x40, 0xb1, 0xbd, 0x92, 0xcb, 0xfd, 0xbc,
  0x91, 0xd6, 0x25, 0xbe, 0x4e, 0xea, 0x34, 0x3d, 0x8e, 0xd5, 0x42, 0x3d,
  0xc6, 0x28, 0xc2, 0xbd, 0xe2, 0xd5, 0x58, 0x3e, 0x7e, 0xc1, 0x89, 0x3c,
  0x64, 0x52, 0x0d, 0xbe, 0x7d, 0x0f, 0x6c, 0x3d, 0x8b, 0xea, 0xa1, 0xbd,
  0xc7, 0x6f, 0x5d, 0xbd, 0x07, 0x93, 0x2a, 0xbe, 0x67, 0x17, 0x98, 0xbc,
  0xce, 0x7b, 0x18, 0xbe, 0x4c, 0xe5, 0x12, 0xbd, 0xb2, 0x01, 0x9b, 0xbb,
  0x2d, 0x8f, 0x9f, 0xbc, 0xcb, 0xbb, 0x26, 0xbd, 0x20, 0xdf, 0xd6, 0x3d,
  0x2e, 0x29, 0x55, 0xbe, 0x00, 0x43, 0xcb, 0x3d, 0xc1, 0xd3, 0xc8, 0x3c,
  0xa5, 0x5a, 0x86, 0xbe, 0x42, 0xce, 0x4c, 0xbe, 0xda, 0x81, 0x60, 0x3e,
  0xab, 0x01, 0xa5, 0x3d, 0xc8, 0xd8, 0x64, 0xbd, 0x28, 0x20, 0x9f, 0x3c,
  0xe3, 0xe6, 0x36, 0xbe, 0x12, 0x4f, 0xb8, 0x3d, 0x2f, 0xca, 0xf0, 0xbc,
  0x6d, 0x76, 0x06, 0x3e, 0x1e, 0x99, 0x17, 0x3f, 0x77, 0x3d, 0x43, 0xbd,
  0xf6, 0xa1, 0xae, 0x3d, 0x16, 0xbe, 0x9f, 0xbd, 0xd4, 0x2b, 0x62, 0x3d,
  0x0d, 0x0d, 0x6a, 0x3f, 0x4a, 0x10, 0xa3, 0xbe, 0x59, 0xf4, 0xce, 0xbd,
  0xa4, 0x9b, 0x83, 0x3f, 0xb8, 0x99, 0x3c, 0xbe, 0x8d, 0x27, 0x60, 0x3c,
  0x6e, 0x81, 0x0b, 0x3e, 0xa1, 0x83, 0x05, 0xbd, 0x9d, 0x6a, 0x1c, 0xbe,
  0x8f, 0xd7, 0x42, 0xbd, 0x84, 0xea, 0x00, 0xbe, 0x51, 0x2b, 0xd3, 0x3e,
  0xc9, 0x44, 0xb4, 0x3d, 0xc2, 0x9d, 0xb9, 0xbd, 0x98, 0x49, 0xcb, 0xbd,
  0x23, 0xd3, 0xa6, 0xbd, 0xb8, 0x5d, 0x79, 0x3f, 0x32, 0x27, 0xf2, 0xbe,
  0x70, 0x40, 0x84, 0xbe, 0x50, 0xb8, 0x8f, 0x3f, 0x43, 0xa5, 0x53, 0x3d,
  0x79, 0xea, 0x0f, 0xbe, 0x9f, 0xff, 0xf0, 0x3d, 0x17, 0xb9, 0x9a, 0xbe,
  0xb5, 0x41, 0x90, 0xbd, 0xa2, 0x33, 0x25, 0x3d, 0x8f, 0xcd, 0x31, 0x3d,
  0xbb, 0xfe, 0x9a, 0x3e, 0xe3, 0x19, 0x29, 0x3e, 0xba, 0xc5, 0x01, 0x3a,
  0x58, 0xf7, 0x46, 0xbe, 0x90, 0xd3, 0x42, 0xbe, 0xd4, 0xf2, 0x50, 0x3f,
  0x3c, 0x82, 0x2f, 0xbe, 0x21, 0xb5, 0xdc, 0xbe, 0x5b, 0xa8, 0x68, 0x3f,
  0x9a, 0xe2, 0x20, 0xbe, 0x04, 0x97, 0x7e, 0xbe, 0xb1, 0x63, 0x4f, 0x3b,
  0x44, 0xc1, 0x84, 0xbe, 0x55, 0x9d, 0x5d, 0xbc, 0x6d, 0x72, 0x2f, 0x3d,
  0x8a, 0xe4, 0x98, 0xbd, 0x8d, 0x23, 0xea, 0x3e, 0x4b, 0xa1, 0x16, 0x3e,
  0x09, 0x59, 0x14, 0xbd, 0x06, 0x1a, 0xa9, 0xbe, 0xb6, 0x0a, 0xa2, 0x3c,
  0x0a, 0xec, 0x32, 0x3f, 0x69, 0x98, 0xec, 0xbe, 0x5b, 0x5e, 0x22, 0x3c,
  0x93, 0xf3, 0x91, 0x3e, 0x7e, 0x68, 0xc2, 0xbd, 0xb8, 0xc2, 0xf9, 0xbd,
  0xaa, 0x26, 0xf9, 0xbd, 0xd9, 0x99, 0x72, 0x3d, 0x58, 0x53, 0xa3, 0xbd,
  0x58, 0x55, 0xcb, 0xbd, 0x06, 0x7e, 0x65, 0x3e, 0x69, 0x31, 0xea, 0x3e,
  0xa4, 0x76, 0x56, 0xbe, 0x08, 0xed, 0x97, 0xbd, 0xb5, 0xde, 0x67, 0xbe,
  0x59, 0xbd, 0xc1, 0x3c, 0xff, 0x4d, 0xb5, 0x3c, 0x4d, 0x4d, 0xc3, 0xbe,
  0xbe, 0x23, 0xab, 0xbd, 0x12, 0x14, 0x70, 0x3e, 0x71, 0xa0, 0x81, 0xbe,
  0xce, 0x2e, 0x89, 0xbd, 0x84, 0xdb, 0x54, 0xbe, 0x31, 0xf6, 0x8f, 0xbe,
  0xb2, 0xfb, 0x89, 0xbe, 0xd9, 0xca, 0xf9, 0xbd, 0xc2, 0x16, 0x14, 0x3e,
  0x64, 0xb3, 0x98, 0x3e, 0x0c, 0x49, 0x84, 0xbe, 0x02, 0xff, 0x72, 0xbe,
  0x58, 0xa9, 0x64, 0xbe, 0x7e, 0xf1, 0x9e, 0x3d, 0x7d, 0xc1, 0xfd, 0x3e,
  0xbd, 0x16, 0xa5, 0xbe, 0x56, 0x16, 0x86, 0xbe, 0x97, 0xdf, 0xe9, 0x3e,
  0xe8, 0xa0, 0xa8, 0xbd, 0xfa, 0x4d, 0x6a, 0xbd, 0xc8, 0x5a, 0x9a, 0xbd,
  0x40, 0x55, 0xbf, 0xbe, 0xb1, 0xbd, 0xa4, 0x3c, 0x8c, 0x94, 0x9f, 0xbe,
  0xfd, 0x0e, 0xce, 0xbd, 0xb7, 0xf5, 0x6c, 0x3e, 0xd9, 0x91, 0x8e, 0xbe,
  0xa7, 0x13, 0x2d, 0xbe, 0xcb, 0x47, 0x24, 0xbd, 0x50, 0x01, 0x6f, 0x3e,
  0x4c, 0x82, 0x9f, 0x3d, 0xc3, 0x3b, 0x93, 0x3d, 0x79, 0xdf, 0x60, 0x3e,
  0x4d, 0x91, 0x86, 0xbe, 0xfe, 0x6d, 0xfb, 0x3e, 0x06, 0x2b, 0x23, 0xbe,
  0x7a, 0xb2, 0x72, 0x3e, 0xad, 0xfe, 0x1d, 0x3e, 0x1c, 0xd6, 0x8c, 0xbe,
  0xde, 0x89, 0xc9, 0x3d, 0x0c, 0x18, 0xee, 0xbe, 0xd5, 0xe2, 0x64, 0xbe,
  0x47, 0x4e, 0x0d, 0xbd, 0x52, 0x2d, 0x11, 0x3e, 0xa1, 0x42, 0xd3, 0xbd,
  0xc9, 0x53, 0x82, 0xbe, 0x68, 0xda, 0x64, 0x3d, 0x2e, 0x1f, 0xcb, 0xbb,
  0xe7, 0xee, 0x93, 0x3e, 0x17, 0xea, 0xc9, 0xbe, 0x7a, 0xbe, 0x63, 0xbd,
  0xe3, 0xde, 0x8f, 0x3d, 0x65, 0x15, 0xa2, 0x3e, 0xcb, 0x62, 0x77, 0x3d,
  0x7a, 0x9c, 0x85, 0x3e, 0x47, 0xd1, 0xaa, 0x3d, 0x58, 0xd6, 0xe8, 0xbd,
  0x62, 0xb7, 0x26, 0x3e, 0x40, 0xce, 0xe4, 0x3d, 0xb7, 0xf7, 0xbd, 0x3d,
  0x78, 0xbd, 0xcf, 0xbd, 0xc5, 0xd1, 0x16, 0xbe, 0xa0, 0x9b, 0xbe, 0xbe,
  0x13, 0x88, 0x91, 0xbc, 0x75, 0x50, 0xf4, 0x3d, 0xb4, 0x6f, 0xa5, 0x3d,
  0x23, 0xfa, 0x3a, 0xbe, 0x03, 0xd7, 0xc6, 0x3d, 0x3e, 0x0f, 0x06, 0x3d,
  0xcf, 0xb4, 0xe4, 0xbb, 0x12, 0x78, 0xfd, 0x3e, 0x6b, 0xdd, 0x61, 0xbe,
  0x68, 0x75, 0x11, 0x3e, 0xec, 0x16, 0x85, 0x3e, 0xef, 0x09, 0x65, 0x3d,
  0xbe, 0x4e, 0xe4, 0xbd, 0x1a, 0xa5, 0x15, 0xbc, 0x5a, 0x46, 0x43, 0x3d,
  0xe5, 0x41, 0x99, 0xbe, 0x56, 0xd3, 0x34, 0xbc, 0xdc, 0xef, 0x08, 0xbf,
  0x78, 0xee, 0xf8, 0xbd, 0x6e, 0xab, 0x52, 0x3c, 0xe5, 0x0a, 0x3d, 0x3d,
  0xab, 0xec, 0xa2, 0xbe, 0x1e, 0x0a, 0xbd, 0x3c, 0x09, 0x86, 0x1f, 0x3e,
  0x40, 0xa7, 0x2c, 0xbf, 0x46, 0xf7, 0xba, 0x39, 0x84, 0xf7, 0x8c, 0x3e,
  0xcb, 0x5e, 0x04, 0x3d, 0x6c, 0xf0, 0x1a, 0xbe, 0x41, 0xe2, 0x6e, 0xbd,
  0x86, 0x92, 0x33, 0x3d, 0x44, 0x95, 0xa0, 0xbd, 0xe1, 0xb4, 0xc2, 0xbc,
  0xc1, 0x3d, 0xb4, 0xbe, 0x84, 0xa4, 0xa0, 0xbd, 0x96, 0x26, 0xfe, 0xbd,
  0x20, 0x95, 0x11, 0x3c, 0x83, 0x3e, 0x73, 0xbe, 0x28, 0x75, 0x0b, 0xbe,
  0xb8, 0xc3, 0x21, 0x3d, 0x9f, 0xf5, 0x4c, 0xbe, 0xca, 0x35, 0xa3, 0x3d,
  0xcd, 0xa9, 0x10, 0xbd, 0xc3, 0xec, 0xd8, 0x3d, 0xd2, 0xd2, 0x29, 0xbd,
  0x8c, 0x38, 0x25, 0xbd, 0xd8, 0x5c, 0x1e, 0xbc, 0xea, 0x7c, 0xa1, 0xbe,
  0xe5, 0xd3, 0x00, 0xbd, 0x15, 0xe7, 0x7a, 0xbe, 0x5f, 0x05, 0xc0, 0x3d,
  0x91, 0x9a, 0x0e, 0xbe, 0x42, 0xc3, 0xc8, 0x3c, 0x5a, 0xe3, 0x4b, 0xbe,
  0xdb, 0xd4, 0x5b, 0xbc, 0x5f, 0x8f, 0xdd, 0x3d, 0xff, 0xf2, 0x9e, 0xbe,
  0xa0, 0x3f, 0xaf, 0xbd, 0x70, 0xca, 0x0d, 0x3e, 0x7e, 0xea, 0xfa, 0xbd,
  0xd4, 0x63, 0x8f, 0xbd, 0x1a, 0x86, 0x23, 0xbc, 0x68, 0x6f, 0xd2, 0xbd,
  0xdc, 0xe7, 0x87, 0xbd, 0x22, 0x43, 0x72, 0xbd, 0x4e, 0xa9, 0x5c, 0xbe,
  0x02, 0xf7, 0x21, 0xbc, 0xf8, 0x96, 0x0b, 0xbe, 0xa9, 0x89, 0xaf, 0xbd,
  0x76, 0xa2, 0xf4, 0xbe, 0x48, 0x89, 0xda, 0x3c, 0xa5, 0x04, 0x7c, 0x3d,
  0xcf, 0xbe, 0x17, 0xbe, 0x7d, 0xa9, 0x3b, 0xbe, 0xfb, 0xa5, 0x3d, 0xbc,
  0x07, 0x62, 0x08, 0x3e, 0x06, 0x63, 0x3e, 0xbe, 0x18, 0x91, 0xc3, 0xbb,
  0x09, 0xee, 0xb8, 0x3d, 0x8d, 0x97, 0x43, 0xbe, 0x50, 0x22, 0x40, 0xbe,
  0xde, 0x83, 0xfa, 0xbc, 0xfa, 0xe3, 0xf3, 0x3d, 0xb4, 0x37, 0x36, 0xbe,
  0xea, 0xdc, 0x07, 0x3b, 0x24, 0xfd, 0x30, 0xbe, 0x04, 0x1f, 0x94, 0xbd,
  0x07, 0xce, 0x8b, 0xbd, 0xb2, 0x85, 0x25, 0x3d, 0x14, 0x56, 0xbe, 0x3d,
  0x19, 0x59, 0x4c, 0xbe, 0x2b, 0xa9, 0x9b, 0x3d, 0x03, 0x90, 0xa6, 0x3d,
  0x07, 0x2e, 0x5a, 0xbe, 0x5f, 0x39, 0x63, 0xbd, 0xc8, 0xf2, 0xc9, 0x3c,
  0xe3, 0x22, 0x48, 0xbe, 0x64, 0xd8, 0x01, 0x3d, 0x05, 0xe1, 0x88, 0x3d,
  0xb3, 0x42, 0xce, 0xbd, 0x79, 0x62, 0x74, 0xbd, 0xf3, 0xc1, 0x1c, 0x3a,
  0xd7, 0x86, 0x95, 0xbe, 0xc8, 0xbd, 0xbb, 0x3d, 0x2b, 0xf4, 0x4b, 0xbe,
  0x13, 0x2e, 0xbd, 0xbd, 0xed, 0x15, 0x8b, 0x3d, 0x75, 0xa4, 0x4c, 0xbe,
  0x4b, 0x63, 0xc8, 0x3b, 0x0e, 0x69, 0x2a, 0x3e, 0x73, 0xdc, 0xb9, 0x3b,
  0xb5, 0x18, 0x4c, 0xbd, 0xb3, 0x18, 0xa4, 0xbe, 0xc2, 0xf1, 0x8f, 0xbe,
  0x10, 0x1d, 0x24, 0x3d, 0x90, 0xb6, 0x47, 0xbe, 0xbb, 0x68, 0x64, 0xbe,
  0x4f, 0xb8, 0x4c, 0x3d, 0x3a, 0xd9, 0xa6, 0x3d, 0xcf, 0x2a, 0x85, 0xbe,
  0x96, 0xca, 0x90, 0x3d, 0xdb, 0xb6, 0x09, 0x3e, 0x9d, 0x4d, 0x9e, 0xbd,
  0x5c, 0xa6, 0x6b, 0x3d, 0xb9, 0x5d, 0x23, 0x3e, 0x50, 0xdc, 0xb0, 0x3d,
  0x6d, 0x51, 0x97, 0xbd, 0x4c, 0xaf, 0x60, 0xbe, 0xa4, 0x4d, 0x88, 0xbe,
  0x80, 0xad, 0x6c, 0xbc, 0x26, 0xee, 0x6b, 0xbd, 0x1a, 0x3b, 0xcb, 0x3d,
  0x71, 0xad, 0x68, 0x3d, 0xe7, 0x09, 0x30, 0x3e, 0xae, 0xb7, 0xb7, 0xbd,
  0x7d, 0x5b, 0xd5, 0x3d, 0xbf, 0xf1, 0xa8, 0x3b, 0xb3, 0xea, 0x6e, 0xbe,
  0x66, 0x5f, 0x94, 0x3c, 0xd1, 0x58, 0x02, 0x3e, 0xd2, 0xa8, 0x17, 0xbd,
  0x89, 0x5b, 0x27, 0x3c, 0x04, 0x96, 0x3b, 0xbe, 0x78, 0x88, 0xd4, 0xbd,
  0xb9, 0x4d, 0x93, 0xbe, 0x34, 0x36, 0x5a, 0xbd, 0x84, 0x20, 0xd6, 0xbd,
  0x8e, 0xd0, 0x43, 0xbd, 0xd9, 0xde, 0x49, 0x3d, 0xcb, 0x25, 0xa3, 0x3c,
  0x58, 0xd8, 0x55, 0xbe, 0xfa, 0x58, 0x17, 0x3e, 0x71, 0x5f, 0x1b, 0xbe,
  0xdc, 0xae, 0xcb, 0x3d, 0x62, 0x52, 0x47, 0xbe, 0xb9, 0x9e, 0x42, 0xbd,
  0x5a, 0x09, 0xfc, 0xbd, 0x18, 0xdb, 0x4e, 0xbd, 0x69, 0x59, 0xab, 0xbd,
  0x7e, 0xff, 0xac, 0xbd, 0x22, 0x0c, 0x9b, 0xbe, 0x87, 0x8a, 0x99, 0xbc,
  0xfb, 0x21, 0xf4, 0xbc, 0xf3, 0x4f, 0x3a, 0xbc, 0x8f, 0xac, 0x05, 0xbc,
  0x77, 0xb6, 0x45, 0xbe, 0xaf, 0x21, 0x21, 0xbe, 0x2a, 0xe4, 0x13, 0x3e,
  0xf6, 0x6a, 0x27, 0xbe, 0xd3, 0xfc, 0xb6, 0x3d, 0xba, 0x3c, 0x35, 0x3e,
  0x87, 0xb9, 0x84, 0xbb, 0x64, 0x07, 0x2c, 0x3e, 0x75, 0x84, 0x07, 0xbe,
  0xf9, 0x11, 0x8f, 0x3c, 0x5b, 0xad, 0xba, 0xbd, 0x14, 0xcd, 0x81, 0xbe,
  0x58, 0xa0, 0x2f, 0xbe, 0xe7, 0x7d, 0x97, 0xbd, 0xae, 0xff, 0x01, 0x3e,
  0x8f, 0xaa, 0x88, 0xbe, 0x11, 0x56, 0x17, 0xbe, 0xa0, 0xf6, 0x24, 0x3d,
  0x63, 0x92, 0xf6, 0x3d, 0x73, 0xa4, 0x16, 0xbe, 0x5e, 0xbf, 0x57, 0x3e,
  0x57, 0xd9, 0x23, 0x3e, 0xe9, 0x15, 0xd7, 0xbe, 0x54, 0x0e, 0xc8, 0x3e,
  0x0c, 0xf1, 0x43, 0xbe, 0x08, 0x8d, 0xba, 0xbd, 0x0d, 0x22, 0x89, 0x3d,
  0x42, 0x52, 0xc5, 0x3c, 0x91, 0x42, 0x20, 0xbe, 0xb1, 0xf3, 0xfb, 0xbe,
  0x09, 0x02, 0xcc, 0xbd, 0xe2, 0x76, 0x1b, 0x3d, 0x1b, 0xd8, 0x48, 0xbe,
  0xbc, 0x64, 0x42, 0xbe, 0xdd, 0x27, 0xb8, 0x3e, 0xd6, 0x5e, 0x89, 0x3d,
  0x05, 0xb7, 0x2c, 0xbe, 0xc8, 0x57, 0x16, 0x3e, 0x51, 0x58, 0xd6, 0xbd,
  0xc9, 0x0f, 0xcd, 0xbd, 0x97, 0x69, 0x90, 0xbe, 0xb6, 0xdd, 0x89, 0xbe,
  0x64, 0xcb, 0xa3, 0x3e, 0x98, 0x61, 0x7e, 0xbd, 0xa4, 0x57, 0x14, 0xbe,
  0x7a, 0x10, 0xbc, 0x3e, 0x1c, 0x5c, 0x4c, 0x3e, 0xd4, 0x26, 0x3f, 0xbe,
  0x20, 0x62, 0xb0, 0xbd, 0x33, 0x7e, 0xc9, 0xbd, 0xc0, 0x94, 0xa9, 0x3d,
  0x81, 0x6d, 0x3a, 0x3e, 0xd8, 0x40, 0x8c, 0xbe, 0xbc, 0x08, 0xd1, 0xbd,
  0x50, 0x62, 0x4f, 0xbe, 0x6d, 0x34, 0xb6, 0x3e, 0x53, 0x21, 0x84, 0xbe,
  0x4f, 0xde, 0x3e, 0x3d, 0xa2, 0xc6, 0xf1, 0x3e, 0x20, 0x38, 0x53, 0xbc,
  0xc2, 0x5d, 0x6e, 0x3d, 0x89, 0x7f, 0x81, 0x3e, 0xaf, 0xf1, 0x5a, 0x3d,
  0xba, 0xf9, 0x20, 0xbe, 0x59, 0x3d, 0x8b, 0x3e, 0xd8, 0x9e, 0x10, 0x3c,
  0x50, 0xd4, 0xfb, 0xbd, 0x9d, 0xf6, 0xa0, 0x3d, 0xfa, 0x76, 0x6a, 0xbd,
  0x91, 0xbd, 0x83, 0xbb, 0x2b, 0x76, 0xf6, 0xbd, 0x3c, 0x8d, 0x89, 0x3e,
  0x45, 0x55, 0x61, 0xbd, 0x03, 0x6f, 0x67, 0xbe, 0x76, 0xf6, 0xaa, 0x3e,
  0x7e, 0xfe, 0x16, 0x3c, 0x1a, 0xc2, 0x26, 0x3e, 0x29, 0x83, 0x30, 0x3e,
  0x73, 0xef, 0x9b, 0x3d, 0xc3, 0xe3, 0x3a, 0x3d, 0x94, 0x0e, 0x83, 0x3d,
  0x48, 0x44, 0xc5, 0xbd, 0xb0, 0x84, 0x38, 0x3d, 0x45, 0x30, 0xa1, 0x3e,
  0xa4, 0xb4, 0x20, 0xbe, 0xe2, 0x59, 0x3a, 0x3d, 0x85, 0x77, 0x97, 0xbe,
  0xb8, 0xa1, 0x9f, 0x3e, 0x8d, 0x84, 0x07, 0xbe, 0x01, 0x4b, 0xb0, 0xbe,
  0xce, 0x9a, 0x25, 0x3e, 0xe5, 0x47, 0x26, 0x3c, 0x0c, 0x07, 0x81, 0x3e,
  0x92, 0xff, 0x44, 0x3e, 0x78, 0xde, 0x3e, 0xbe, 0xad, 0xec, 0xe7, 0x3d,
  0xef, 0xb2, 0x93, 0xbd, 0xf4, 0xc3, 0xaa, 0xbe, 0xd4, 0xc2, 0xa6, 0x3e,
  0x4f, 0x37, 0x3b, 0xbe, 0xfd, 0x8b, 0x59, 0xbd, 0x06, 0x3a, 0x60, 0x3e,
  0x80, 0x01, 0xd4, 0xbd, 0x1c, 0xf4, 0x0c, 0x3e, 0x04, 0x44, 0xab, 0xbe,
  0x80, 0x3e, 0xd3, 0xbe, 0xa3, 0xfa, 0x5d, 0x3e, 0x58, 0x1f, 0x10, 0x3c,
  0x00, 0x8e, 0x09, 0x3e, 0x92, 0x16, 0xd5, 0x3d, 0xc0, 0xda, 0x1f, 0xbe,
  0xc5, 0x69, 0x98, 0x3c, 0x7e, 0xa3, 0x26, 0x3e, 0x35, 0xd1, 0x13, 0xbe,
  0x06, 0x92, 0xbe, 0x3e, 0x75, 0x52, 0x89, 0x3e, 0xd2, 0x05, 0x57, 0xbe,
  0xd7, 0xb3, 0xa5, 0x3e, 0xd9, 0x06, 0x6d, 0x3e, 0x7d, 0x20, 0x74, 0x3e,
  0x95, 0x44, 0x0b, 0xbe, 0x4c, 0xdb, 0xd6, 0xbd, 0x8d, 0x06, 0x88, 0x3e,
  0x6f, 0x0a, 0x0c, 0xbd, 0xa4, 0xd1, 0x0b, 0xbd, 0xc8, 0x48, 0x43, 0x3d,
  0xaf, 0x5a, 0x3a, 0x3d, 0x7c, 0x29, 0x57, 0xbb, 0xa5, 0xc4, 0x54, 0xbe,
  0xbe, 0xd2, 0x77, 0xbe, 0x04, 0x63, 0x99, 0xbd, 0x1f, 0x60, 0xe9, 0x3c,
  0x3e, 0xad, 0x94, 0xbd, 0x95, 0x90, 0x8f, 0xbd, 0x71, 0x85, 0xec, 0xba,
  0xe6, 0xbc, 0x1a, 0xbe, 0xcf, 0xa7, 0x8d, 0xbd, 0x20, 0xe6, 0x83, 0xbd,
  0x39, 0x54, 0x97, 0xbe, 0x42, 0x99, 0x0e, 0xbe, 0x16, 0x9c, 0x42, 0xbe,
  0x94, 0x75, 0x57, 0x3d, 0x5c, 0xfa, 0xcf, 0xbc, 0x8a, 0xad, 0xb0, 0xbe,
  0xd6, 0x13, 0xe4, 0x3a, 0xef, 0x7e, 0x19, 0xbd, 0xb2, 0x8a, 0x59, 0xbc,
  0x02, 0xfe, 0x34, 0x3b, 0xa2, 0xb6, 0x8b, 0xbd, 0x4f, 0x9d, 0xbe, 0x3d,
  0xc6, 0x9f, 0x79, 0x3d, 0x67, 0xbd, 0x9c, 0xbd, 0x27, 0x93, 0x16, 0xbc,
  0x72, 0x36, 0x54, 0xbe, 0x09, 0x7d, 0x4a, 0xbe, 0x20, 0x28, 0xd9, 0xbd,
  0x60, 0xce, 0x50, 0x3d, 0xcf, 0x02, 0x90, 0x3d, 0x7e, 0xcb, 0xf7, 0xbc,
  0x04, 0xc3, 0xaf, 0xbe, 0xd9, 0x12, 0x1c, 0x3c, 0xb5, 0x4a, 0x0b, 0xbe,
  0x26, 0x47, 0xec, 0x3c, 0x09, 0x5f, 0xfc, 0x3c, 0x30, 0xee, 0x0b, 0xbd,
  0x25, 0x07, 0x78, 0x3e, 0x10, 0x86, 0x0b, 0x3e, 0x12, 0xa5, 0x67, 0xbe,
  0xe7, 0xda, 0x2f, 0xbd, 0xbb, 0x11, 0x6e, 0x3e, 0x4d, 0x88, 0x4f, 0xbe,
  0x8c, 0x5e, 0x8e, 0xbd, 0x5b, 0x9c, 0xd0, 0x3d, 0x75, 0x51, 0x6d, 0xbe,
  0x10, 0xe6, 0xab, 0xbd, 0x01, 0xb4, 0xe8, 0xbd, 0x86, 0x78, 0x2f, 0xbe,
  0x42, 0x40, 0x4e, 0x3d, 0x34, 0x9f, 0xe7, 0x3c, 0x39, 0x2e, 0xe6, 0xbd,
  0x5a, 0xd0, 0x03, 0xbe, 0xf1, 0xed, 0x88, 0x3c, 0x0b, 0x19, 0x25, 0x3d,
  0x0c, 0x68, 0xaa, 0xbd, 0x58, 0x70, 0x53, 0xbe, 0xa8, 0x73, 0x36, 0xbe,
  0x51, 0x64, 0x19, 0xbe, 0xf1, 0x73, 0x15, 0xbe, 0xf5, 0x70, 0x3e, 0xbe,
  0xcf, 0x49, 0x9c, 0x3d, 0x5d, 0xdc, 0x12, 0xbe, 0xd9, 0xe9, 0xb6, 0xbe,
  0x2b, 0x47, 0x3b, 0x3d, 0xe2, 0xaa, 0xd9, 0xbc, 0x8f, 0xae, 0x39, 0xbe,
  0x6b, 0xa3, 0x15, 0xbe, 0x60, 0x6c, 0x14, 0x3d, 0x58, 0xf2, 0xb0, 0x3c,
  0xe0, 0x78, 0x74, 0xbd, 0xe4, 0x4a, 0x42, 0xbe, 0x07, 0x87, 0xe3, 0x3d,
  0x34, 0x74, 0x09, 0x3e, 0xae, 0xec, 0x22, 0xbc, 0xb0, 0x73, 0x14, 0xbe,
  0x7a, 0xa1, 0x27, 0xbe, 0x6f, 0x04, 0xae, 0xbc, 0x00, 0x23, 0x48, 0x3e,
  0xab, 0x4f, 0xdb, 0xbd, 0x1d, 0xa8, 0x3f, 0x3e, 0x14, 0xeb, 0xb5, 0xbd,
  0x3c, 0x85, 0xb6, 0x3d, 0x4f, 0xf9, 0x47, 0x3d, 0xb2, 0xff, 0x20, 0x3e,
  0x23, 0x8c, 0x32, 0x3e, 0x8f, 0x56, 0xef, 0x3b, 0x0f, 0x0d, 0x74, 0xbd,
  0x4a, 0x1a, 0x92, 0x3c, 0xc5, 0xc9, 0x30, 0xbc, 0x89, 0x96, 0x6b, 0x3e,
  0x70, 0xf4, 0x0d, 0x3e, 0x48, 0x51, 0x5b, 0x3e, 0xef, 0x4e, 0x2f, 0xbc,
  0x8e, 0xe1, 0xab, 0x3e, 0xb6, 0x50, 0xea, 0x3d, 0x30, 0xda, 0xc4, 0xbd,
  0x6c, 0xba, 0x2b, 0x3e, 0xf0, 0x16, 0xb1, 0xbd, 0xd8, 0x6a, 0x22, 0x3c,
  0xef, 0xa0, 0x0b, 0x3d, 0x03, 0x95, 0xb1, 0xbc, 0xb4, 0x0c, 0x3f, 0xbe,
  0xf3, 0x38, 0x5d, 0xbd, 0x49, 0x73, 0x07, 0xbe, 0xf5, 0xc8, 0xee, 0xbd,
  0x60, 0xf2, 0x14, 0xbd, 0x92, 0x6f, 0x8f, 0xbd, 0xda, 0x4a, 0x9c, 0xbb,
  0xf4, 0x1c, 0xc7, 0xba, 0x1a, 0x20, 0x51, 0xbe, 0x46, 0x8f, 0x07, 0x3d,
  0xf0, 0x83, 0x7f, 0xbd, 0xf3, 0xfe, 0x86, 0xbd, 0x21, 0x27, 0x25, 0x3e,
  0x37, 0x49, 0x31, 0x3c, 0x85, 0xc4, 0xf0, 0xbc, 0x1f, 0xb5, 0xa2, 0xbd,
  0xf2, 0xe3, 0x3d, 0xbd, 0xd8, 0x2c, 0x90, 0x3e, 0x3e, 0x25, 0xae, 0xbe,
  0x5c, 0x64, 0xd2, 0xbe, 0x1c, 0x24, 0xca, 0xbd, 0xb8, 0xe4, 0x55, 0xba,
  0x55, 0x13, 0x63, 0xbd, 0xc8, 0xb1, 0xd1, 0x3d, 0x90, 0x7b, 0xa8, 0xbe,
  0x7b, 0x75, 0x84, 0x3d, 0xc7, 0xf7, 0xc4, 0x3c, 0xa8, 0xdf, 0xa3, 0xbe,
  0x65, 0x62, 0x29, 0x3e, 0x3f, 0x28, 0x5f, 0xbd, 0x61, 0x91, 0x1e, 0x3e,
  0x5e, 0x63, 0x21, 0x3e, 0x72, 0xbb, 0xc2, 0x3d, 0x11, 0x5e, 0x8a, 0x3c,
  0x3d, 0xcf, 0xcc, 0xbe, 0xff, 0x86, 0x39, 0xbd, 0x2e, 0x34, 0xbf, 0x3e,
  0x10, 0x0d, 0x6f, 0x3c, 0x05, 0x72, 0x1d, 0xbe, 0xd7, 0xa7, 0x8c, 0x3d,
  0xb0, 0xc9, 0x64, 0x3c, 0x47, 0xa8, 0x25, 0x3d, 0xd8, 0x65, 0xea, 0xbd,
  0x80, 0xae, 0x4c, 0xbe, 0xde, 0xcf, 0x29, 0xbb, 0x77, 0xe4, 0xf9, 0x3d,
  0x2e, 0x3b, 0x45, 0x3d, 0x4a, 0x09, 0x01, 0x3d, 0xdf, 0x88, 0x25, 0xbb,
  0x38, 0x5d, 0x8d, 0x3e, 0x85, 0x48, 0xa5, 0xbc, 0x4c, 0x72, 0xae, 0x3c,
  0xd2, 0xbd, 0x20, 0x3f, 0x15, 0x6e, 0xd2, 0x3b, 0x5c, 0xda, 0xec, 0xbc,
  0x21, 0x2d, 0xcc, 0x3c, 0xfe, 0xb7, 0x80, 0xbd, 0x31, 0x9e, 0xbf, 0x3b,
  0xaf, 0xfe, 0x2f, 0x3e, 0x24, 0x3d, 0x79, 0xbd, 0xc0, 0x43, 0x40, 0xbe,
  0xca, 0xe9, 0x21, 0x3e, 0xb6, 0x11, 0x92, 0x3d, 0x57, 0xdd, 0x89, 0x3d,
  0x45, 0xa8, 0xf2, 0x3d, 0xfd, 0x4e, 0x32, 0x3f, 0x66, 0x49, 0x8b, 0x3d,
  0x7a, 0x1d, 0x7e, 0xbd, 0x20, 0xbc, 0xf6, 0x3e, 0x59, 0xac, 0x52, 0x3c,
  0xbf, 0x2c, 0x56, 0x3e, 0x19, 0xcf, 0x22, 0xbc, 0xa9, 0xea, 0x84, 0x3e,
  0xf3, 0xa0, 0xf4, 0xbc, 0xe5, 0x8b, 0x9a, 0xbd, 0x7e, 0x59, 0xc1, 0x3c,
  0x7a, 0x97, 0xe0, 0x3d, 0xf6, 0x41, 0xd6, 0x3e, 0xef, 0x93, 0x01, 0x3d,
  0x02, 0x9a, 0x04, 0xbb, 0xd6, 0xf6, 0x70, 0x3e, 0x07, 0x5d, 0x6c, 0x3e,
  0x4f, 0x1c, 0x59, 0xbe, 0x11, 0x20, 0x10, 0xbf, 0xca, 0x93, 0xd5, 0xbc,
  0xe4, 0xab, 0x73, 0x3c, 0x46, 0x73, 0x0d, 0x3e, 0x84, 0xd5, 0x04, 0xbc,
  0x9b, 0x4a, 0x9f, 0xbd, 0x87, 0xa9, 0xa5, 0x3c, 0xa2, 0x1f, 0xed, 0xbd,
  0x23, 0x9d, 0x7a, 0xbc, 0xf2, 0xad, 0x14, 0x3e, 0xdf, 0x60, 0x2b, 0x3d,
  0xda, 0x5e, 0x98, 0x3d, 0xe0, 0x5f, 0x47, 0xbe, 0x64, 0x4e, 0x1f, 0x3e,
  0x04, 0xeb, 0x90, 0x3e, 0xc2, 0xb1, 0x74, 0xbe, 0x92, 0x05, 0x69, 0xbe,
  0x2d, 0x7e, 0xa2, 0x3d, 0x47, 0x24, 0x0d, 0xbc, 0x8d, 0x68, 0x4e, 0x3d,
  0xe0, 0x66, 0x07, 0x3e, 0x7e, 0xf9, 0x1d, 0xbe, 0x46, 0xda, 0xed, 0x3b,
  0xcb, 0xe7, 0x1c, 0xbe, 0x5b, 0xa0, 0xcf, 0xbe, 0x44, 0x8b, 0x2e, 0x3e,
  0xa1, 0x25, 0x2a, 0xbc, 0x20, 0x0e, 0x28, 0x3d, 0xca, 0x9e, 0xcc, 0x3d,
  0x08, 0x41, 0xf8, 0xbd, 0x0a, 0xaf, 0x3d, 0x3e, 0x01, 0x96, 0x24, 0xbd,
  0xdc, 0xf2, 0x39, 0xbd, 0x86, 0x40, 0x5e, 0xbd, 0x83, 0x9c, 0x2c, 0x3c,
  0x02, 0x2b, 0x85, 0xbd, 0x62, 0xb2, 0x39, 0x3e, 0x1b, 0x4e, 0xa4, 0xbd,
  0xa3, 0x2d, 0xad, 0xbc, 0x80, 0x7d, 0x8c, 0x3c, 0xcb, 0xa4, 0xe2, 0xbc,
  0x17, 0x12, 0xa4, 0xbb, 0x89, 0xbb, 0xbe, 0x3b, 0x24, 0xf9, 0x43, 0x3d,
  0x25, 0x48, 0xf7, 0x3c, 0x58, 0x81, 0x4d, 0xbe, 0xf1, 0x96, 0xec, 0x39,
  0xfc, 0xe8, 0x57, 0x3d, 0x6e, 0xeb, 0xb8, 0x3d, 0xd3, 0xfd, 0x92, 0x3b,
  0x1e, 0x78, 0xb0, 0xbe, 0x40, 0x1a, 0x40, 0xbe, 0xa4, 0x8a, 0x9c, 0x3d,
  0x8d, 0x2e, 0x52, 0xbe, 0x22, 0x0a, 0x8e, 0xbe, 0x6d, 0xd3, 0x0f, 0xbd,
  0xbb, 0xfb, 0xd9, 0x3d, 0xe1, 0x79, 0x71, 0x3e, 0xda, 0x72, 0x45, 0xbd,
  0xce, 0x13, 0xf9, 0xbd, 0x8d, 0x3c, 0x59, 0x3c, 0x82, 0x90, 0xcc, 0x3d,
  0xe8, 0xf3, 0x40, 0xbd, 0xdd, 0x13, 0x34, 0x3e, 0x79, 0x3e, 0x8b, 0x3e,
  0x53, 0x21, 0x26, 0x3e, 0xe4, 0xd5, 0x7d, 0xbe, 0x4a, 0x22, 0xfe, 0x3c,
  0x25, 0xe9, 0x86, 0xbe, 0xb9, 0x81, 0x23, 0x3e, 0xca, 0x52, 0xc8, 0xbe,
  0xfe, 0x1a, 0x04, 0x3d, 0xde, 0xe9, 0x6c, 0xbe, 0x5d, 0xfa, 0x6b, 0xbe,
  0x93, 0xc6, 0x05, 0x3e, 0x15, 0xdf, 0x09, 0xbe, 0x67, 0xbc, 0x0a, 0x3e,
  0x53, 0xa1, 0x7f, 0xbd, 0xe9, 0xb5, 0x48, 0x3d, 0x18, 0xcf, 0x92, 0x3e,
  0x1b, 0xed, 0x58, 0x3e, 0x82, 0x80, 0xb0, 0x3d, 0x53, 0x53, 0xad, 0xbe,
  0x29, 0x14, 0x95, 0xbc, 0x59, 0x6c, 0x4e, 0xbe, 0x01, 0xc9, 0x07, 0xbd,
  0x8e, 0x48, 0xd1, 0xbe, 0xec, 0xc2, 0x23, 0x3b, 0x99, 0x3b, 0x17, 0x3e,
  0xe0, 0x3b, 0xf2, 0xbd, 0xca, 0xd3, 0x8a, 0x3e, 0x1d, 0xd7, 0x2b, 0xbd,
  0x26, 0x35, 0x06, 0xbb, 0x16, 0x55, 0x45, 0x3d, 0x70, 0xdd, 0x6e, 0x3d,
  0x00, 0x32, 0x55, 0x3e, 0x6d, 0xf4, 0x15, 0x3e, 0x38, 0x3a, 0x9b, 0xbd,
  0x1a, 0xf6, 0xba, 0xbe, 0xa2, 0xf6, 0x0a, 0xbe, 0x87, 0x26, 0xec, 0x3d,
  0x8f, 0x99, 0x2a, 0x3e, 0x00, 0x19, 0xa1, 0xbe, 0x35, 0x61, 0x14, 0xbe,
  0x19, 0xda, 0xc1, 0xbc, 0x6e, 0xc8, 0x30, 0x3d, 0xbe, 0x1a, 0x84, 0x3e,
  0x7c, 0x32, 0xe5, 0xbd, 0x39, 0x3e, 0x02, 0xbd, 0x7b, 0x1e, 0x46, 0xbe,
  0xbe, 0x8a, 0x2d, 0x3d, 0xf7, 0x84, 0xf0, 0x3d, 0x1e, 0x87, 0xbc, 0x3d,
  0xfc, 0xfc, 0xfe, 0x3d, 0x70, 0xb3, 0xbc, 0xbe, 0x85, 0xdf, 0x37, 0xbd,
  0x57, 0xd0, 0xe2, 0x3b, 0xf6, 0xaf, 0x35, 0x3d, 0xb3, 0x27, 0xa6, 0xbe,
  0x64, 0x03, 0x5d, 0xbe, 0x19, 0x0b, 0x3a, 0x3d, 0xe8, 0x8a, 0x3a, 0xbe,
  0x54, 0xbf, 0x0a, 0x3e, 0xcb, 0x35, 0x08, 0x3e, 0x0c, 0x4a, 0xc0, 0x3d,
  0x47, 0x79, 0x52, 0x3d, 0xf7, 0x4c, 0x5f, 0xbe, 0xeb, 0xa4, 0x5d, 0x3e,
  0x54, 0x5a, 0xdb, 0x3d, 0x78, 0x5a, 0x48, 0xbe, 0xfd, 0x1f, 0x6b, 0xbe,
  0xef, 0x35, 0x64, 0xbe, 0xdd, 0x14, 0xb2, 0xbc, 0xd6, 0x87, 0x4d, 0xbc,
  0x44, 0x3a, 0x87, 0xbe, 0x4f, 0x77, 0x37, 0xbd, 0x02, 0xa5, 0x08, 0xbe,
  0xa7, 0x2a, 0xee, 0xbd, 0x27, 0x7d, 0xa3, 0x3d, 0xa4, 0x19, 0x23, 0x3c,
  0x5f, 0x61, 0x19, 0x3e, 0x98, 0x70, 0x4e, 0x3e, 0x70, 0xad, 0x16, 0xbd,
  0xf3, 0xfc, 0x27, 0x3e, 0x80, 0xa2, 0xd3, 0x3c, 0x5e, 0xfa, 0x13, 0xbe,
  0x38, 0xf9, 0x82, 0xbe, 0x35, 0xd7, 0x80, 0xbe, 0x81, 0x48, 0x81, 0xbe,
  0x3a, 0x0f, 0xc7, 0xbc, 0xaa, 0x4f, 0xc5, 0xbd, 0x96, 0xee, 0x93, 0x3c,
  0x21, 0x1a, 0xbc, 0xbd, 0xb7, 0xe1, 0xd7, 0xbd, 0xa6, 0x9e, 0x00, 0xbe,
  0xc8, 0xfe, 0x40, 0xbe, 0xae, 0xf1, 0x25, 0xbe, 0x01, 0x4b, 0x4c, 0x3e,
  0x18, 0x9d, 0x10, 0xbf, 0xff, 0x11, 0x38, 0xbd, 0xf2, 0x81, 0x68, 0xbe,
  0xa9, 0x44, 0x0e, 0xbe, 0x83, 0x0b, 0xc2, 0xbc, 0x1f, 0xce, 0x1d, 0xbe,
  0x9a, 0xc2, 0xc3, 0x3e, 0x8f, 0x19, 0x1d, 0xbf, 0x45, 0x0f, 0x14, 0x3d,
  0x39, 0x8c, 0xce, 0xbd, 0xc2, 0x6e, 0xad, 0xbe, 0xcc, 0x5a, 0xcf, 0xbe,
  0x64, 0x7e, 0x32, 0xbf, 0xf9, 0x1c, 0x37, 0x3f, 0x37, 0x33, 0x32, 0x3e,
  0x90, 0xcb, 0xd3, 0x3d, 0xba, 0x32, 0x11, 0xbd, 0xef, 0x9f, 0x65, 0x3c,
  0x6b, 0xe4, 0xb2, 0x3e, 0x88, 0x6d, 0xc1, 0xbe, 0x64, 0x0f, 0x98, 0x3d,
  0x6c, 0x0e, 0xda, 0xbc, 0xec, 0x90, 0x9c, 0x3e, 0xaa, 0xdc, 0xac, 0x3e,
  0xa6, 0x6c, 0x32, 0x3d, 0x26, 0xc1, 0x42, 0x3d, 0x5f, 0xa7, 0xbe, 0xbd,
  0x34, 0x16, 0x17, 0xbd, 0xcd, 0xd7, 0x50, 0xbf, 0xe4, 0x81, 0x2b, 0x3f,
  0x7c, 0x88, 0x6f, 0xbd, 0xd2, 0x30, 0x31, 0x3e, 0x7d, 0x76, 0x3c, 0xbe,
  0xeb, 0x44, 0x2c, 0x3e, 0x85, 0xa9, 0x8f, 0x3e, 0x01, 0x93, 0xaf, 0xbe,
  0xae, 0x68, 0x5b, 0x3d, 0xee, 0x5c, 0xa4, 0xbc, 0x2d, 0xa5, 0xa1, 0x3e,
  0x80, 0xa6, 0x8d, 0x3e, 0x4e, 0x8f, 0x6b, 0x3b, 0xc6, 0x13, 0x86, 0x3e,
  0x30, 0x92, 0x8e, 0x3b, 0x93, 0xff, 0x0a, 0x3e, 0x3a, 0xd8, 0x10, 0xbf,
  0x69, 0xaa, 0x1e, 0x3f, 0xba, 0x31, 0x4f, 0xbd, 0x86, 0xac, 0xef, 0x3d,
  0x8d, 0xb8, 0xe3, 0x3d, 0xe7, 0xda, 0xa4, 0xbd, 0x3c, 0xcd, 0xe8, 0x3b,
  0x0b, 0xde, 0x1e, 0xbd, 0x77, 0x90, 0x61, 0x3d, 0x30, 0x53, 0x07, 0x3e,
  0xdc, 0x3c, 0x84, 0x3e, 0xe0, 0x8a, 0x0f, 0x3f, 0xa8, 0x2e, 0xb1, 0x3c,
  0xd3, 0x11, 0x9e, 0xba, 0x0a, 0x70, 0x26, 0xbc, 0xdd, 0x86, 0x0a, 0xbe,
  0xcd, 0xee, 0x5a, 0xbd, 0x3b, 0x66, 0x0f, 0x3f, 0xa4, 0x00, 0x83, 0xbe,
  0xa8, 0x77, 0x01, 0x3e, 0x5c, 0x7a, 0x71, 0x3d, 0xce, 0x60, 0x99, 0x3d,
  0x4d, 0xcd, 0x62, 0x3e, 0x78, 0x1b, 0x9d, 0xbe, 0xdf, 0x2e, 0x79, 0x3d,
  0xba, 0x42, 0xb6, 0xbd, 0x92, 0xf8, 0x4d, 0x3e, 0xb1, 0x5c, 0x8c, 0x3e,
  0x6a, 0x87, 0xbd, 0x3c, 0xd6, 0x8c, 0xab, 0xbd, 0xb0, 0x1c, 0x76, 0x3d,
  0x33, 0x18, 0xc8, 0xbd, 0x2d, 0xb7, 0xe8, 0xbe, 0x91, 0x48, 0xec, 0x3e,
  0xea, 0x62, 0xfc, 0xbc, 0x7c, 0xe2, 0x87, 0x3e, 0xf1, 0x5c, 0x70, 0xbe,
  0xce, 0x8c, 0x6a, 0xbe, 0x13, 0xc6, 0x93, 0x3d, 0xf2, 0x5c, 0x77, 0xbf,
  0x67, 0xa2, 0x40, 0x3d, 0x6d, 0x62, 0x49, 0xbf, 0x86, 0xd3, 0x82, 0x3d,
  0xe7, 0xd7, 0x73, 0x3e, 0x16, 0x71, 0x10, 0x3a, 0x0d, 0x51, 0xa5, 0xbe,
  0xfd, 0xad, 0xd9, 0x3c, 0x75, 0x7f, 0xb5, 0xbe, 0x70, 0xd0, 0x78, 0xbf,
  0x85, 0xc8, 0x1e, 0x3f, 0x4e, 0x15, 0x07, 0xbe, 0x1f, 0x23, 0x38, 0xbe,
  0x1c, 0xaf, 0xf8, 0xbd, 0xf5, 0x0c, 0x0a, 0xbd, 0xa9, 0xd6, 0x28, 0xbe,
  0x27, 0xd3, 0x04, 0xbf, 0x95, 0xa1, 0x77, 0x3c, 0x2d, 0x57, 0x1d, 0xbd,
  0xa5, 0xcf, 0xe3, 0x3e, 0x50, 0xd7, 0xc7, 0xbd, 0xf5, 0xe3, 0x5a, 0xbd,
  0xa2, 0xa7, 0xba, 0xbd, 0x8a, 0xd3, 0xd7, 0xbc, 0x33, 0xb2, 0x0a, 0x3e,
  0x0c, 0x10, 0xc9, 0x39, 0x73, 0x8a, 0x85, 0x3e, 0xc1, 0x6a, 0xfd, 0x3e,
  0xd4, 0x13, 0xb3, 0x3d, 0xb0, 0xe2, 0xca, 0xbd, 0x54, 0x40, 0x29, 0xbe,
  0xc0, 0xbb, 0x0d, 0xbe, 0xca, 0x59, 0xbd, 0xbd, 0x36, 0x68, 0x28, 0xbe,
  0x42, 0x54, 0x20, 0xbe, 0x18, 0x9e, 0x60, 0x3e, 0x66, 0x77, 0x01, 0x3d,
  0xa5, 0xd7, 0x2f, 0xbc, 0x29, 0x35, 0x6c, 0xbd, 0xb2, 0x98, 0x7b, 0xbe,
  0xc0, 0x51, 0xbd, 0xbc, 0x51, 0xa5, 0xb8, 0x3b, 0x5f, 0x0e, 0xa5, 0x3d,
  0x29, 0xbf, 0xf8, 0xbd, 0xc2, 0x7a, 0x2a, 0x3e, 0x79, 0xe6, 0xe4, 0x3d,
  0xed, 0x80, 0x03, 0xbe, 0x5a, 0x78, 0x35, 0xbd, 0xe9, 0x8d, 0x83, 0xbb,
  0xc1, 0xa2, 0x30, 0xbd, 0xd7, 0x1c, 0x18, 0xbd, 0x8c, 0x00, 0x61, 0x3e,
  0xda, 0xab, 0x4f, 0x3e, 0x33, 0x3d, 0xaa, 0xbd, 0x47, 0x6a, 0x4c, 0xbe,
  0x11, 0x0a, 0x1e, 0x3e, 0x1a, 0x7e, 0xc0, 0x3d, 0xaf, 0x5a, 0x8b, 0xbd,
  0x3e, 0x76, 0x05, 0x3e, 0xa1, 0x65, 0x38, 0x3e, 0x18, 0x3d, 0xde, 0x3d,
  0x07, 0x04, 0xde, 0x3d, 0xcf, 0xbe, 0x5e, 0x3b, 0x8d, 0xfe, 0xd3, 0xbd,
  0x00, 0x7d, 0xad, 0x3c, 0x40, 0x13, 0x2e, 0xbe, 0x16, 0xde, 0x39, 0xbe,
  0x93, 0xb2, 0x89, 0xbd, 0x9c, 0x07, 0xf4, 0xbc, 0xb6, 0xbf, 0x70, 0xbe,
  0xde, 0xa3, 0xf1, 0xbb, 0x54, 0x25, 0x93, 0xbd, 0x46, 0x0b, 0x40, 0xbe,
  0xa5, 0x53, 0x26, 0xbc, 0x59, 0x5b, 0xb0, 0xbc, 0xbb, 0x91, 0xac, 0x3d,
  0xb5, 0xfd, 0x8e, 0x3b, 0xe2, 0x63, 0x52, 0x3d, 0x12, 0x68, 0x4f, 0xbe,
  0xf0, 0x32, 0x8e, 0x3d, 0xee, 0x6f, 0x8e, 0xbe, 0xb1, 0xdb, 0x9e, 0xbd,
  0xd3, 0x30, 0x22, 0xbe, 0x6d, 0xa5, 0x47, 0xbd, 0x78, 0x4b, 0x0e, 0xbe,
  0x6c, 0x7c, 0xa9, 0xbd, 0x02, 0xc1, 0xf5, 0x3c, 0x53, 0xd6, 0xf6, 0x3d,
  0xd8, 0x36, 0x49, 0xbe, 0x28, 0xa9, 0x36, 0xbd, 0x16, 0x55, 0x67, 0xbc,
  0xf7, 0x06, 0x0c, 0x3e, 0x8c, 0x4f, 0x3b, 0xbe, 0x00, 0xde, 0x45, 0xbe,
  0x39, 0x40, 0x34, 0xbd, 0x5f, 0x74, 0xf7, 0xbd, 0x27, 0xf6, 0x4b, 0xbe,
  0xd2, 0x6d, 0x44, 0xbe, 0x58, 0x58, 0xf4, 0xbd, 0xec, 0x6d, 0xf7, 0xbd,
  0x05, 0x2e, 0xda, 0x3d, 0xcb, 0xfe, 0x7a, 0x3d, 0xb8, 0x84, 0xa9, 0xbd,
  0x8f, 0x1d, 0x71, 0xbe, 0xa1, 0x8a, 0xf4, 0xbd, 0x84, 0x4d, 0xa8, 0x3d,
  0xdd, 0x29, 0x75, 0xbc, 0xea, 0x07, 0x2c, 0xbe, 0xfa, 0x0f, 0x3b, 0x3d,
  0xeb, 0x4c, 0x0c, 0xbe, 0xf7, 0x01, 0x2b, 0xbd, 0xda, 0x10, 0x19, 0x3c,
  0xd7, 0xf0, 0x63, 0x3d, 0xa2, 0x4a, 0x11, 0xbd, 0xa6, 0x6c, 0x3a, 0xbe,
  0xeb, 0x50, 0x03, 0x3e, 0x48, 0x16, 0x22, 0xbe, 0xa3, 0x26, 0xfc, 0xbd,
  0x66, 0x04, 0xa2, 0x3e, 0x5d, 0x05, 0xb9, 0xbb, 0x9a, 0xda, 0x21, 0xbe,
  0x08, 0xa6, 0x9d, 0x3d, 0x25, 0x5f, 0x84, 0x3e, 0xc5, 0xa7, 0xb8, 0xbd,
  0x74, 0x19, 0xf9, 0x3a, 0x7a, 0xf5, 0xcf, 0xbc, 0xf3, 0x7c, 0xcd, 0xbb,
  0x03, 0x31, 0x41, 0xbd, 0x78, 0xd9, 0x84, 0x3d, 0x42, 0x8b, 0x7b, 0xbd,
  0x15, 0x2c, 0x26, 0x3e, 0xa7, 0x1c, 0xc2, 0xbc, 0xc8, 0xb5, 0x13, 0x3e,
  0x1e, 0x44, 0x1d, 0x3e, 0x73, 0x2f, 0xab, 0x3e, 0x95, 0x9a, 0x9c, 0x3c,
  0xf0, 0x2a, 0xa8, 0x3c, 0x4f, 0xf8, 0x1c, 0x3d, 0xb3, 0xc2, 0x94, 0x3c,
  0x56, 0x2a, 0x7f, 0xbd, 0x29, 0xdc, 0x05, 0x3e, 0x92, 0x4e, 0x9c, 0xbd,
  0x29, 0xf5, 0x8b, 0xbe, 0x02, 0x29, 0x80, 0xbe, 0x0b, 0xd4, 0x06, 0x3e,
  0xd2, 0xbe, 0xcd, 0xbe, 0xe6, 0x8c, 0x8b, 0xbe, 0xc0, 0x94, 0xa7, 0xbd,
  0x51, 0x59, 0xf2, 0x3d, 0xf5, 0x4a, 0xd3, 0xbd, 0xe2, 0x4f, 0x88, 0xbe,
  0x44, 0x41, 0x59, 0xbe, 0x62, 0x82, 0xd2, 0xbd, 0x40, 0x16, 0xfc, 0xbd,
  0x56, 0x90, 0x00, 0xbe, 0x99, 0xa7, 0xe9, 0x3e, 0x25, 0xd7, 0x24, 0x3e,
  0xbe, 0xe8, 0x54, 0xbe, 0x44, 0x31, 0x9b, 0xbe, 0xeb, 0x8b, 0xc2, 0xbd,
  0x85, 0xb4, 0x9e, 0x3f, 0xbe, 0x74, 0xca, 0xbe, 0x00, 0x5a, 0x82, 0xbe,
  0xcd, 0x2a, 0x5a, 0x3e, 0xce, 0xbf, 0xde, 0xbd, 0xf7, 0x3a, 0xa2, 0x3c,
  0xb7, 0x42, 0x18, 0xbe, 0x63, 0x06, 0xbb, 0xbd, 0xaa, 0xe3, 0x41, 0x3d,
  0x83, 0x81, 0x99, 0xbd, 0xcf, 0xec, 0xed, 0xbd, 0x04, 0x04, 0xda, 0x3e,
  0x5b, 0x1b, 0x58, 0x3d, 0x97, 0x9c, 0x5f, 0x3d, 0xd0, 0xda, 0x69, 0xbe,
  0xf7, 0xf9, 0x5b, 0xbe, 0xd3, 0x8c, 0x90, 0x3f, 0xe8, 0x26, 0x81, 0xbe,
  0x12, 0x82, 0x91, 0xbe, 0x74, 0xd1, 0x15, 0x3f, 0xe5, 0xc5, 0x75, 0x3d,
  0x43, 0x0a, 0x81, 0xbe, 0x59, 0xaf, 0x2d, 0xbe, 0x7b, 0x83, 0x78, 0xbe,
  0x8e, 0x85, 0x14, 0xbe, 0x86, 0xf6, 0x69, 0xbe, 0x5c, 0x93, 0xf6, 0x3d,
  0xcc, 0xed, 0xf4, 0x3e, 0x74, 0x4f, 0x2c, 0x3d, 0xb8, 0xe0, 0x4d, 0xbe,
  0x8c, 0x1b, 0xd6, 0x3c, 0x57, 0xf7, 0x80, 0xbe, 0xde, 0x1a, 0x91, 0x3f,
  0x71, 0x1e, 0x8a, 0xbe, 0x3c, 0xed, 0x8f, 0xbe, 0x6e, 0x0c, 0x6e, 0x3f,
  0xa4, 0x7d, 0xa0, 0x3d, 0x6a, 0xd1, 0xae, 0xbe, 0xb3, 0x24, 0x28, 0xbe,
  0x42, 0xda, 0x79, 0xbd, 0x04, 0xd4, 0x58, 0xbd, 0x49, 0xd4, 0x57, 0xbe,
  0x1e, 0xe6, 0xaf, 0x3e, 0x6f, 0x28, 0xce, 0x3e, 0x46, 0xc4, 0xf3, 0xbd,
  0x44, 0xbc, 0x2e, 0x3e, 0x7f, 0x9e, 0xdb, 0x3c, 0x5e, 0xc6, 0x67, 0xbe,
  0xcf, 0x31, 0x4d, 0x3e, 0x1b, 0xb8, 0x36, 0xbe, 0x86, 0xf8, 0x66, 0x3d,
  0xd4, 0x2b, 0x98, 0x3e, 0x45, 0xdc, 0x11, 0xbe, 0xc0, 0x94, 0xa0, 0x3c,
  0x1a, 0xa0, 0xf2, 0x3d, 0xcc, 0xe4, 0x6f, 0xbe, 0xb2, 0x8c, 0x14, 0x3e,
  0x17, 0xc7, 0xcd, 0xbe, 0xa4, 0x88, 0xa9, 0xbd, 0x53, 0xe3, 0x16, 0x3f,
  0x28, 0x05, 0x47, 0xbe, 0x77, 0xcd, 0xaf, 0xbc, 0x86, 0xfb, 0x4f, 0xbe,
  0x14, 0x52, 0xba, 0xbb, 0x4f, 0x5b, 0xc4, 0x3d, 0xaa, 0x23, 0x5f, 0xbe,
  0x1c, 0xd1, 0x9c, 0x3d, 0x2f, 0xe0, 0xd5, 0x3e, 0xdb, 0xbd, 0xa0, 0x3c,
  0xdc, 0xae, 0xb5, 0xbd, 0x2e, 0xb7, 0x35, 0xbe, 0x61, 0xad, 0x88, 0xbe,
  0x59, 0x87, 0xcf, 0xbc, 0xad, 0x63, 0xbc, 0xbd, 0xc7, 0x23, 0x0e, 0xbe,
  0xde, 0x36, 0x95, 0x3e, 0x5f, 0xc3, 0x99, 0xbd, 0xa3, 0x21, 0x5b, 0xbc,
  0x16, 0xeb, 0x64, 0xbe, 0x4a, 0xa4, 0xcc, 0xbb, 0xb5, 0xd1, 0x19, 0x3e,
  0x8b, 0x82, 0xca, 0xbd, 0xe9, 0x73, 0x90, 0xbe, 0x74, 0x2d, 0x23, 0x3f,
  0xfa, 0x5d, 0x5a, 0xbd, 0xee, 0xc7, 0x54, 0xbe, 0x93, 0xc6, 0x7c, 0xbe,
  0xa9, 0x8a, 0xaa, 0xbe, 0x06, 0x68, 0x8c, 0xbd, 0x44, 0xad, 0xaa, 0xbe,
  0xfe, 0x77, 0xdc, 0xbc, 0x7c, 0xea, 0x94, 0xbe, 0x7f, 0x14, 0xf1, 0xbc,
  0xd9, 0xc2, 0x24, 0x3d, 0x6b, 0x15, 0x9b, 0x3c, 0xb9, 0x7a, 0x99, 0xbc,
  0xa1, 0x57, 0x24, 0x3e, 0x62, 0x69, 0xae, 0xbc, 0x5b, 0xc1, 0x9e, 0x3e,
  0x2b, 0x06, 0x74, 0xbe, 0x5e, 0xaa, 0xe5, 0x3e, 0x1f, 0xa9, 0x9b, 0xbd,
  0x7f, 0x8f, 0x0b, 0x3e, 0x75, 0x8d, 0x0b, 0x3e, 0x52, 0x2f, 0xef, 0xbd,
  0x6f, 0x98, 0x5b, 0x3e, 0xe1, 0xb4, 0xe0, 0xbd, 0x42, 0x43, 0x9c, 0xbe,
  0x0b, 0xdc, 0xc3, 0xbd, 0x4f, 0xba, 0x3f, 0xbe, 0x56, 0x4c, 0xcb, 0xbd,
  0xec, 0xad, 0x9b, 0xbe, 0x6e, 0xc7, 0x53, 0xbe, 0x45, 0xaa, 0x40, 0xbc,
  0x45, 0xac, 0x9b, 0x3e, 0x7a, 0x63, 0xab, 0xbe, 0x45, 0x03, 0xf2, 0xbe,
  0xec, 0xd0, 0x90, 0x3c, 0xa8, 0xb1, 0xab, 0x3d, 0xeb, 0x5c, 0xd5, 0x3d,
  0x98, 0xb1, 0x08, 0x3e, 0x81, 0x32, 0x99, 0x3d, 0xe9, 0x3e, 0xbc, 0xbd,
  0x8d, 0x12, 0xbe, 0x3d, 0x57, 0x66, 0x0b, 0x3c, 0x42, 0x42, 0x65, 0xbc,
  0x78, 0x12, 0x4a, 0xbe, 0xdf, 0x6d, 0xc8, 0x3c, 0xcd, 0xbb, 0xfd, 0xbd,
  0x2c, 0x0a, 0x25, 0xbd, 0xef, 0x70, 0xd9, 0x3d, 0xee, 0x49, 0x1c, 0x3e,
  0x0a, 0x93, 0x8c, 0xbd, 0xcc, 0x48, 0x1f, 0x3d, 0x73, 0x11, 0x81, 0xbe,
  0xff, 0xb8, 0xa0, 0xbd, 0x2a, 0x56, 0xab, 0x3e, 0x00, 0x4e, 0xb0, 0xbe,
  0xe1, 0x72, 0x4e, 0x3e, 0x21, 0x6d, 0xe7, 0xbc, 0x48, 0xfb, 0x6c, 0xbd,
  0xa9, 0x38, 0x30, 0x3e, 0x70, 0xb0, 0xe3, 0xbe, 0xf5, 0x66, 0xfa, 0xbd,
  0xd9, 0x63, 0xf6, 0xbe, 0xca, 0xe0, 0x77, 0xbd, 0x09, 0x1f, 0xc7, 0xbe,
  0x4f, 0x02, 0x9e, 0x3b, 0xa1, 0x02, 0xa4, 0xbe, 0x8f, 0x08, 0x91, 0xbc,
  0x76, 0xd1, 0x2c, 0xbe, 0x16, 0xc8, 0x0c, 0xbe, 0x47, 0x91, 0x35, 0xbd,
  0x9f, 0xca, 0x11, 0xbf, 0x34, 0x92, 0x18, 0xbe, 0xd6, 0xfa, 0x7e, 0xbd,
  0x55, 0x09, 0xac, 0x3b, 0x1a, 0x4b, 0xad, 0x3c, 0xab, 0x4a, 0xd9, 0xbc,
  0x0b, 0xf6, 0x5c, 0xbb, 0xd5, 0xec, 0x97, 0x3d, 0xd6, 0xf5, 0x14, 0xbd,
  0xef, 0x32, 0xb3, 0xbd, 0x90, 0x4d, 0x32, 0x3b, 0xa5, 0x36, 0x57, 0xbd,
  0x9d, 0x39, 0xd1, 0x3b, 0xa4, 0x48, 0x62, 0x3e, 0xf1, 0xba, 0x34, 0xbe,
  0x93, 0x03, 0x6e, 0x3d, 0xdb, 0x0a, 0x69, 0xbe, 0x6c, 0x34, 0x89, 0x3d,
  0xf4, 0x1c, 0x4c, 0x3e, 0x0e, 0xd1, 0x38, 0xbf, 0x32, 0xc1, 0x2f, 0xbd,
  0x5f, 0x75, 0x13, 0x3d, 0xcc, 0x30, 0x98, 0x3d, 0x72, 0xbf, 0x15, 0x3e,
  0xcb, 0x63, 0x8a, 0xbd, 0xcc, 0x81, 0xa0, 0xbd, 0x64, 0xdf, 0x51, 0xbe,
  0x42, 0x36, 0xe1, 0x3d, 0xb1, 0xfe, 0x17, 0xbd, 0xaa, 0x44, 0x57, 0x3e,
  0xc8, 0xc2, 0x65, 0xbd, 0xd0, 0x2a, 0x82, 0xbe, 0x48, 0x27, 0x8c, 0x3d,
  0x4b, 0x63, 0x4a, 0xbe, 0x20, 0x1d, 0x58, 0x3e, 0x22, 0xca, 0x1d, 0x3e,
  0x8b, 0xfb, 0x64, 0xbd, 0xa1, 0x05, 0xc5, 0x3c, 0xc5, 0x62, 0xef, 0x3d,
  0x29, 0x2e, 0x58, 0x3e, 0xf1, 0x84, 0x64, 0x3b, 0x2b, 0x80, 0x95, 0x3d,
  0xc6, 0x75, 0xe7, 0xbe, 0xbb, 0x5c, 0x41, 0x3d, 0xa1, 0x8d, 0x15, 0x3c,
  0xde, 0x6d, 0x07, 0x3e, 0xe5, 0x12, 0x87, 0x3c, 0x71, 0xb6, 0x37, 0xbe,
  0x26, 0x6f, 0x81, 0x3d, 0x0e, 0x91, 0x01, 0x3e, 0x00, 0x05, 0xaa, 0xbe,
  0x9a, 0xfd, 0xff, 0xff, 0x10, 0x00, 0x00, 0x00, 0x05, 0x00, 0x00, 0x00,
  0x10, 0x00, 0x00, 0x00, 0x30, 0x00, 0x00, 0x00, 0x01, 0x00, 0x00, 0x00,
  0x08, 0x00, 0x00, 0x00, 0x1d, 0x00, 0x00, 0x00, 0x73, 0x65, 0x71, 0x75,
  0x65, 0x6e, 0x74, 0x69, 0x61, 0x6c, 0x2f, 0x63, 0x6f, 0x6e, 0x76, 0x32,
  0x64, 0x2f, 0x43, 0x6f, 0x6e, 0x76, 0x32, 0x44, 0x5f, 0x62, 0x69, 0x61,
  0x73, 0x00, 0x00, 0x00, 0xac, 0xfc, 0xff, 0xff, 0x20, 0x00, 0x00, 0x00,
  0xd3, 0x5e, 0x1b, 0xc0, 0xa9, 0xbe, 0x6a, 0xbf, 0x44, 0x9a, 0x1a, 0xc0,
  0x78, 0x16, 0x2b, 0xc0, 0x41, 0x26, 0xf5, 0xbf, 0x9c, 0x0f, 0x9f, 0xbf,
  0xc9, 0xfb, 0xe3, 0xbe, 0x99, 0xc9, 0x85, 0xbd, 0x02, 0xfe, 0xff, 0xff,
  0x10, 0x00, 0x00, 0x00, 0x04, 0x00, 0x00, 0x00, 0x10, 0x00, 0x00, 0x00,
  0x30, 0x00, 0x00, 0x00, 0x01, 0x00, 0x00, 0x00, 0x10, 0x00, 0x00, 0x00,
  0x1f, 0x00, 0x00, 0x00, 0x73, 0x65, 0x71, 0x75, 0x65, 0x6e, 0x74, 0x69,
  0x61, 0x6c, 0x2f, 0x63, 0x6f, 0x6e, 0x76, 0x32, 0x64, 0x5f, 0x31, 0x2f,
  0x43, 0x6f, 0x6e, 0x76, 0x32, 0x44, 0x5f, 0x62, 0x69, 0x61, 0x73, 0x00,
  0x14, 0xfd, 0xff, 0xff, 0x40, 0x00, 0x00, 0x00, 0xd0, 0xae, 0x10, 0xbf,
  0x85, 0xc0, 0xa1, 0xbf, 0x31, 0x37, 0xff, 0xbe, 0x04, 0x35, 0x44, 0xbf,
  0xc3, 0xd8, 0x06, 0x40, 0xb5, 0xed, 0x8c, 0x3e, 0x33, 0xfc, 0xe8, 0xbf,
  0x80, 0x8c, 0x16, 0x3f, 0x37, 0xa2, 0x0e, 0xc0, 0x8b, 0xff, 0x83, 0x3d,
  0x43, 0x51, 0x8a, 0xbf, 0xdd, 0xf2, 0x6c, 0xbf, 0x54, 0xf8, 0x1d, 0xbf,
  0xb9, 0x11, 0x91, 0xbf, 0x63, 0x97, 0x68, 0xbc, 0x71, 0x70, 0xff, 0x3e,
  0x8a, 0xfe, 0xff, 0xff, 0x10, 0x00, 0x00, 0x00, 0x03, 0x00, 0x00, 0x00,
  0x10, 0x00, 0x00, 0x00, 0x30, 0x00, 0x00, 0x00, 0x01, 0x00, 0x00, 0x00,
  0x03, 0x00, 0x00, 0x00, 0x1e, 0x00, 0x00, 0x00, 0x73, 0x65, 0x71, 0x75,
  0x65, 0x6e, 0x74, 0x69, 0x61, 0x6c, 0x2f, 0x64, 0x65, 0x6e, 0x73, 0x65,
  0x5f, 0x31, 0x2f, 0x4d, 0x61, 0x74, 0x4d, 0x75, 0x6c, 0x5f, 0x62, 0x69,
  0x61, 0x73, 0x00, 0x00, 0x9c, 0xfd, 0xff, 0xff, 0x0c, 0x00, 0x00, 0x00,
  0x45, 0xca, 0x43, 0xc0, 0xa4, 0x5d, 0x37, 0xbf, 0xcd, 0xc3, 0x0c, 0x40,
  0xde, 0xfe, 0xff, 0xff, 0x10, 0x00, 0x00, 0x00, 0x02, 0x00, 0x00, 0x00,
  0x14, 0x00, 0x00, 0x00, 0x48, 0x00, 0x00, 0x00, 0x02, 0x00, 0x00, 0x00,
  0x03, 0x00, 0x00, 0x00, 0x10, 0x00, 0x00, 0x00, 0x32, 0x00, 0x00, 0x00,
  0x73, 0x65, 0x71, 0x75, 0x65, 0x6e, 0x74, 0x69, 0x61, 0x6c, 0x2f, 0x64,
  0x65, 0x6e, 0x73, 0x65, 0x5f, 0x31, 0x2f, 0x4d, 0x61, 0x74, 0x4d, 0x75,
  0x6c, 0x2f, 0x52, 0x65, 0x61, 0x64, 0x56, 0x61, 0x72, 0x69, 0x61, 0x62,
  0x6c, 0x65, 0x4f, 0x70, 0x2f, 0x74, 0x72, 0x61, 0x6e, 0x73, 0x70, 0x6f,
  0x73, 0x65, 0x00, 0x00, 0x08, 0xfe, 0xff, 0xff, 0xc0, 0x00, 0x00, 0x00,
  0x0d, 0xf0, 0xb9, 0x3e, 0x46, 0x43, 0x08, 0xbe, 0x73, 0x3e, 0x61, 0x3d,
  0xb3, 0xc1, 0xe1, 0xbd, 0xa5, 0x76, 0xfa, 0x3e, 0xcd, 0xc9, 0x20, 0x3f,
  0x1b, 0xe5, 0x9c, 0x3d, 0x44, 0x77, 0xa2, 0xbe, 0xf1, 0xd8, 0xde, 0x3e,
  0x3d, 0x75, 0x9b, 0x3e, 0x88, 0x33, 0xa2, 0x3e, 0xf7, 0x64, 0x67, 0x3e,
  0x6d, 0xe3, 0x94, 0x3a, 0x4e, 0x53, 0x8e, 0x3e, 0x6e, 0xef, 0x5b, 0x3e,
  0x6a, 0x8c, 0xde, 0xbe, 0x78, 0x93, 0xa1, 0x3e, 0x41, 0xb5, 0xa4, 0xbd,
  0xe1, 0x56, 0x78, 0xbc, 0x3b, 0x88, 0xb1, 0x3c, 0x91, 0x1b, 0xdf, 0x3e,
  0x62, 0x3b, 0x2f, 0xbf, 0x57, 0xf7, 0x10, 0x3e, 0x33, 0x67, 0x3e, 0x3e,
  0x3c, 0x2a, 0xcf, 0x3e, 0x98, 0xf9, 0xd3, 0x3e, 0x7c, 0x56, 0xc8, 0x3d,
  0x5d, 0x21, 0x3c, 0xbd, 0xbc, 0x82, 0xf4, 0x3b, 0xa1, 0x82, 0xbf, 0x3e,
  0xa3, 0xb6, 0x4d, 0xbf, 0x32, 0x05, 0xd5, 0xbe, 0x59, 0x15, 0x95, 0x3e,
  0x37, 0x1d, 0x04, 0xbd, 0x65, 0x6a, 0xc3, 0x3d, 0x04, 0x23, 0xab, 0xbc,
  0xf7, 0x6c, 0xe7, 0x3e, 0xaf, 0x93, 0xd0, 0xbe, 0x93, 0x23, 0x83, 0x3d,
  0x59, 0x51, 0xf7, 0xbe, 0x40, 0x90, 0xbf, 0x3e, 0x8b, 0x04, 0xd7, 0x3c,
  0xa1, 0x71, 0x8f, 0x3e, 0x49, 0xdf, 0x9f, 0x3e, 0xf8, 0x84, 0x93, 0x3d,
  0xf7, 0x18, 0x9c, 0x3e, 0xbf, 0x41, 0xa2, 0xbf, 0xea, 0x89, 0x00, 0xbf,
  0x00, 0x00, 0x0e, 0x00, 0x14, 0x00, 0x04, 0x00, 0x00, 0x00, 0x08, 0x00,
  0x0c, 0x00, 0x10, 0x00, 0x0e, 0x00, 0x00, 0x00, 0x10, 0x00, 0x00, 0x00,
  0x01, 0x00, 0x00, 0x00, 0x10, 0x00, 0x00, 0x00, 0x30, 0x00, 0x00, 0x00,
  0x01, 0x00, 0x00, 0x00, 0x10, 0x00, 0x00, 0x00, 0x1c, 0x00, 0x00, 0x00,
  0x73, 0x65, 0x71, 0x75, 0x65, 0x6e, 0x74, 0x69, 0x61, 0x6c, 0x2f, 0x64,
  0x65, 0x6e, 0x73, 0x65, 0x2f, 0x4d, 0x61, 0x74, 0x4d, 0x75, 0x6c, 0x5f,
  0x62, 0x69, 0x61, 0x73, 0x00, 0x00, 0x00, 0x00, 0x20, 0xff, 0xff, 0xff,
  0x40, 0x00, 0x00, 0x00, 0xb4, 0x16, 0xb2, 0xbe, 0xbb, 0x4c, 0xcb, 0xbe,
  0xbb, 0x58, 0x54, 0x3c, 0xf4, 0x47, 0xcf, 0xbe, 0xc5, 0x6b, 0xcb, 0x3d,
  0xed, 0x89, 0x03, 0x40, 0xb3, 0x41, 0xd1, 0xbf, 0x52, 0x47, 0x35, 0xbe,
  0x9e, 0xaa, 0x71, 0xbc, 0x21, 0x70, 0xa2, 0xbe, 0x41, 0xe5, 0x27, 0x40,
  0x7d, 0x04, 0x2d, 0xbe, 0xfd, 0x98, 0x61, 0x40, 0x9a, 0xca, 0x19, 0xbe,
  0xe0, 0x94, 0x2c, 0x40, 0x77, 0x55, 0xd8, 0xbf, 0x07, 0x00, 0x00, 0x00,
  0x00, 0x02, 0x00, 0x00, 0x90, 0x01, 0x00, 0x00, 0x3c, 0x01, 0x00, 0x00,
  0xd0, 0x00, 0x00, 0x00, 0x8c, 0x00, 0x00, 0x00, 0x48, 0x00, 0x00, 0x00,
  0x04, 0x00, 0x00, 0x00, 0x30, 0xfe, 0xff, 0xff, 0x00, 0x00, 0x00, 0x09,
  0x04, 0x00, 0x00, 0x00, 0x10, 0x00, 0x00, 0x00, 0x14, 0x00, 0x00, 0x00,
  0x24, 0x00, 0x00, 0x00, 0x14, 0x00, 0x00, 0x00, 0x01, 0x00, 0x00, 0x00,
  0x0b, 0x00, 0x00, 0x00, 0x01, 0x00, 0x00, 0x00, 0x00, 0x00, 0x00, 0x00,
  0x00, 0x00, 0x00, 0x00, 0x00, 0x00, 0x06, 0x00, 0x08, 0x00, 0x04, 0x00,
  0x06, 0x00, 0x00, 0x00, 0x00, 0x00, 0x80, 0x3f, 0x70, 0xfe, 0xff, 0xff,
  0x00, 0x00, 0x00, 0x08, 0x02, 0x00, 0x00, 0x00, 0x10, 0x00, 0x00, 0x00,
  0x1c, 0x00, 0x00, 0x00, 0x28, 0x00, 0x00, 0x00, 0x1c, 0x00, 0x00, 0x00,
  0x03, 0x00, 0x00, 0x00, 0x0a, 0x00, 0x00, 0x00, 0x0c, 0x00, 0x00, 0x00,
  0x0d, 0x00, 0x00, 0x00, 0x01, 0x00, 0x00, 0x00, 0x0b, 0x00, 0x00, 0x00,
  0x00, 0x00, 0x00, 0x00, 0x04, 0x00, 0x04, 0x00, 0x04, 0x00, 0x00, 0x00,
  0xb0, 0xfe, 0xff, 0xff, 0x00, 0x00, 0x00, 0x08, 0x02, 0x00, 0x00, 0x00,
  0x10, 0x00, 0x00, 0x00, 0x1c, 0x00, 0x00, 0x00, 0x24, 0x00, 0x00, 0x00,
  0x1c, 0x00, 0x00, 0x00, 0x03, 0x00, 0x00, 0x00, 0x0f, 0x00, 0x00, 0x00,
  0x08, 0x00, 0x00, 0x00, 0x09, 0x00, 0x00, 0x00, 0x01, 0x00, 0x00, 0x00,
  0x0a, 0x00, 0x00, 0x00, 0x00, 0x00, 0x00, 0x00, 0x2e, 0xfe, 0xff, 0xff,
  0x00, 0x00, 0x00, 0x01, 0xf0, 0xfe, 0xff, 0xff, 0x00, 0x00, 0x00, 0x05,
  0x03, 0x00, 0x00, 0x00, 0x10, 0x00, 0x00, 0x00, 0x14, 0x00, 0x00, 0x00,
  0x2c, 0x00, 0x00, 0x00, 0x14, 0x00, 0x00, 0x00, 0x01, 0x00, 0x00, 0x00,
  0x07, 0x00, 0x00, 0x00, 0x01, 0x00, 0x00, 0x00, 0x0f, 0x00, 0x00, 0x00,
  0x00, 0x00, 0x00, 0x00, 0x00, 0x00, 0x0e, 0x00, 0x14, 0x00, 0x00, 0x00,
  0x04, 0x00, 0x08, 0x00, 0x0c, 0x00, 0x10, 0x00, 0x0e, 0x00, 0x00, 0x00,
  0x01, 0x00, 0x00, 0x00, 0x03, 0x00, 0x00, 0x00, 0x01, 0x00, 0x00, 0x00,
  0x03, 0x00, 0x00, 0x00, 0x14, 0x00, 0x18, 0x00, 0x00, 0x00, 0x08, 0x00,
  0x0c, 0x00, 0x07, 0x00, 0x10, 0x00, 0x00, 0x00, 0x00, 0x00, 0x14, 0x00,
  0x14, 0x00, 0x00, 0x00, 0x00, 0x00, 0x00, 0x01, 0x10, 0x00, 0x00, 0x00,
  0x1c, 0x00, 0x00, 0x00, 0x30, 0x00, 0x00, 0x00, 0x1c, 0x00, 0x00, 0x00,
  0x03, 0x00, 0x00, 0x00, 0x0e, 0x00, 0x00, 0x00, 0x05, 0x00, 0x00, 0x00,
  0x06, 0x00, 0x00, 0x00, 0x01, 0x00, 0x00, 0x00, 0x07, 0x00, 0x00, 0x00,
  0x00, 0x00, 0x00, 0x00, 0x0c, 0x00, 0x10, 0x00, 0x00, 0x00, 0x08, 0x00,
  0x0c, 0x00, 0x07, 0x00, 0x0c, 0x00, 0x00, 0x00, 0x00, 0x00, 0x00, 0x01,
  0x01, 0x00, 0x00, 0x00, 0x01, 0x00, 0x00, 0x00, 0xa8, 0xff, 0xff, 0xff,
  0x00, 0x00, 0x00, 0x05, 0x03, 0x00, 0x00, 0x00, 0x10, 0x00, 0x00, 0x00,
  0x14, 0x00, 0x00, 0x00, 0x2c, 0x00, 0x00, 0x00, 0x14, 0x00, 0x00, 0x00,
  0x01, 0x00, 0x00, 0x00, 0x04, 0x00, 0x00, 0x00, 0x01, 0x00, 0x00, 0x00,
  0x0e, 0x00, 0x00, 0x00, 0x00, 0x00, 0x00, 0x00, 0x00, 0x00, 0x0e, 0x00,
  0x18, 0x00, 0x07, 0x00, 0x08, 0x00, 0x0c, 0x00, 0x10, 0x00, 0x14, 0x00,
  0x0e, 0x00, 0x00, 0x00, 0x00, 0x00, 0x00, 0x01, 0x03, 0x00, 0x00, 0x00,
  0x03, 0x00, 0x00, 0x00, 0x03, 0x00, 0x00, 0x00, 0x03, 0x00, 0x00, 0x00,
  0x14, 0x00, 0x1c, 0x00, 0x08, 0x00, 0x0c, 0x00, 0x10, 0x00, 0x07, 0x00,
  0x14, 0x00, 0x00, 0x00, 0x00, 0x00, 0x18, 0x00, 0x14, 0x00, 0x00, 0x00,
  0x00, 0x00, 0x00, 0x02, 0x01, 0x00, 0x00, 0x00, 0x10, 0x00, 0x00, 0x00,
  0x1c, 0x00, 0x00, 0x00, 0x34, 0x00, 0x00, 0x00, 0x1c, 0x00, 0x00, 0x00,
  0x03, 0x00, 0x00, 0x00, 0x01, 0x00, 0x00, 0x00, 0x02, 0x00, 0x00, 0x00,
  0x03, 0x00, 0x00, 0x00, 0x01, 0x00, 0x00, 0x00, 0x04, 0x00, 0x00, 0x00,
  0x00, 0x00, 0x00, 0x00, 0x00, 0x00, 0x0e, 0x00, 0x14, 0x00, 0x00, 0x00,
  0x08, 0x00, 0x0c, 0x00, 0x10, 0x00, 0x07, 0x00, 0x0e, 0x00, 0x00, 0x00,
  0x00, 0x00, 0x00, 0x01, 0x01, 0x00, 0x00, 0x00, 0x01, 0x00, 0x00, 0x00,
  0x08, 0x00, 0x00, 0x00, 0x05, 0x00, 0x00, 0x00, 0x34, 0x00, 0x00, 0x00,
  0x48, 0x00, 0x00, 0x00, 0x14, 0x00, 0x00, 0x00, 0x20, 0x00, 0x00, 0x00,
  0x04, 0x00, 0x00, 0x00, 0xce, 0xff, 0xff, 0xff, 0x00, 0x00, 0x00, 0x19,
  0xd6, 0xff, 0xff, 0xff, 0x00, 0x00, 0x00, 0x09, 0xde, 0xff, 0xff, 0xff,
  0x00, 0x00, 0x00, 0x09, 0xe6, 0xff, 0xff, 0xff, 0x00, 0x00, 0x00, 0x11,
  0xfa, 0xff, 0xff, 0xff, 0x00, 0x03, 0x06, 0x00, 0x06, 0x00, 0x05, 0x00,
  0x06, 0x00, 0x00, 0x00, 0x00, 0x11, 0x06, 0x00, 0x08, 0x00, 0x07, 0x00,
  0x06, 0x00, 0x00, 0x00, 0x00, 0x00, 0x00, 0x04
};
unsigned int _home_ee2405_ee2405_mbed07_model_model_tflite_len = 12380;
